000011101100000000000100101111110001001000000100110111110011100011011110110010000000001111111110
000001101001100011110010000000101011001101000000111010111111100110010101000010101111001110101101
010000101011010011010010111101111000111100010010000100111101001011010101000001100100101010111111
101011001101111111010000110111001101011100011010111100100001100100010010110101101101000101011001
010111011011101011111101111110111100011010111000001010111111000110101000000000001111000111101111
111001110000101100110010011000110000000001100101111000100011011011011000111100010000100011001001
010101100010111000001000001010010000110000011010001011101001001000101011000101000100000000111001
001010100000110011011101000001110001010011001001000101011101101000100111111010110010101001000001
000111110000100110110101100001010010100011011111010100111100110001000011100111000010001010111111
000110101110000100000000000010011110100100110001110101000110000111001010111010011111110111101100
111010010001100100000000010110001101000001001101001110110011101100100101110111010000010100111000
001100101000100011010110111000001110101011000111001001000111100011010011101010011111010011000101
110010100000110110110110110001000000111110101111000110100100011000000100110010100001010100100011
101111100110010111101000101111100001101010101111110000110111110000000000001000111100001011101101
011100011110110011110101001001101000000101001111111100101101110110111111110111000100111111111101
010100100010000100011001010111111111010100110010111011011111010100101001010000000100100111010001
101011110001001010111100111110100101000110110001111011100010000000001011110001011100101000011000
000000010001000011010100111101010100101100110110000010001111100100101100111101110010100100000111
111100111011100100010110110000001001100100000000001111011110001110000110000101101110001011011111
110011011000101110101001000100101010001111111000100000010001000010110100000001111001000110001110
110010010101011100001000111000000001111011010010000100010010111100000110111110111100000011101000
000000000001100011011001101111100001011010000001111000100011001011110101110110011110001000010000
001000010011100100100101111100100010000011010110111110010011110110101101010101110010010000101000
000111000010110011000011111000110100010011001011000011100111001100010110100000111011100111100001
000011110000111111010001101111000001010100101100001110011110011000011101111010110100010011010101
110011101110100001000101000011111111100001101001000100011111010010110100011111110010111101000001
001001100111000001000100000001000011110011111111111100001011001101110000111010111011110000111101
111100000100101000110110001101111110110000111000111111000001001001001011010000111110011001111111
110100011101001001100010110101000000010000010011101001010010100100100001001111011011001100010101
101100111000000100001101001100101100010100000100000000111011100110111011111111001110010010101010
001000110011010111100111110010110011110110100110110110000000100001010110101111011011100111100110
011111111010010111000110111001000000101100010100000001101111001111010111111010100111000111001001
110100000011010111111011110111111111000100100001000000011110001001000101111010010001010100000011
000001111000010110001111110010011011100111111001000100100000000111011001111010010101100011100101
110101000111100111011000111011100101100100011100101100101110011100000100111111101010100101000010
111111000010111000001101101011000000111111001000111111110100100001001010001110101100011100000011
101100100110010100110110000110011011011111100100110111110001100000011101001101110010000000100001
111100100010110000111100111100001110000011011000110110101101000111011001001101101101111100000101
110110101110101110110001110101111111011100110000001010000011100110111010101111110100001111011100
101110100100101100010000010101100010101011000100111000011000000101000101000001001101011100000001
010100000011100100111110101100100101010110110000000001001111101101111111000010000000100100110101
000110001001000111011010101100011110000010110010111100000100001000000001101111101100001010101010
111000001010100000110011011101011110001000010010110100001100101011001101000110000010100011110100
000100010000110011001110011111101111100000101101111100100011100011001110111010100011001010110011
000110111100011000110111111111001110001111100101111101100000000010000100111001100010000010110001
111011001101101011000110110011100110000101000111111100111101001100011000000111111100111001101011
100011111001001000010111010011011101101100001001001101011111110011101100111011101101010010111101
010010101000101011000110111110010001100011111111010001001011101010110000110100100101001010011100
111111110001101101000000001100001101110000100000111001011010101000110010001110111110010000000011
000111100001110100001110111010100100110111011010000010010011000100011011000001100001001000010011
001001000000110100111100111001000011101100000011111000010101001100110011000111100000100100011111
010001011001011100001010110010101100100100010111001001001100111000010101001010010101110111001010
100100011111100001101001011100010000101100001110111001011011011100110011010011110011101000100110
000111101111001111001101001000010010001011011111000000010010110011100100000010100000001100001111
000101000001000110110000100011000101110111000011110100100100001000101011000010111011010100010110
000000000001011110111101111000110000111100001001001010010000000001010011111100010011110000011101
111110111010110110110010111111101100111000000100001010101101001111000111110011100011101111011111
110100000101111100011110110100000001111100010011111100100010010111111110000000001101010001000101
001101100000110011110110000011111111000111110000111111001111011111100100000001101110100111000111
110001010000101000010110011111110000100000100111111100110001100111101000000000100010100100001111
000000010110011001111111001101000011110111001100001010011011100101110111010001100100110101100100
110010000000010000011001100110010010111111101100101100100000000101001011111111011000000100111111
111111000010000101000101010000001110000001011010000100000000011100001100000010110100001000001101
000100110110100001000111001111000010101100111001110000001111001100101101000011011110010100100111
001100001111001011110011111100111101001011100100001110011110000011100001000011010000001100101110
000110110100101000010111101110111111010111001101111001100110001111011110001100111110010111001011
001011100000000111101110000110001110110111001010000001000110011100001000001001101110101110111011
000100010000011111011001000001011010110100011011110110010001100000001011111010001000110011111010
000110101110111111111100000000100100101110110100010100101111011111000110000010000001100100100111
001010100110100111110011111101101010101010101111001001000001101111101011001101010101000010111011
101010111100010000001011101100110110111100000111010101111000000111100000001001100101011110100001
000000111101001000110001000101000010100011001110110011111011001110111011000101101100101100101011
111010111111011000000101111111100011111011111000000000001010110110111001000011001101001000101010
011000000100000100111111010001111011000111011100111001110011110101111111110111101011111000100010
001000110000100001000010001100001110111000101001011111111100111001001011110101110100010101000010
111100111111000101100111001100011111101111111100101100111110000100100010100011001001000101100110
000011001011110100000101010101111111110100001100110001011101000000111101101011011011100101111111
111001111111011111001110010001101010011000010101100110110010100101000001100111101111111100110001
000010011111011101000011100000010110100110100110011100000010011111000101010100010011011010101000
000111110111111101010100000011010010100100000101010000010011011000100110000111111111011111111010
010111100011100011101110010001011011010100101000110101100001001101101101101011001111101001011001
001000000001000100001101001011110011100111011000000101001111101000101000111101110000001111010000
111111001110100111100010111101001111010010001111000100011101101110110011010010001110010100101110
111100100101110010110001111101011000000110010010110011010111000100010110111010011000000111111101
000101001101010010111101001100011111000000000111110101101101001000100000000010101000110100111011
111110111110110011110101001010111110000111011010100111110011011000011011100110111010111101011100
001011010001110100000110111010101111010111000100000101011111001011011000001001010100100011101011
001110110000010100010000010101010000100000001111010001100000001100010000100100011111100001111011
110110111111101000000101110010010101001000111110010100111101111000110100110101111100011000100000
111011000001011111001111101101001101010011001101111110101100101111110100011001100001100110100100
100000011110111011001110110111110000111101000001110001111000011010101000111001100001001000000010
110011110011001000010110111011100000000101011111000101010001111111001010011011000001111110000010
001110100000100111100110001010101011100111000011111000110001111000111000010110011111011111101101
001001110000101111111110111110101100001010010111110101010100100111101000001111100011101001000011
000111011110101011110001000101111110010000110000110001111111101101001100101110111011011000101000
000101111110010001111111110000100111100100001011011010000011111001001010111001110100101011010010
100100101101001000001101101100001101010001001101110100101111011111111011110110111111001000111111
111101100010000000011101111000000001010111100010001000011101111000010101000011101111011000000111
000010010000010111000100001101001011111111110010110011110010011011100100110101111110000000110100
101000101000110011001000111101000001101001111111110001011010101011111100000111010001111111001111
000011110100000100011010011111011100001111111001111101101111010001010111111100010100100100011001
110010010111100100000010111111000010111000101011110101110010101000100111001000100001010011100101
011001101011011101001101111010110100001011010001000110000000101011111111101010000101001011111110
110010101011111111001010101000001101101100011111001111101101111010100011001000000001101101000011
110011111100001000110001111111000110010001010111000101011010011000100111110101000010100100000011
000000000010011000000110000010010001010011111111111010011111001111111001110111101111011000010011
110110000001010111111100000101101100011111111111110100000010101000110101000110100010010110110111
010001110110100000010100000000101100000010111110010000010101001100111011000011010100110000100001
010010011110010101001101001111110101010110110100111010000100100101000011111011000001010100101011
111001111101011110110101110010000001001100001101001000001111000000101100111011001010011000101000
101111101111011110100010111100001011001011101101110001110001010100000111110110001110111101000001
000000010010100101000001101000010111001011001110001101101111110100110000111111001101100001011011
000010100011100111111100100101011011110000010111110011001111010111010101011100111100000000000110
111100111010011000110010011100110001100111100010001111001001111100111100111001001101101100111011
111010000010001011011000001100000101100101101011110101011011101100111011011111111001100011110111
000000010110001101000001111001010100011010111001010000010001100000111111001110011111010110110010
110011001100010011111000111011011011001111111100001001000011100110001001111011110001010011110100
111001011110100100001011001001101111010100101101110111111101110000010001110010001101110000101001
110101111101001100001100001001101101110100111101100101111100000000100001111110001010011010101100
110010100001001001001101001010011110110011100001000011001111100000110000110011011101000001001010
111001111111101101000000111110100011111010111110000010101100000011100111110001100001100000101001
000011011101100011001101111101101101101000010010110100101100011111000111010101101011111100010111
111101000010111011111001111111010000011011110001110110110000011000001000010101011101101000001000
000110010000100111000111101010011101010111001110111001001101111111001010001011100011001110101000
100110011100100110110011110000101110111111110111001010101011011011100001111000000110011011110100
110100001111000011010010001001101010101100100001110001011011010011111011000011111100001111110100
111101110000110000100010111111101110100011100100000010000100001111010000111110100001111111100010
111100001110101001000101000111000011010100011000110011100001010100110011001101110010010100011010
111100111011010011010101111111000011101010110100110100110000111010101111000001110000000000011010
000101011011110100110111000011000001010000001001110111011100100111010010110110010001011101111111
001000100000110111100011110101000101001000101000111100100000000010100111111110100000101100001111
110001111111110000101111111110001111001110110010001110110000110011101110110101110000100100110100
000101100100010100010101000111011111111100010111101001010001101111100010110011001011001010100101
110101011111101100011001110010001100100000011011000100010001111111111011001011110100000100101110
001011000000111011000110111011010100001000100100000000100010100100000001100100000000111011011100
001111001101100011010111001001110010110100000110111101001111000111111111110001011100001011000110
000011101101110111100001111011100000101111000001000000101110100100110111000001001101101110000101
000110001011000100110100000101000000110111111110110111111100100111110001010111001110000000101011
000011100000111111111111111010000100000111110100110101100011111111010100000110010101010011110111
010001101111000111110100001000110001101010100011000111011110010101101001011111111110101010100111
000101011110100111100100111110110011010110000010010101001110001111110001001011101010001011111001
110000101100011100010100000000011000000111111010001011101101101011101011010110101011110011101000
111110111110000011111011110001100101011000000100100000010010001011001001101110110001111000100011
001100011111111000100111000011011101111000101110111110101100111100001010000000010000000001011110
111011001010000100011100111011110010111011010010011010100011001000001011001000001100010000111011
111101011100000100101111000000100000010111010101101110111110000000011101111100110011100111101011
111001010001001000111011001100110000011100101000101000000011110111010011101100101110110100001000
101110110001010101111111001010011010110000111110111100111101001110011110010011110000000100111001
101011001111100000010011110111111010110111100001000011100001010100110011001010001111111011000101
000001001100001111101110111000101110000010010001000110010000110111100011010011001010100010111101
000001000010100111101110000010010100101000000101101110100001010011010110111110001111000101000011
000000001101101000001100111110100000001111000111011110010011101111010001010000101101100111000001
000010001100100000000001111010010111111011111110001011000010001000010011110111010000111111011110
101010110011000100101100001000101011001001111111100100101110001111110100000000000001100001100001
110111010001111011101010010111101011111111111010010001000010000101101001110100110010000111011000
110011010000111011110010110101011100110101101001000101100100010011111011110101010000000100100110
000001001111101000000010000011101110111100100001001011110000000010111110010000001110100101010101
001100111000000100000111000111010100101100111010101010011001110111001001111101111110111100011110
111101110100100011101100111100111111110010001001011001100100110001100010000100101101010000010001
011001001110111111011100100000010101111011100110010011100011101100101001000001111111011000001110
111011011111101111101010001000100000101011111110010001011101001101000101001001100000100000001011
001011101101111000011010000000110011010011011010101110011101000011101010000111111110001000111000
110001110010111100100100001001001100101100010000110001001110011001000010001011111110111100000100
111110000000001111011011111011001101001100010010000000101110101111001001001100101110101011010010
001100011110000011100010110011110000111100011001111001000001110111010100011010000010100001110100
000110111100110100000101111110110010010001001011000111101110010000011001001001001101011100011110
000101011110011011100011010000010111011010111100110101001101010110100010010101011111101100010011
110010110001111111100011001000000001011100011101000110011101111011010100110000010000011011100001
000011000000101110100111110001011110001011001010001000011110110101001111111001101000000110000011
111011011010111000110101011000011100000011110111111000111010000000100110011000101110011000100100
111100110100111000000101111010111111110101011000100111110001011111101001111111100000010100001000
111111001101111111111110111110110000010011111011000010011111010111010011010010010100110101010111
000111011110101111100100110100110100000110101110111101110011101110110010010001011011110111000110
110110110000000100001100111011110000011111011111111101010000111000000111110110001111010100101101
110011100100101111111101001111001011111111001011001001000010001111010110001001010011001100100110
011111111111011000001000111000010101110011100111110010100010011000000101111110110001110111100011
101001100011011000001100111110111011110101011010110100111110111000101000111000000010100001000000
001000001111011000001011111011010010010010010100001000000000010001010010000110001110000010110110
111110101110101000111000111001001001101111101110011011000110001101111111001111010000100011011000
000011111011100011101000110100100001100000101110110010001111111111101001001010100010010111101001
111001011111001011011001110001000010011101000011000100010000111010100010101111000100000011101011
110110110010001000001111001010100001001111101010000110111011010000001011010001011011110111011100
000011001011010011111001101111101001110000011000000011000011111101111011000100101110001100001001
000110000000010000011110000100000010010111111000110010010000000111101100001111010000000111011000
001100101111111100000110001110000101000011001000110100011001001000001111000010011110011011111010
111001100011110011101111000011101100101011111010110010100000101100000100111111111110101100100100
000000001111110100101101000110111001110000110110111010100010011100011010111110101110010111110100
110111001110100100110011111111001110001000110010101110000011100111100101110000100100010000010100
111010000001111100000010100110101111110000000000000101100001111000010000111001101101001010110010
111010100010111011110111110110011000001011010011001111001101101100101010001001101111001011100000
001011001100100111101010110111010010101100000111111101100101010111011001111000000101110100010010
010010111101001011110000110010000010101011101100000010110111111100010011001010000001011000110000
111101001100111000010000111101010000010000000101000101111101000100001000010010001110010110110100
001101001100000100111110110001001101110000011100000001110010010000001000001110000011110100100010
111011011111010101010011001111011110011011100000000110010010011111101001101101110010010011111100
010000000000101100111100111000110000011111000011000001000000011000011110110101110000001111010100
000011110001001011111010000010010010101111011000000000010001000100001010000101000000111101001111
101010010000100111000101000110011001101111011100111011001000111111001100110110000010000001111001
110000000000111011111111100111011101100111111001111111001100111100000001000111100001101100000101
110100000001011011111010000001101111100111100110101111000000001000100101001011100000101011001010
010100111110001011100110111111100111000110000001111110110111111101001010110111001100110110111111
110011001011111111111010000011100001010010110100001110001111010011001111001100001111110000110000
000110101111001011110011000110010010001111110101001000111111000011011010001000000011011011100000
010000111111100000000110011111110110010110000011001110000100111000101011111001011000110010011011
111111010011010000011000001000100100010110011001000001110001011100100011000011001011001111000001
001010000000110100001101001100100010111011011000000000000011101000100110000001101101101111001100
100011101100101111110110000000111001010111110111110000111000101110110000001000000011110100110011
111001001011111100010010111101110000000011010110111011111100101111111011101111110100110111111010
111001011110001110110010011011100000001111010111000010011110100111101010110110011100100010111101
000111000010110111100111101101010001001100000101111111100001000111001001110101001100011011101100
010000010000011100010001111110010000101111111011101101110100101100110001111111101111011100010110
001101101001001010000001111111000001001000111011100000010010101100111001110011101110101001111100
110101100001011011110001110111100000110000010000000011001111111011110010111100101110001100000000
111011110001111011000010011101011111111111000101010101110000111111101111111001001000000110100011
111100100000100011011111000100010001000000000110110010100010011011000010000111011111111001100010
000110001111101011011011001001100000011010010010101000111111100011100010010010011100001111110100
000011111100111100000111110111110001001000100001111110001111001111111100001100101010111011100011
111010010001100100100101101011101101010100001111001010011100111011110111110110100101100100011011
001010110101011001010000100110000101101100011010011010010010000000000001100101100000001100100000
111100100001111010011100010001001000000100011010001101010000010111001101101111100001010111111100
111010100000010110011101001010010001000000101011101010111111110011100010000100100110100100101111
001111011000011000010010111000010001100100111101101010010000101001000001000000111111110000110100
111011100011101010111001111101101101000100010000011010010001010100100100000110001101101011111101
101011010000111111010100111001111010100111110100111101101011000010110010001011001111101110110101
011101100000001101001011000110101111111000111010111110100110010000011001110100011111001111100001
000110011100111000001101111010011101100011100001111101010001010100101001111011101110001100011000
000011110001110011110010111110010011101000000010000100100000001000101010101101011110110011110101
001010011111111001000011110001011110110000101000000010100101101100011111000000000001101000100010
111101010100110011101001001010000011000011111111001010001111000100010111000010101111010001001100
111011111110000010110111111110101111010000110011111110001101100111000001110101000010001001010010
111110101100111101001100001111110001100111011110101111010010001111010011010011101011010010110110
111000010001000111011100000010010010111000101110110111101011111100001111000010111111001100001011
110001000100111011000011000010111100101010101101001110101110101011001010000000010000000011111001
010111101110101111100111000001010101011110110010001011110101110000001011101010011000110010011001
001110011010011011001001000001101111101100100000110010000000111011011010101111000000111110111111
111011111110000111101001001011001101011100101100111011011101100011110001010011000010011000111000
111010101110101111101111001110010011001111000010111100011110111011110111000100101110010110011010
111011001110001111111100110100101100100100100010111111011101000011111101101110101110111100101010
011100110000011001001001111101110111100101110100111110110100101001111111100000011110011000001101
001110111011011111110101000000000001000111111010111101100011010100101010010101111110010111110001
111101101111011000011110101010010001110101000100110000100000000000100110101100000110000000010101
010011010010011100001101011010010000101111111101111100110101001000001111000101101010011011100100
110000101111000111100011111000011100110010011010111111100011001000100001000010100010101111100101
101010011011010100011101111000101100110011000110110101011011000110101000000000101101011111010100
000100100010101010110111110100110000010100111100111100101110100111111111000010000010011101111111
111110111100111000001001111011000001001000010000111111100011001000010101000110111110100000001100
101001110000001011101011111101110000001111001110001100111001011111010011001010111101001011101000
010011000001001100011000111010100011110110101101111000000001111011110011000001101101001010100010
000011010001010001101010111011010100101111110001000010000011001100000110110111101001011110101111
000000000001011100001100111011101111110101000010001000100001001100001000001100010101111101010001
001010011101111111101111111001100100011011101111000101001110110101000110111101000101000100111010
111001001111110100011011000110010001000001001000111100010000000000100111001100110011110100101010
100000010111111111101100110011011100011100011010010010111001000111010101000000000010101111110010
110101100101011010110100000011001100000100111011010101101111000111101111101111010010101000010101
110011000010001000101000111100001011100000011000111110011100110011100000001010100000010000110101
110010000000000011101000000011000000100011011000111111011101100110110101111010010010111111010011
000000011011000100001000111011101111111111011110110010111101011000101110000111010001101000000001
101010001110000001100010001100000010101000000111111111010100010111110011111101111101010101101101
111000011110001000001101010000011111110100001100111111110010011001000010111010011111010001001000
111110100000011111101101000100111110110111101111001001101111101100011001111011111110110111110101
111010111101010000001010111011111101010100010100001111001101000111101100000100000011110111101000
000100001011101001110100000100101000000110000001110010110101101001001101111001111011110001111111
111101010001100100011000101000101111001011110001111100011111001010000001101111011111111110000110
111010111111010011100101110000101101101011111111000000100001110011000011111000110001000110101110
111110000000101111100100111001110100100100110011010100111111111111110001110000010111111110100000
111000111110010111110010010101111011000111001101100111001111110100000110000111100001111101101110
000011010010010011001101000100010100100000111000010100011101110100011000111101100011001011010101
111100001111101010000001000110010000110100100101000111111101100100000101010000001111110100011000
011101100011111111010110001010101110010100001001111101001110111000010001111011010001110100001101
000110110010001111000101001011010100001111111110101101101000000100010101001001100100000100110000
101111101100011100101010111011001111110111010100110110100001010111110001000100101100011101100001
101000011110001000001001111011111111110011100010110001111110011011110111000011100001100100011001
010000010000111110110100011101001110101111011010110010010000011100001110010100001111000000100100
111101100001001011001001111100101111011011100011000010111110010100100111111000100000000000111111
000101111001110001010001111011001110111000100001010110110011100111110101000001100100101100100101
110011101010000000010001010110011111100000100101110110110000111101100111001000101111001000010001
001001111101100100001000000010110011100000101001001111010001001100010011111000000011101000101001
001001010011010110011101011110001111101000010000110101101011100100100010011001111101001100010100
110000111111011111111011000101000000010100100100110010101101000011011111010010000000100000000000
000100011101100010011111001010010011011100100110001000101010011111110110011000110010001000110000
111100001111000111110000110011000010010000110100001110011111101111111000000100101111111110111000
110100011100011000010010101111111110110011001001101101110100010100001010111001110000111000101111
111001110111010100100100100000010011111000000101010010001111101111011100100001100010001011001100
111101110100000001000010111000011010101111011000101110010100001000100111111000011010011111110110
001010101001101100010100001100010000010111100101101011000011101000010011000000111101100100101101
001000011001010100101000001011000010111100001100111000010011001000000100000010010000101000100100
011000100011101110101001000101111100010111011111111000011011011100110110111100110000101000011010
110101000010001100101001111011010010011011111011000110111111001011110001001001001000011100101011
101010111101000000101010101011110011010000111000010001000011001011001100110011100101000000001011
111000011110100000100000101101110001010111101111000111011111101000111101110100101100010011100110
001110100001111111001000110010010001100000001111111101101110000000011100000111010011110011111101
110011000001111100001100111011001011111100011001001001001111011011101010110101100101100110101100
011111111010101100011001000111010001011111011001000010111101000011110000001001011010001011111110
110000101111000001010101111011001010111111000101110000101111101111010111111001001001100000001111
110011111110100011101101010011101111101001010110111111111111101111110010010100011111100000011011
111111100010011111111110111000001111100011101111100101111110010111010111111100011101100011000111
000010000011110000001000110100111110100111100110110011101011101011101001111011001101011011100101
101011010000101010000111000001100100111000011000001110001100100100010000001100010011000000011000
101100101000000100000101000100000000111111011000010000101111111110110101001110001101100100110101
111110011111100100111101011010000010010011101000000101100001101000011100010101101011000101010100
111100001110101011111011010101101010111000011111000110001111000100100001001010111110100001001010
001010010101100001011110110111010010100111100100110111110000001111001001111111101101000100001110
110110001011011000111000111001010011000011111001111101110100001100101000110111110101011111101101
111010011110000100001011001000110110011000110110010000110001000000010000111110000001010111100100
110100011110011000010000101000011101111100001110111110010100101011001111101001010001101111111011
001001001110010010100010111101010010111000100010011111111011111100001101001001000010001110111010
001100100101111101100010000111011111111100001011000110010010101100000111100000010010110000000010
100111001011101101001110000111010001011100000010000101110000101011101011001101001001101000000010
010000011110000000011001000001101110101011010101101011110010100011100100111101011101101011001010
000110100010110111010011111011011110111000011011001000111110011111100000001101100010101011001011
011001100110101011111000111001111100101110111011101010001111000100011111000010101101100000000100
111001100010000111011111000010001110100100011010000100111011111000001000000000100101110111011101
110110011010100000000010101111000101100000110000000101100010001011011010111111111111000011110101
001010100010111001010101001011010000000100010011001001000010101000001010110111110011001110100110
101111110010111000001111111110101101110100000101000111100000000100100000001010100100110100111011
111001101101001000010111111111110011111000001000001001110101011000000111111011101111001100100001
011011100010110100010101101101001110001111011011100100100000000111001000000000011100000110110100
001111110011001000000011111010000001111011100010110100111111100111110110111101111100010011000010
000010101101011000011010111011000010011111110100111100100010110000001100111010110000010011101101
001011001100111000101001001010000001100011100101110001110010000111111100001001001011110100011001
011001001011011100100101111110100100000110111110110101110000001011011001000111000000111111001010
000000011011010011000110111001110100000111111000000111101111011011011101110100010000011011101100
000010001011110011111101111000001111100111111110000101011101011111111010000110101110110111111011
000001100011011111010111111100000000101111111001111110100011110000110110000011101110111100011000
110011011000100100101100111000011110011100011001000001001101000111101011001100111110101100000011
010011101101100110101111111110101101110110000001111110100010100000100000000110101000111011111110
000110100011001111100001000000100000110100000010000111010011011111010000010000001111100100010010
111101100000100111111110001010111111010100100001111100111110011011110111000100101100010111110001
110111011011101000011111110010011001011101100111111001111011110100100011111100010101100100100110
000011101011011000000100111000010011011011000101110111110100010100111010110101111111011000101011
001111011110010000001111000111100100010000011111001110110010110100100000001010001110000111100001
000001011100100101100010100011111001111001101101101101001111111101001101111001100101000101110010
000100010001101100111001000110011101100011101100111111011101101101110001000001001111010000110010
100100100110111001011100111011101100100100100111100010111001111000011001100010000000101111011100
010010001010110010010000111110110000010011010011000001001011001110010100010001111001011010011010
111111010000100011010100110101000010010111010101000001101101100111010011000100110001100000101001
001101110001100011010001000000111110111111010000111000100010000001101001111011111001110000111010
000001011101111100101011000001101110010011101110000011010001000100100101000110001101100011111101
000110011000010100110001111001000100011000010011111100010010010010011100001011010100011011111000
101101111001111000101111110000111011111010111111101011111111000011101010101011000010001010000001
110011000001101000110010010111101011001100000100110000101010101101001111100000110011110011110110
000101000010010000001100010001101111000111101010110111001101100100111000110100100010111011101110
010001100010001101001100001100100001010100101000110100010000100100101101111100101101100011011110
001010111011111001111111101110000010100000001100111101011011110000100001111110111000000111001110
010001010000111000101000111101000011001000010101010010010000011100100100010000010011010000001011
001001010011100010010110010110111110101000101010000110100010000010111001110000001111110011000001
100001010110110001001001000100011000000101001110101111011010001001000001101111010100011100101111
110111000001101010100111010111000001011111110011110111100010100011100100101010001001111100100000
000101001110011011101110110111101101101011011100101111010010011000101101101011111110110111011000
011100101000000100001111100000011110010100010111010000000011101011110000010111010010000010010100
111111110010101100110110001100101101010011101100110001110001110001010110000001100000000101100100
001100100000111110110101110110010100110011010101011111110000110001001010011111111011100000001000
111000000001100100100011000000011010101001001001000111101111000111111010101010110111101011111110
000110001000111000011110100110010000001111111100001011100010011111001000001010011111110000010000
111000101111100001000010111011001110100000101000101101000010110100001111101001110110001100000110
110101010001000100001000000101101101010001010001110110111110011011010010101010011111101000010011
111100101111110011010000111000011101011100000010111000101111110011010100001100110011011000010000
000000111111100111110110001011011010110111001011110011100000100111101110111110110000000000000100
011111110000011101000111111011100101111011100010010101100001000001010111000001100000110010100000
111011010100111100110101110111001101100110111001111111001010110000000101000110001110110010100011
111110110110010111011110000010011111101011110000000010111111101011110110010011011001110100110101
111011001011101100111101101100101110111000100111110110110100001100010101111011010000110000100111
110100011111010011000000010000110000011010111011000001110000100111101100001011001010010111011011
011001001101100000000010111101110101000000000000001000110011101111110111111101100010001011110011
000000011100010100011010001001000010010011100101001111100100010111010110000000111100010111101010
110101110011010011000111111110111011101100011101101110111101011111010110000010100010010001001100
101000011101001001111011110101111110101011111010110111011100101100110100101110010000000011011110
011000111010000100011101100110000000011101010101010000111011100110011110011111100101010011001000
101000000000011111100001001011111011101000000011111011101111111011011001101000110010000011100101
010110111110100001000011001110101110011001101110110100111110010011100000111111010011110100011010
101111001111101111110001111000101011110111110001101100100110101001010100100101111111010000101010
111011011110101110011000101111001110101100001011000110100101101110100100011110000000000011010000
000000000101010111111000001001000011111011000101111101001101110111100010111111011010101011010000
111011110011001111111100000011100011100100100010001011000011100100100011110010100011010100010110
110011000001101011100001110001001101100111110110101111100011000001111111101100111110110101001111
110101101110100101000000101100001100110000011101110110011010111011110100000000110010101000010111
111101011001110101011111111101111110010000110101000111001111101100100000000101011111101000010001
110110110110001011111110001000101100110000110000000101101101101100001010110110101101011111001000
000011001101000000011100101011110000000100010101111100100100010010111000110010110011101011110100
111111011100011110101000000000100011000000010101110110111101111111011011000111111101010110111100
111011000101101010111111001110100000101100011110011000100100001100100001000110011010010111010001
101101100001011011011000010111001110101011101000110110011101000000111110100101111101010001001100
000001001111110111010000111101110100000010111111111110010111111100011100011010001100111011110010
001111100000011100011111001111101110010110111011111001000011001001001001000010011010110100011011
100100111110111111110111111010011100100111101100110111011111111111001010000001000000011011011010
110100111110111100111100000001001011111100010111001100111011011000100001001100101110001001000001
111001100101001100100011001100001100101011000011111111001110101110101001110101111111100011110111
110101100101101100100101110010111110100111011011110100011110110000110110001110111110010011011001
111100101100111000011010001000011011011111101000110100111111010000101111000111000010000011001111
110001011111000001101011000111110001000001100101010011101011110111001101111011111111000001000100
000101011011011110101100011000011101100110110111000111110001010111011100110111001111100111110100
001011101000000110111110001000101011011011110111111001111111001111010010110111100100001000001000
000111001110001111111100001000000001100010011100100001111111101011101001001010111101011111001011
101111110011111001010101110101001111110100111100111000101110010100001101111110010001011111101010
111111011110010111000010010010010000000111011101111001011100000111111001000111000010010011011110
111101001010010100101001101111011110001110000001111011100010110111111111000001100111111110000001
000010000000111011010000000000100100111010100010111100101110010011101000000111000001011111010011
111111000101110100101001101110110111100001011000001100001100110011111100111111101010100111011000
110110011011110111111001011001001010111111101000111000011101111011100011110010110001000000110001
000110000000100111110001111100101010110000100111101101111111111000110100111010110011010001000111
110101110111100111100101111111110011000100011100110100111101101011000101000000100100101111100011
001100000000111100010010111101001011110111010010001100100001011111111110000101001101111111101100
110000100001010100000011000000111011101000000010001000011010111100100111000001001011111011111110
101110110101110101111111100000011011110100011001110011111100011100100001001100101111010011111001
000111101110111111000110110010001100101000100011001001111111001111001010000010001101100011010111
000100010101000000101010101111010010100100001110111110111101100010010010101111010011110011101111
110110001110100101001100010000001101101100100000000010011101110011011100110001101111101100000000
101111010000111011100100000001110101100000000111101001110000001100000100000010011101100111011001
111101101100100110111101001101101111000011100000000100100011001011101101101110100000110000110000
111011100000111000111110000000011110000001000011011111111011100000011000000001101100101000010000
010101111011100011100110101111000011110000011011001000100011011100110100001011000000001111110011
010011010000101000001010111101111111110000100110111111010010100011101000110001110011101001011011
101111000010111101010111101100111100000001111010111010111010010100110111001011110001111100111001
110101111101111100100100001001011101110101011100110110101010010000110011000101111110001100011001
000110010101100011011110100110000011101011111001000101110111111111000110111011000011001110111101
000010001011011111110101011101000000010110011011111001110001011010001011111001000000100111011011
000000101001010011000110110110010001101111111111000110110000100001001111000111111101000000101001
101110111101100001000101000110001111001100001000111001101110111100011101001000110001110011001000
000100110000000100000101110000011110001111111010111011100100010101000101001111010000100011111100
000000101111111011000011000010000000111100001101001000110010000111011100110111011101100011010000
000000010101001000100000110100001101010101010001001011011100110100010001110110111101110100101001
001000000010100111111101110110101011110001000000000100110001010010110111111000010011011111110110
100100110000010111100001010110011011010000000010111110111110011100010011000010000000111000011010
000110000000111111000001111001001110101100000011001011011111101100110000000100001110000100100101
011011001011001111000110111111110001000100010100110110100011000010111000100000010011100011011101
111011000010110100101111111001100000101111001100100111100010000001001100000111100010000100001101
111001111101001111101110111010101100010111101010001001111100010111111110000011100000011000010011
101101110010010101001100111010011111110100011001000010001011100011111000000101000000111100101101
111100101100011000000010001101101010100110110111111010101101011110111100110011001111100111110100
110001101110100011101001110111011110100000101111001000110100001100101100010000010000001000001010
001000001110100111100011110100001110010011000101000011101101100001111111001010111111011000000000
111000101111011100001001010101111001011011000011000110001110010000001000001001100100001100001100
001010011111000111101110101100111101011011001110111101010001100100110110001101101111000011111111
101110011111100111000010110111110001111100101100000100100010010111111010110001010100000111100000
010011111110011011111000111111110001100100000100000001010110101111010100000001010000110100001100
101010100010000100000100111101010000111100110101111000011101010011010101110100011100101100111111
000000000011110111110001111100000000110001000001011011101110011111110101110100101010101000101001
111100111111010011111000000101110011101111101111111011000001000111100000000101110000111111110111
111000000100000100000111101100110111111111001000000111000111111111000010110100010100110011010001
111101010000110011100111000110000011000010110110111100010000001100111111001100000000001011101010
111110011000010111011010001010011011011010101110101000001011111100100110000011000001000011101000
001111111110100011001110000001100100000000010001000100111111011000100011000110101111110100110011
001111001101111000010011111000101101010111111100111111111111011100110011000011010001110111111000
110100111111001100011011000101001001010100101000001100101100110000000100111011001111010000011101
011111110000110111100000010001011110110011111110111011101101101111001011110000001001110011011100
001001000001111000000010100110100000001100100001010110100011100100000111000001110001101000001101
110100100100010111101011001110110000001100001100111001110000010011001010111001111101110100110011
001101100100001011010110001011011101000000010100111010100001111111101110111010110011110100001011
110100001111111111101101110001110001011100101010101111010110110011100011010110110000011110011011
110011001111001111101000011011110001001001011010111011111010100011101100110010011111000100110001
111100100100111100100000000001100011011000100110000100000101111011001100110111000100010111010110
111010001101011100100011111011011101000100010011111101010000000100010100111010011110000000110100
000101110100011111111100110110001100110111110001000010011100000000100010110000101111110101001110
000010011000000100110100011100111110101000101011111001100011100101000100110001110001001011000010
001000000011001110100110110001111100111011110110000110001001001000001000101000111110110000010110
001100011111110111100111101101110000001011010111001000101011000011011111000110110000011000101111
111100010010001000000110110101010000001110010111001001001111100000000101110111111111101001111000
100110111100001001000010011001000101011101100000000110100101011011111111010110010100101100001101
111101100101110001001110000001111110101101000000000000000001001001001011001101111101010100000101
110101010011111011100001101011100100010111111010011100000101010011101100010010010001000001000110
000110010000100000100010100110000001110011010100000101000100011111001110010101001111110111110101
111001011100010100101110110111110011100111011000000000110011000011011111000100110101000101000001
111111101111001011111011011001101101110100101000100000010001000100000100110100000001001110100010
110100001110011000011101011111110000011101000110001111011011111000011001000010111111010111010111
111101011101011101101100110101010111111011100011000001010110001111111011011111110101000000011101
010011111100111111111000000111101111000011000001111000100001010011010101111101110000110001001001
101111000001010011011110000110111100110000110010101010011110101000001111101101111100110001001000
101010011101000100001101010011010011101111000000101001110100111100000011000010110011000111010111
001000011111011011100110001011110000000100101011001001111110001111101001111010110010111001001000
111000000001010101000101101100100111111100001000110101100011111110101100011000000011100011101011
111101010010110100011010011000000000100101100111101001011111000001000000110100110111001000000000
000011000100001001100011110110100101011011010011000000100111111100000011000110000111111100100100
111000100100010011101111110000010001001100111001111100101011101111110001111010000011111011101101
000001100001101111001010010000001100000111011010101100011101010101010011101001001010011000001011
000011101100100110000001101011111100000110000001011000101110100000100110111100011000011101111111
000101111000001100000110000110100000101100000011000011000011101111111011000100001011010011111011
000001101010101011011010001100010000010001001010000010000110011101010111111101101110000011010000
100000010001101100110010001010001110001100100000100001110001000110111000000001010010000111110101
000100001110111011111101110110100001111011010010010000000010001111011010000110001100110111011011
111101101110010100001011111001010010111001011111111100101011110011100011101111000000111111010111
111100100010010011101010000101100000100111011000000100000001000011110100001000001010010111111011
110110101110011000100001110101011110101000111110110110010100100011100011110111100000000011111001
111011111101010100001100111010010000101000010001111100101011000000000011111111111111000001011010
010101000001000110010001111101100000100110000101000100000000100101001000111100011101001111001110
001011011100011001011001000000100000111101011110000111010110011000001111000001001111001111000110
000101101010011111001111000111011110001011111111111100111110000011011100111000011111100000001011
000001100001101001100100111100000010000101110101110000000000011111001011010101010110110011110100
000101001111111110100111111001101100101111011001110111110000110000000000101110101101011111001000
000010001101111011010000110110001100001000010010001011101101001111111110111100001101010110111111
101000110011100100110011111001000001001110110001001010001100111011000000110110101110000000100011
001011001101101100110010111010101111000110111111101100100000000000100011101111111101000011100010
110110001111110101100110001111100101111101101010110110010101001011101010000001010100111011101110
111100100000110100001011100100010110001000011011000010111111001000000111010011110111011111101011
111101011101011110101000001110001101101011011111000111111111010000101001000010111011100000100011
110101000000111111111010110110111101110110001000000100101101101111011001000100111101010001010001
110000100011111001000010110111110001110101011010110000101100001100010001101010010001101101000111
000011001100100111000101010101011010110111000001000010111001101111011001100110101111010011110111
001010100111101111110110100101000010111000010110000111110100101000000010010001010110100101010100
010000110001100000001001101111100011111011100011011111011100011011111111010100101010001011001001
000011100010011001010000000001111111111001010010000001010000110111111100101111110101011010010111
001100101111101111111100001101011001101011100100110111100011000101111111110000001101001011101001
111100110001100011001001101111000001111000100110000110110001001011100110000011010010010000111110
111110001000111110111100000001100000010110110110001001000010011100110000000111001110110111010001
000101000011001000011011111010100001110111000100111010100000110000000100001010110100110000110000
101101110001011000010100110000101011011000101101001010101001110110111010000110101110100100001011
001100110001101000111101110101011110000110101011111000111100101000110001111000001100001000000100
110111000000110111001010001010000010001111110001111101001110101011110111000101000011011001000101
001110001111011111111100000110111101000100010101101111011111100100110001110001010000100100100101
001010110000110000001101100110101010111100101001110100110001001101001000110100011110011011000111
001100111101100100010101110110110001100010111110001110000001110011111110000110001100110000010110
111001100001001100101100011010001111110000110101110010010001111001011100110110100100100110101000
110111011100101100110101111000101111100011111001001001011001101000101111001000100011101011100000
