0006
FFF7
FFEC
FFEB
FFF4
FFEE
0011
0017
FFE9
FFF5
0007
0017
FFF7
FFEA
FFFC
FFE6
FFEE
0004
FFF2
FFFE
FFF8
FFF3
0000
FFE9
FFF6
0004
000C
0004
FFED
000C
FFF3
FFF3
0014
FFF7
0001
FFFC
0007
0013
FFF8
FFF2
0011
FFF2
FFEE
FFF3
FFE5
0014
FFE6
000E
0007
FFE6
FFEA
FFED
0008
0002
FFFA
FFF6
FFF8
FFEA
0014
0014
0017
FFEC
0001
0011
FFFC
0012
000C
000F
FFFB
FFF9
FFF7
000D
FFF7
FFE5
FFF6
0002
FFFE
FFF6
000A
FFF8
0012
FFF4
FFFA
0015
0013
0014
0018
0000
FFEB
FFFA
0016
000B
0001
0006
0014
FFEA
FFFB
0015
0016
001D
FFF8
000F
FFE9
0018
0007
0010
000B
002B
FFF2
FFEA
FFFF
0008
000F
FFFC
FFFE
0026
0004
FFF2
FFFF
000C
FFFB
0005
0003
0000
001D
0023
001B
0026
0014
FFFE
FFF5
FFDD
FFFF
0028
001F
0015
FFEF
FFD8
FFFF
0009
FFE5
FFFC
0001
0020
FFE4
0012
FFE6
0021
0007
0013
FFDE
FFE5
FFE3
001C
FFED
000F
0009
000D
FFEF
0004
0012
0027
001A
FFE6
0016
001E
FFDE
0023
000D
001B
001C
FFF5
0000
0003
0010
001C
0029
000A
0009
001E
001B
FFE1
001E
0015
FFF4
0001
000B
001A
FFFA
0005
0024
FFF7
FFF7
FFF0
FFFF
0013
0003
000C
FFEA
FFF6
FFE5
FFE8
0012
FFE9
0011
0012
FFFA
FFF1
FFEA
FFE9
0002
FFF4
FFE9
FFFF
0015
FFFF
0002
FFFE
0014
FFEC
FFF7
0008
0018
000C
0017
FFFF
FFE8
0015
000D
FFF6
0015
FFEE
FFF2
0009
FFE6
FFFE
FFEC
FFEC
0007
0005
0017
0006
FFFD
FFF6
000D
FFEC
FFF0
FFE7
000F
FFE6
0011
0002
0006
0002
0008
FFEE
0001
FFE6
0002
FFE7
0009
000C
000D
0004
FFF5
FFED
0016
0004
FFE4
FFEC
FFF0
FFF6
000D
0008
000A
FFE6
FFEC
FFE6
0001
000A
FFEC
0002
FFE7
FFF8
FFFA
FFED
FFFB
FFF8
FFFE
000E
0002
FFE8
0019
0013
000D
FFF9
0009
FFE8
0029
000A
001E
0009
0013
000E
0004
FFF0
0018
0020
0029
002A
0026
FFEB
002D
0011
FFEF
FFFE
FFF0
0013
0021
0000
001D
0005
0027
FFDA
FFDB
FFE5
0015
000A
FFF1
FFFD
0000
FFDB
001D
FFF4
FFF5
001A
FFF4
0017
FFDA
0014
FFE2
FFF2
0018
FFF7
FFFE
FFEF
0000
001C
0005
0033
FFEC
0026
FFDD
0010
FFF6
0009
0002
0004
0023
FFFD
0003
FFFD
001B
0003
0023
FFDB
FFE1
002C
FFF0
0004
0001
0015
0009
0004
000D
000A
002A
0003
FFFC
FFF4
0005
0014
FFEE
FFF9
001B
FFF1
FFEA
FFEF
0005
000A
0016
0000
FFF0
FFE9
0016
FFEF
0006
FFF1
000F
FFFF
FFF5
FFEC
FFE8
FFE6
0001
FFF0
FFEE
FFED
0017
FFF1
FFEC
0002
FFEF
0008
FFFF
FFE8
0009
FFEC
FFEE
000B
FFF9
0009
000D
000D
FFF4
FFE7
0004
000F
FFEF
FFF7
FFEA
FFFA
0011
FFEE
0019
0005
0019
000A
0014
FFF9
0003
0010
FFEF
0012
0000
0016
FFF9
0006
FFF6
FFF0
0016
001A
FFF7
FFE9
FFEC
0010
0016
0009
000A
FFF0
FFFF
FFF9
0017
FFFC
FFF9
FFEC
001A
FFEC
FFF9
FFEA
FFEA
FFEE
FFF4
0008
FFF2
0007
0006
FFF0
FFED
FFE9
000F
FFF9
FFEE
FFFC
FFF3
0019
0015
0027
FFDF
0006
0016
0032
FFDF
0007
000C
FFEC
0003
FFDC
002C
0032
0013
0023
0005
FFDD
FFE4
FFF9
001A
000F
0020
001A
002A
FFE1
FFD9
0021
FFFE
0027
FFF6
FFFA
0009
FFDD
FFEC
001B
000A
0012
FFE4
FFF2
000A
FFEC
FFF7
FFE6
FFFD
FFD6
FFE8
0024
FFE0
0029
001D
0038
000B
FFDB
FFE2
0028
0023
FFFA
0005
FFCF
FFF0
0023
FFFA
FFFE
0019
FFE9
001C
FFEC
FFCF
FFE3
0034
0024
FFF4
FFF0
0006
FFCF
FFE7
0004
FFF9
0014
0027
0026
FFF8
FFFD
0010
FFEA
FFFF
0001
FFE0
0029
FFFF
0034
001B
FFD7
FFF4
000F
FFFA
FFFE
FFF5
000D
0012
FFDE
0006
000A
FFF1
0019
0015
0004
0012
FFFC
FFFB
001A
001D
FFE1
000F
FFEC
001C
FFFE
0003
000C
000F
0014
0017
0013
0004
FFE2
FFF7
FFE5
0023
0011
0007
FFF8
0008
0003
FFFD
000A
000B
0004
FFEB
FFEB
0000
000C
000D
001D
001D
0009
FFF2
FFFC
0005
FFF7
0011
FFFB
000E
FFF9
FFE0
002E
FFED
FFF6
FFE3
0026
0000
FFDF
000B
FFFE
000D
001F
FFF7
FFE8
0020
FFE9
FFF9
FFFF
0007
0017
0029
FFF7
FFE0
0012
001D
0005
000B
FFF5
0008
000A
000A
FFF0
FFF9
001F
0008
001F
FFE4
0004
001B
0019
0007
0032
0010
FFE7
FFF9
0029
0001
0035
000C
0016
0006
FFE6
000B
0036
FFE9
0029
0013
FFEB
FFF5
FFE1
FFE5
002C
001A
0025
0031
FFDE
FFD4
0028
FFF9
0024
000F
000B
0009
FFE2
FFE0
0006
0022
0017
FFFE
FFD1
FFF1
0003
FFDE
FFF6
FFED
001B
FFF5
0023
FFDC
FFF2
0006
002D
FFE1
FFD2
FFEA
001C
0032
FFEE
0003
FFDC
FFE1
001E
FFF0
0010
FFFE
0000
0026
0010
FFEE
FFF6
0024
0020
FFD0
0007
0003
FFFB
FFF7
0024
FFEA
0025
0010
000D
001F
FFD7
0018
FFCD
002A
FFFE
FFF2
0027
FFE0
0024
0007
FFDB
0010
0012
0019
000A
001A
FFF7
FFFA
0006
FFF2
FFF3
0010
0012
FFFB
0001
0006
0008
0017
0002
FFFD
0004
FFF9
001A
FFE8
FFE5
FFEA
FFFA
0014
FFFD
FFFC
FFED
FFFB
FFF9
FFFC
FFFA
0003
0011
000C
FFFB
FFFF
0003
0004
FFED
FFF5
FFFE
0016
000E
FFE5
0011
000D
FFF4
0016
FFF5
000D
FFEA
000B
FFF7
FFEF
0007
FFFC
0008
000F
FFEE
FFF3
FFF4
0015
FFE9
0017
FFF3
FFF6
FFED
0016
000B
FFF4
FFE9
FFF6
FFF0
FFE9
FFEC
FFE9
FFF5
FFFC
000A
FFF3
FFFF
0010
000F
0013
0017
0006
0006
FFF5
000E
0015
FFEC
FFE7
0016
000C
FFEC
000D
FFE9
0011
FFFC
FFEE
FFFE
0029
FFE3
000A
FFE7
FFED
0009
0031
0029
FFE8
0000
0023
0005
0012
001B
0001
0018
0008
0007
0006
FFF6
FFE9
001B
001D
0010
0012
FFDF
0014
FFE7
0018
0015
0020
FFEC
FFFB
FFF3
0015
0011
0013
FFE5
FFE9
000A
0017
FFFD
FFF4
0010
0008
FFFE
001F
FFDD
0003
FFF9
0017
000E
FFF8
0026
0000
000C
FFF5
0006
0001
FFEB
0018
000D
FFFA
0008
0008
FFF1
0019
FFFA
0029
FFEB
FFEE
0016
FFF5
FFE6
001E
0006
FFF5
0000
FFE8
0007
0015
0019
FFF1
0013
0027
FFF1
002A
FFF8
FFFA
000B
FFDD
0014
000C
000B
0026
FFF8
FFF6
002B
0013
0004
001B
0011
FFF1
0024
FFEF
002F
0021
FFED
FFF2
0001
FFF1
0018
0009
0009
FFE9
FFEB
000A
0022
FFE3
FFFD
0002
0010
0002
0007
0019
0016
0006
FFFE
0003
001D
FFFA
0010
0028
000D
001B
0020
0008
001F
000D
FFFE
FFE6
000E
FFF3
FFE7
0026
002C
001D
0028
0005
0029
0010
FFF8
000A
001D
001F
FFE2
0011
0021
002E
FFED
FFFE
0011
0008
000B
0017
000B
0027
0027
FFE1
001D
FFE1
FFDF
0026
FFE0
FFDA
001A
FFF9
FFEA
FFDD
0023
000A
0010
FFF7
FFF3
000D
0005
0017
000A
0003
FFFA
000A
FFD9
FFF3
000F
0012
FFEC
0016
FFFA
0010
FFF2
0029
0005
FFF6
FFDD
FFFD
0014
0001
001C
0021
001C
0024
001E
000E
0004
FFDA
FFFF
0025
0000
000F
FFEC
0018
FFE6
0011
0003
000D
FFEE
FFF7
001F
FFEA
0012
0027
FFE3
0001
0008
001E
0002
0004
FFEF
FFFD
0023
0020
FFE9
0012
0012
FFFD
FFF8
FFDE
0027
FFE5
0020
000B
000A
001A
0001
FFF3
0009
001C
0002
0008
FFFC
FFEE
FFE8
0019
FFE1
FFF9
0022
FFEA
0006
0005
0021
001E
0012
FFF8
0007
002A
001B
0001
0013
000F
001D
0008
000B
0013
0009
000A
FFEF
0009
FFEF
0006
001D
000A
FFFA
FFF0
002C
0002
000E
001E
001E
FFF0
FFF0
FFDF
0028
FFF3
FFF1
0011
0013
000C
0023
FFFD
FFF9
0002
FFDE
0006
0007
0014
0011
FFE1
FFEF
FFF0
FFE6
0012
000C
000C
FFEC
FFEE
FFFD
000B
002B
FFE3
0014
0007
FFE5
0018
FFDF
0001
FFFF
FFEE
0005
FFE8
FFF6
FFE0
0005
FFE9
FFF0
001E
0001
0018
FFD9
FFFD
0021
0003
FFF0
000C
000F
FFFD
0014
002E
0008
FFD8
0029
FFEB
FFFB
000C
0014
FFFA
0023
FFEE
0000
0016
001C
FFF7
0000
001F
000E
0020
002B
FFE5
0019
FFF7
000B
FFF5
0006
FFFE
FFFB
0009
0014
FFE6
FFF4
0005
0020
FFDB
0004
0019
000A
0017
FFF0
000A
0012
FFEC
001F
002B
FFCF
0006
FFFE
0001
0024
002A
0026
0013
FFFE
0000
FFFD
FFEC
0018
002E
FFF5
0022
0018
000F
0018
FFFB
0008
0014
0014
0001
0010
FFFE
000D
FFF0
FFD5
FFE4
0002
FFF4
0024
0013
0033
0016
FFFA
0010
0028
0022
FFDC
FFE5
FFFF
FFF3
0026
FFD7
0012
0002
0021
002F
FFF5
0004
FFEA
001C
0025
FFF4
FFF0
FFF8
FFCD
0003
FFE8
FFFE
0021
0013
0020
FFE1
FFF2
000D
FFF1
FFEF
FFF4
FFCC
002E
FFFA
0024
000A
FFFB
FFE2
001C
0002
0024
000F
FFDC
FFF0
0011
0001
FFBA
0003
FFE5
FFD6
FFF1
FFF4
FFE9
0032
0001
0018
FFF3
FFD2
0012
FFF0
FFE1
FFFB
FFEC
0034
FFFD
FFFA
FFF7
0012
FFC0
000C
0012
0042
003E
001C
FFF6
FFEC
0025
FFF4
0023
0012
FFDB
002A
0025
FFBE
0029
FFFD
0037
000E
0036
0018
FFE4
001C
000F
002D
0029
FFE7
0026
FFBC
FFD2
FFE9
0042
FFF0
FFD6
FFFE
FFE9
0039
000C
FFD7
001A
FFBB
FFFA
0011
FFE8
0020
0037
FFB9
FFE5
FFDE
FFBC
0019
002B
FFE4
FFCC
002A
FFEB
FFDE
FFF3
FFF3
FFFE
0022
FFFB
FFFA
FFFE
0023
FFE2
FFF0
0004
0007
000C
0009
0014
000B
0016
FFEC
0021
001D
0001
0017
0003
001E
0003
0025
0026
0034
0004
FFF1
0007
0013
000C
001A
0005
0003
FFF8
FFEF
0022
0007
0009
0023
FFDA
FFF4
FFD9
FFFC
0021
001B
0026
0008
FFD3
0024
FFF7
0002
001C
FFF4
FFEE
FFD8
0019
FFEB
000C
0009
000B
FFDF
0007
0005
001A
000E
001D
FFDA
0009
FFEC
000F
FFE9
0016
002A
FFF8
0008
FFF1
FFD9
001F
0015
0011
0004
FFDC
FFDC
000A
000D
FFF5
FFF5
0020
0007
FFF0
0003
FFF2
0003
FFE6
FFFD
FFF3
FFF8
0022
000D
0005
0023
0000
FFE0
0003
FFF0
002A
0003
FFE8
FFF7
0034
FFF9
FFE5
0022
0005
000A
0020
0028
0007
FFFB
FFF2
FFF3
002A
FFDF
0020
FFE1
FFF4
0007
0013
FFF8
0013
FFFB
FFDE
FFEF
FFFF
0009
001B
FFF1
FFE9
FFFE
0009
FFED
000A
0020
FFEB
FFEA
FFFC
0012
0006
FFF1
0037
FFDC
FFEB
FFEE
0018
0009
FFE7
0017
0017
0024
0030
FFFE
001A
FFFC
FFD9
FFE6
FFF0
0012
FFE7
0006
0010
FFEF
001E
0011
FFEB
FFE8
0008
000C
FFF1
FFE0
0007
0009
FFDD
FFE3
FFF9
001E
FFE3
FFF1
FFF6
000B
0027
FFD6
000E
FFE9
FFE3
0005
FFE9
000E
0001
000B
FFDD
FFE8
0007
FFE6
FFFB
FFFA
FFEC
FFEF
FFF1
0010
FFEF
FFEB
FFEE
000F
0005
FFFC
0007
FFF9
0000
0010
FFFE
0004
0005
FFFD
000E
FFEF
0014
0006
FFFC
FFF6
FFF2
0015
0002
FFFE
FFFC
0005
0015
FFFF
FFEC
FFFC
0000
0011
0011
FFEA
0013
FFFF
FFE5
FFED
FFF4
FFE4
FFFC
FFF6
000D
FFE8
0003
FFF0
FFE8
0010
FFF9
0014
FFFA
FFE4
FFFC
FFEB
FFE9
0014
000E
FFEA
FFF9
000E
FFFA
0015
0014
FFEC
000F
0012
0007
000A
FFEB
0005
0012
FFE9
0006
0012
000F
FFE9
FFF7
FFFD
FFEA
FFED
FFF1
0012
FFED
0008
FFE5
FFEA
000D
FFE9
0005
FFE9
0014
0009
FFED
0015
FFDE
001A
FFE9
000C
FFF5
0004
000B
FFEC
FFEF
0003
0015
0029
000E
FFEE
0004
000E
001C
000D
000E
0021
000D
000D
0011
FFFA
FFEA
FFF2
FFF4
FFE2
FFFE
FFF4
FFFD
FFFA
0004
FFF8
FFD9
FFF0
0014
FFDD
FFFB
0010
FFCD
FFD7
000C
0025
FFFE
0010
0028
0016
FFE1
FFFC
FFFD
002B
0009
FFF8
FFF1
FFE4
0010
0008
FFF4
0019
FFF2
FFFF
0021
FFF2
0007
FFDA
0013
0013
FFF2
0006
FFDF
FFF7
0005
0017
FFE4
FFED
001C
0023
FFF7
0000
002B
0017
FFF8
000B
FFF1
001C
0007
0011
001A
FFDC
FFEE
FFF9
002D
0015
000E
001B
FFF8
FFD8
000F
FFFC
0013
0013
000F
FFD0
FFF8
0026
0007
FFEA
FFE0
0002
FFFD
FFF2
0004
FFD9
FFF2
FFE8
FFF7
0003
FFFA
FFEE
0015
001F
0011
FFF4
FFFB
FFFE
0013
FFF9
0014
002F
FFE8
001A
FFFE
0013
002D
001E
0002
FFFD
001D
FFFF
FFEE
FFF7
FFE8
FFFF
0007
FFED
FFDC
FFED
FFD8
0028
0015
0006
FFFC
0018
FFE1
FFF2
FFF7
FFEF
0011
FFE2
0019
FFE6
0032
0018
001D
FFF8
0001
0029
000F
0020
0015
000A
FFFF
FFE2
FFFE
001F
FFF7
FFE5
FFFC
0022
000E
0000
FFEF
FFF1
001A
FFF8
FFEA
0030
0008
0027
0027
001D
002A
FFD2
0002
0024
000C
0011
002F
FFEE
FFF0
FFF8
0029
0023
0002
FFFB
0029
FFF8
0016
FFF3
FFDB
FFF5
FFF0
FFEA
0010
FFD3
FFF4
FFFC
0022
0018
FFFA
0010
0004
FFF7
FFF4
0006
002D
FFFB
001B
FFE8
0005
002B
000C
0012
FFFF
0023
FFFE
0003
FFF8
FFDE
FFED
0028
0012
0015
0003
FFF0
002A
FFFF
FFEE
0000
0007
000E
FFEC
FFEE
0001
FFFB
FFFC
0018
FFF9
001B
FFF1
0007
FFDD
0004
FFF6
0012
FFFE
0012
FFF8
0021
FFEB
FFFA
002B
0003
0002
FFED
0012
FFED
0006
FFEC
FFE4
FFE6
FFD9
0027
001F
0018
FFF3
FFF0
FFEE
FFF4
0007
0002
001A
001D
0007
0019
0017
FFE0
FFFB
FFEB
FFF9
0004
0011
FFF7
0008
FFD3
FFFD
0008
0022
0011
FFF3
FFF7
001E
0003
0008
0015
000E
FFD9
FFEC
0012
FFF0
FFE1
0013
000F
0019
0013
000B
0009
0007
FFF3
000D
FFE2
0013
0014
000E
000A
001E
0003
0014
FFE1
FFE8
000F
000E
FFFC
0013
FFFB
0000
000D
FFD5
001F
0016
FFE7
FFF2
FFED
001D
FFFA
001F
FFE3
001C
FFF5
000A
0004
000F
FFF9
FFFE
0002
FFF0
FFF7
0016
FFED
FFFD
0020
000B
FFF8
001E
0017
FFF8
0016
FFFA
FFFF
FFDA
0008
FFF6
001C
0009
0029
0022
0000
FFD6
0004
0015
000D
0026
002D
0001
FFE0
0015
0003
FFD6
FFF1
0002
0011
FFD3
0001
FFDD
0015
FFF0
0004
0017
FFE2
000F
001B
0024
0010
FFD6
0019
0008
000B
FFD0
0013
0006
0009
0010
FFE5
FFE6
FFFC
0004
001E
FFEB
0016
000A
FFEE
FFFB
FFEB
FFE9
0012
FFE1
FFD5
0004
FFD9
002C
FFF9
000C
FFF2
FFF8
FFEA
0004
000D
FFF2
FFF8
FFFB
000E
FFE6
FFFF
0002
0024
FFD6
0012
FFEB
0010
001F
0024
0011
FFFC
0001
000E
002C
FFE5
FFDB
0007
002C
001B
0006
0005
FFFF
FFFD
FFD2
FFF0
0028
0015
FFEA
0030
0001
0004
FFEF
0038
FFE7
FFFC
FFF7
0005
FFDC
0014
0030
FFF5
FFEA
0023
FFFE
0026
0016
000E
FFF7
0024
FFF1
FFF2
0009
FFFB
0010
002F
0000
0010
FFE7
000E
000F
FFF0
000E
001F
FFEC
FFEC
FFF8
FFFB
0029
0024
000F
FFF6
0005
0033
FFEC
0018
0001
0018
0003
FFE9
FFFE
002D
0023
0023
FFF2
FFEC
000C
FFD5
0018
FFFB
0036
FFE8
FFE8
0038
0005
FFFF
FFF0
0021
FFFE
0020
FFF7
0017
FFFD
0020
0002
000A
FFEF
0008
001F
FFE0
FFEA
000F
0026
FFF8
001F
FFE5
FFFD
0027
0001
001A
FFF3
0008
003B
FFF8
000A
0019
FFF7
0005
0010
FFFE
FFE8
FFFD
002C
000C
0004
001E
0017
FFF4
0003
FFF3
FFFA
0018
001E
001D
FFEF
0021
FFFF
0011
0011
000F
FFEA
FFFF
0023
001A
0008
FFFA
0003
FFF9
FFE9
FFFA
0014
0018
FFE5
0006
FFE1
FFF2
001E
0007
FFEC
0006
FFFF
FFF9
FFDF
000B
FFE1
000B
000D
FFED
FFDC
FFE5
000E
001D
FFE6
0012
0004
0023
FFDA
0014
001F
0021
000F
FFE2
FFFE
0016
0008
0027
001A
FFF6
FFFB
FFE4
FFE8
001E
0005
0009
0028
0011
FFEF
000E
FFF8
0004
0011
000A
FFF6
000E
0005
0014
FFFB
0015
0001
0002
FFEF
0017
000E
FFF1
001E
0013
0002
0011
FFF4
000B
FFD8
0021
0016
001A
FFFB
0002
000D
FFF8
FFF1
FFED
002D
0013
0017
FFFE
FFFB
FFD1
FFDF
FFE8
FFEC
002A
0011
0017
000B
000A
FFF6
0000
FFF7
FFFB
0000
000B
FFE7
FFFC
0014
0034
001A
0008
0022
FFF0
0030
0009
FFFD
FFFD
FFD1
0015
FFEC
FFFB
FFE9
FFF8
FFDD
FFE8
001B
FFFA
002C
FFFB
FFF7
002E
FFFC
000C
FFF7
FFD4
0010
FFEE
002C
FFE0
FFE3
FFFD
FFFB
FFF6
002E
0025
0006
0014
FFDD
FFED
FFDE
0039
0017
FFDB
FFF9
000E
0019
0033
0005
000C
FFDE
FFEC
FFF2
0004
0006
000B
0032
FFFC
FFE4
FFED
002A
000C
FFF3
0023
0008
FFEC
0021
0019
FFFB
0018
0019
FFF4
0008
FFF5
0016
000B
0001
FFF6
0010
0008
001A
FFE5
FFF6
FFEF
FFF6
FFF6
0028
FFF4
0009
0011
001F
FFE0
001D
0017
000D
0004
FFFB
0014
000F
FFE8
000D
FFE8
0006
0007
FFE9
000F
FFE5
0022
002C
001B
001B
0002
001C
FFF2
FFE0
FFFA
0022
0029
FFF3
FFDD
0030
001F
0024
FFF3
0007
0005
000F
0006
FFFC
FFFC
FFF8
FFF8
FFF8
FFF1
FFDD
003A
FFF7
FFE2
0013
0009
0002
FFE8
0013
FFE3
FFEF
0022
0008
FFE8
FFF0
0030
0011
FFF2
000B
FFE4
0032
002D
FFEE
FFF9
0017
001E
FFFE
0014
002A
FFCF
FFE2
001D
002F
FFDC
FFF6
000C
0018
FFDF
FFF6
FFD6
FFE7
FFD8
001C
0019
FFD5
FFFC
0010
0021
002F
FFCC
000D
0009
0012
FFF7
0017
0011
FFEF
FFEF
000F
000A
FFFE
0010
0011
FFE5
0026
FFF5
0001
0005
FFD6
FFFB
0001
FFFD
FFEC
FFF3
FFF2
0017
0025
0024
FFF7
0013
FFEC
FFF8
0021
FFE4
000F
FFE0
0029
FFF6
0023
FFE1
0011
FFF9
0013
0012
0002
002B
001F
0013
FFF1
FFEC
FFE9
0021
0009
FFD3
0001
0019
FFF9
0011
FFEF
FFEE
0016
FFDB
FFD6
001A
FFFF
FFF6
0011
000B
FFFD
FFE6
FFE6
000B
0012
0003
FFED
FFFE
0015
0008
0015
FFF2
0001
FFF9
FFEB
0003
FFF0
0004
FFFF
FFFD
FFFA
FFED
FFEF
FFFE
0006
FFEE
FFE9
FFF1
0006
0019
0015
FFF2
FFF0
0013
0000
0002
0017
FFEE
FFEE
0000
FFF4
0018
FFF2
000D
FFEC
0000
0000
0003
FFFE
0006
FFF9
FFE9
FFFB
FFF3
000F
0010
0009
0009
FFFD
0009
FFEA
FFF9
FFEF
FFFA
FFFA
FFEF
FFE7
FFFC
FFEA
0011
FFEE
0002
FFEB
0000
FFE8
0010
000B
0002
000F
0012
0016
FFED
FFFF
FFFD
0006
FFEC
FFE8
FFFF
000C
FFF8
FFE7
FFFC
FFF2
FFFF
FFF6
0012
FFF5
0008
FFF6
0005
FFF0
000A
000E
FFF8
0001
0017
0017
FFEA
0011
FFF4
FFF0
FFFA
FFF1
FFE8
FFF9
FFED
FFF6
FFE6
000B
FFF5
FFE8
FFF8
FFF6
FFF2
0013
FFF2
FFEA
0011
FFF4
FFEC
000A
000D
FFE5
000B
000D
0001
0005
FFEB
0000
FFEF
FFE5
0007
FFF0
FFEF
FFF1
FFFE
FFE5
FFE5
000B
000D
000F
FFF0
0002
000B
000A
0015
0000
FFFE
FFE6
0018
000D
FFE8
FFE4
FFF5
FFFF
FFF0
FFF4
0014
FFF3
FFFF
0009
FFFD
FFE4
FFEE
FFE8
000A
0007
FFE9
FFFD
FFE7
FFF5
FFF7
000F
0013
FFE5
FFF4
FFEE
FFE7
FFFE
0014
0015
FFEC
0015
FFF1
FFFB
0005
FFEF
FFE7
FFEB
0004
FFE6
0000
FFF1
FFF9
000B
0009
FFF9
000B
FFF1
FFE5
0011
0006
FFF7
0014
FFF6
0014
0006
FFF7
0006
FFFC
0012
FFF3
FFED
FFF6
FFE7
FFEF
0010
0008
0005
0014
FFEA
0006
FFE8
000A
FFE7
0018
0003
FFF0
0004
000F
FFF1
0007
FFE5
FFEF
FFFF
000A
FFF3
0014
FFE9
000A
0003
FFF0
0013
FFEF
0014
FFED
000F
0002
FFEA
FFFD
FFF2
FFE9
FFF2
FFE8
000D
FFF7
FFFE
FFEA
0010
FFEB
FFF3
0003
FFE5
FFE7
000D
0003
0010
0015
FFF1
0009
FFEF
000C
000E
0000
FFF0
FFF4
FFEB
0015
FFF7
FFEA
FFF5
FFFD
FFFB
0017
0001
0012
FFF9
FFE5
000F
0017
FFF2
000E
0015
0013
FFE7
FFEE
FFE7
0017
FFEB
FFF7
0004
0011
FFE5
0005
FFE7
0007
0014
0005
FFE6
FFF1
0016
0016
FFF0
FFFB
FFF5
0012
FFF1
FFED
FFF4
000A
0001
000E
0002
0005
FFE5
000A
FFF3
FFF8
0018
FFE9
0017
FFF7
FFE7
FFF5
0006
FFEC
FFF8
0009
0002
FFF6
0003
000D
0012
0015
0016
FFF1
0017
FFF0
0000
FFF1
0001
0018
0013
FFFA
FFF3
FFF7
0014
FFED
FFFE
0001
0005
FFF6
FFF4
FFF3
0006
FFF6
FFF4
FFF4
FFE5
0015
FFFB
000D
FFF9
000A
FFF6
0020
000F
002B
FFE1
FFFD
0021
0021
FFE4
0030
0004
000A
FFFA
FFE4
001D
0025
FFFE
FFEA
000C
FFE3
FFE8
FFE5
FFF2
000C
FFEC
0024
0026
FFE8
FFD7
0014
FFCE
0009
0016
0013
FFFE
001D
0001
0011
002D
0019
0004
FFF5
FFF7
0016
FFF7
FFED
0005
0013
FFFB
0009
FFF5
0007
FFE5
002C
0014
FFF2
0018
FFEA
0019
FFE8
FFE0
FFCD
000D
0025
FFF4
0003
0013
0018
FFF9
0013
FFFA
FFE1
000F
0029
FFCE
001C
0001
FFE6
0023
0003
FFED
0027
0003
FFF4
FFFA
FFFF
FFE5
FFE6
FFFF
FFEE
FFF2
0010
FFE7
0008
0005
001E
000B
0013
0028
0011
0028
0028
FFF3
FFF7
0023
0008
0004
0022
002A
0015
FFD0
0025
0022
FFFB
FFFE
0013
0022
FFFD
FFD0
FFE1
0004
FFFA
000D
0020
FFFA
FFF7
001F
FFF7
002A
0010
FFDF
000C
0007
FFD9
0020
0034
0027
FFEC
FFD6
0000
0001
FFE9
FFFA
0012
0021
FFDC
000F
0007
FFFE
FFE6
0015
FFF5
FFD5
0012
FFE5
0027
0007
FFFE
0009
FFFC
0023
0004
002B
0003
0004
0011
002C
FFD3
0031
0001
0034
FFE8
FFF0
FFE8
FFFA
0011
000D
000D
0020
FFE6
FFFA
002C
FFE3
FFF1
FFD9
0017
0004
FFE4
FFFB
FFE4
000D
FFF7
FFE9
000A
FFF2
0013
002A
FFF8
0009
FFF7
0022
0019
FFD1
001C
FFFC
FFEB
002D
FFF3
001A
0030
FFFB
0019
0028
FFDB
000C
FFF2
FFF8
0000
000F
001C
0027
FFD6
FFEF
0011
FFED
001D
0030
0007
0022
0000
0002
001A
0022
0029
001A
FFE2
FFF0
0019
FFE2
FFF6
000F
FFE1
FFD7
0002
FFDC
FFF9
0001
001A
FFFA
FFFE
FFF7
0022
002E
FFE0
FFDE
FFE2
FFE7
0036
FFCB
001D
0032
FFEA
0032
0006
FFE0
FFE4
000E
0002
FFFC
FFE6
0001
0003
FFE7
0003
FFD2
0025
000C
000B
FFF7
FFF5
001E
FFCF
0016
000A
FFE8
0029
0016
0024
0022
FFFA
FFF8
0021
0002
FFE4
0007
FFF8
FFEA
FFFA
0017
0014
FFF0
000B
0016
0007
0001
0015
FFF7
0004
0003
FFE5
0001
FFEC
FFE7
0006
FFE9
0015
FFF7
FFF2
FFEC
0013
0006
FFF0
FFF6
0015
FFE5
FFF0
0008
000F
FFF2
FFED
000D
0012
FFFB
FFF4
0009
FFEB
FFF9
0009
0015
FFFF
0012
FFE9
000A
FFF0
FFFE
FFFA
FFFB
FFF1
FFEB
FFE5
FFE9
000C
FFEC
FFF5
0013
0005
0015
0017
000B
000D
FFEA
FFF3
FFE7
FFF8
000E
FFFB
FFFE
FFE8
0004
0010
0004
FFF2
0009
FFFD
000D
0010
FFF0
0002
FFF6
FFF7
FFE5
0016
0007
FFFC
FFEA
FFF1
0008
0009
FFEC
000C
FFEA
0011
FFD8
0017
FFFB
0010
FFEA
FFED
FFF9
000D
FFED
0016
0005
001D
FFF7
001E
0008
FFD5
0008
0001
FFFE
FFFA
0021
0019
0022
FFFB
FFF7
0003
FFFB
0014
FFE8
001B
002D
000D
0007
0012
000B
000E
0023
0004
FFDF
FFFE
FFF0
FFF8
0006
FFE8
0012
0024
FFF6
0005
000F
0028
0005
0008
0012
002A
000E
FFDC
FFFB
FFE5
0021
FFF7
FFFF
FFF9
FFE9
001B
FFFB
FFED
0001
FFDE
0005
0011
FFFB
0012
0025
FFCF
000E
0010
FFF7
FFF3
002C
0023
FFD3
000C
FFF4
0010
000B
FFFC
0004
0010
0001
0004
0000
000A
FFF6
0018
FFF4
FFF4
FFEC
FFFF
0025
0022
FFFD
FFF9
FFE8
FFED
0010
001E
000F
0000
FFCF
001F
FFEF
0013
002D
001E
0023
0031
FFEA
0000
FFEC
FFE9
0032
002B
0001
0028
FFE0
0018
0012
000C
0003
001B
0019
FFD0
001D
FFF1
0016
001C
FFE6
FFFA
001B
FFF7
FFED
0005
FFF9
FFF8
0021
FFF6
FFDD
0026
0032
0012
0000
FFED
0005
0011
0011
000A
000B
FFF6
FFEE
001B
0004
0009
FFE7
002F
FFF0
FFEA
FFE2
0029
FFF6
0000
0018
0003
FFED
001F
001F
0009
0005
000D
001D
FFFA
0012
0002
FFFA
002D
FFF8
0020
FFF3
0011
0018
FFF9
000C
FFFA
FFFD
FFF5
000E
000C
0013
0011
000D
FFE8
0012
0016
FFFB
FFF9
FFF7
FFF0
0004
FFF1
0002
FFF3
FFFC
0002
000C
FFF7
0004
FFFC
FFEC
0002
0014
0012
FFEE
0003
0013
000C
0018
FFEC
FFEF
FFFF
FFE9
0002
FFFC
0001
0002
FFED
FFE8
FFF6
0016
0005
FFF1
FFF5
FFFD
FFE7
FFF0
FFFA
0009
FFF8
0005
0018
000F
0005
0009
000D
FFF3
FFEE
FFFF
FFF3
0017
0002
FFE7
FFF3
FFF6
FFFA
FFF0
FFF0
0001
0002
FFFE
0005
FFE8
0003
FFF7
0014
0007
FFF6
0004
FFFF
FFFD
FFE6
0004
0001
FFF9
FFEC
0004
000E
0013
FFFA
0017
FFEC
0011
0024
002E
0002
FFD8
0004
0019
FFDA
0024
0029
FFFF
FFEA
FFE7
002B
0028
FFE4
FFE2
002C
000A
0019
FFD8
FFF8
FFF4
FFE6
0015
000B
FFE1
FFE6
0013
FFF7
002C
001E
001D
FFFE
0007
FFF9
0007
000B
0014
002A
0005
0001
0027
FFFF
FFFA
0016
001C
FFFB
FFEE
0010
FFD4
0003
002E
0022
FFFF
001A
FFF4
001B
FFFC
FFFA
FFE1
002B
001B
FFD5
0007
0010
0001
FFF3
0021
FFE6
0010
0025
0026
FFF0
000E
FFFE
0008
FFFC
FFF5
FFEF
FFF8
FFF8
0006
0018
FFFA
FFF2
FFD1
001D
FFF5
FFE2
FFF6
FFD8
000C
FFD6
000D
0027
0009
000A
FFE5
0004
000D
0011
FFDA
0018
FFF5
FFF2
0000
0010
FFF7
0008
FFF1
FFF3
FFFF
0010
FFED
FFDE
FFD0
001B
FFFD
0003
0003
000C
0013
0024
0005
0006
FFFC
0004
FFF7
FFFB
000B
FFEC
FFF5
0014
000E
FFF5
0015
000F
FFE4
FFF6
FFF0
FFF5
FFFC
FFE7
000D
0013
FFF8
0027
0016
0025
0001
FFEF
FFF6
001F
0025
FFDC
002C
FFF3
FFF1
000F
FFF4
0002
FFEB
0014
001E
FFF2
0010
FFE4
0006
000F
0010
000B
0015
FFF4
000B
002B
FFE4
FFEE
0025
002D
FFDE
FFFC
000F
000D
0000
0012
FFDA
0013
000C
FFFB
FFFA
FFF2
0003
000F
0020
FFE3
0006
002B
FFF2
FFE4
FFE5
001E
FFF9
0017
001C
0002
FFF5
0010
0003
FFE5
FFF3
0008
000B
FFED
0012
FFFB
FFF2
FFFE
FFEB
FFE3
0012
000D
000B
0016
FFEE
FFEB
0007
FFD5
000C
FFFF
FFFE
FFE7
0002
0004
FFDE
0015
0005
FFFE
0017
FFDE
001A
0010
FFEF
0004
0008
FFE4
FFE1
FFD0
FFD7
000F
FFDE
FFE3
002B
000C
0019
FFD5
FFED
0004
FFFE
FFD6
FFFF
FFF8
0023
FFEB
0009
FFFA
000D
FFF5
0010
FFF4
000C
001B
001C
001D
FFD6
FFFD
000F
001F
0002
0002
FFFA
0013
0016
001E
FFF0
000B
0002
000A
FFD3
0008
0012
0028
000C
000B
FFFF
FFF8
FFFC
0022
0003
0029
000D
002A
FFFB
FFF1
0017
0022
0009
0003
FFF9
FFF5
FFF8
FFEF
FFD5
002B
000D
000D
0005
FFEF
FFE8
0019
FFE3
001A
FFDB
FFE7
001D
FFD9
FFDC
000B
0025
FFEB
0002
FFE1
0005
FFF9
FFED
FFFB
FFE5
0005
0015
0011
0001
0005
FFFF
002D
FFD5
FFDA
FFF6
FFF7
001F
FFF7
0011
FFF3
FFF0
FFFD
0003
000F
FFE5
000E
000B
FFFF
FFEA
0009
000F
0013
FFF8
FFFD
FFED
0001
000D
FFFF
FFE7
0006
0018
0006
FFF8
FFD0
FFF0
FFEA
0016
0000
FFD0
001E
000E
FFFE
0008
FFD2
0002
FFEF
0001
FFDF
0024
FFF5
002D
FFD1
001C
0001
001B
0004
0017
FFDA
FFDE
0009
001F
FFEB
001C
FFF7
FFD5
FFE3
000D
FFDA
0014
000C
0017
0027
FFF1
FFD3
0025
FFE7
001F
FFFE
0009
001D
0004
FFFD
FFFF
0005
000F
000B
FFE9
FFE2
0009
FFF1
FFF8
FFD2
FFF6
0023
0029
FFEF
0006
0017
000B
FFD8
FFCC
FFE9
0006
002D
FFD0
0008
FFFD
0006
0013
FFF8
0029
FFF1
FFF3
FFF7
0016
FFF4
FFED
0006
0015
FFF1
FFF4
0026
FFDA
FFFC
0006
0005
FFE8
0035
002B
FFF2
0006
0013
FFE4
0018
FFEC
FFDF
001D
0007
0002
0003
FFE9
0019
FFFA
FFEF
0010
0011
000C
0017
000E
FFF9
0009
FFEC
FFE8
000C
000A
000F
FFEE
0019
0002
0000
FFF0
FFEA
0000
FFF0
0001
FFFE
FFF9
FFEA
FFF4
FFE9
FFE8
FFFE
FFE6
0007
FFF5
0019
FFF6
0013
FFF2
FFFF
FFF8
0013
0016
FFE9
FFFB
FFFC
0006
FFF7
FFEE
0012
FFF5
0006
FFEA
FFF1
0001
0004
0005
000D
0002
0016
FFEF
FFFE
000D
0005
FFF9
FFEB
FFEE
FFF1
FFF8
0016
FFF4
FFF2
FFF3
FFF1
FFF0
FFFB
FFFC
FFE7
0012
FFED
FFF7
0014
0005
0011
FFEC
0003
FFFB
FFE9
0013
0002
0008
FFEC
FFE8
FFF8
0017
0019
0019
FFF6
0008
FFE7
0006
FFE0
000F
001F
FFE5
FFFE
0007
0032
FFF6
0026
FFF9
FFFB
0003
0007
FFEE
FFFC
FFD4
FFEF
0035
FFFA
FFED
0008
FFE9
FFDE
FFE7
FFFD
FFFA
0001
FFE6
003A
FFE5
FFF2
001D
FFE7
FFFD
0003
0001
FFF9
FFDE
001E
FFF5
0002
001D
0019
0005
000A
002D
000D
FFE5
0013
0002
FFF5
FFE2
FFF3
FFE6
001F
FFE0
0001
0014
0008
0015
FFFC
FFDE
001E
FFEE
FFE1
FFF2
FFFE
FFFC
FFF7
0033
FFFF
0003
0017
0029
0008
0021
001A
FFF4
0031
0001
FFFE
FFF8
0034
FFFD
FFD3
FFF7
000F
0013
0036
FFD6
0014
FFF3
FFDD
FFE4
0009
FFF9
FFF2
FFEE
0013
000D
0003
0005
FFE5
FFF8
0015
FFE7
FFEA
0003
FFF2
0013
FFF4
000E
0000
000A
0014
000E
0000
FFED
FFF5
FFF6
FFFE
FFEE
000B
FFF3
FFEB
FFF9
0000
FFFB
0013
000C
FFE8
FFF9
FFFC
FFF0
FFFF
0007
000C
FFFD
FFED
FFE4
FFF2
0002
0017
0016
000F
000D
FFED
000D
0000
FFE4
FFFF
FFE6
FFE7
FFF9
0007
FFF3
FFFF
FFFE
0007
0017
FFEB
FFEE
FFED
FFEC
FFE5
FFF2
FFED
FFE6
FFFB
0005
000C
0007
FFF3
FFF5
0006
FFEE
FFE4
0013
000C
FFEB
FFFB
0009
FFFB
0004
FFEE
FFED
FFF5
0017
0017
0007
FFF5
000A
FFEA
FFD2
FFDB
FFDB
FFF5
0013
0012
FFD1
FFFC
FFFF
FFDF
FFEA
0001
0012
FFE4
FFD1
001C
000F
FFE2
FFED
FFF9
000E
0007
FFFD
0008
FFFA
FFE9
0021
0012
FFFE
FFFB
FFE3
000C
0012
001E
0019
001F
000B
FFD3
FFF8
000C
0029
FFFA
FFED
000B
FFF5
0013
0007
0032
0022
000C
002F
0021
FFF6
000B
000E
0007
001E
FFF8
FFFE
000B
0024
0024
000C
0004
FFFB
FFE4
0015
0014
FFF2
002D
FFE8
FFEE
FFF0
002D
0005
0007
FFE8
FFDF
0004
000F
FFEC
002E
0008
FFE0
FFFE
FFFB
0026
0003
0009
000C
FFEF
0034
FFF8
0009
FFF7
FFEA
000F
0004
FFFB
FFEC
0009
FFF5
0000
FFDE
0020
0000
0000
FFFF
FFFC
FFF0
FFFF
FFFC
FFEB
FFE6
FFFF
0017
000E
FFEB
0004
FFDF
FFFD
0001
0004
FFFD
0013
0009
0013
0014
0005
001C
FFED
FFFB
0010
0003
0017
0003
0003
FFEC
000A
0014
000E
0011
FFFC
0018
FFED
0008
FFED
FFFC
FFE5
FFF3
0009
FFFF
FFEC
FFD7
FFF4
0031
FFD6
0004
FFF9
FFF0
FFF6
FFF9
0012
0007
000C
0005
FFFE
002E
FFF3
000D
0019
0004
000A
0029
0028
FFF9
0012
FFF7
000D
FFEF
0005
0003
FFD8
0012
0011
0010
002D
001D
000A
FFE9
FFD5
0018
FFED
000A
0008
FFD9
0006
0024
0023
FFD5
FFDC
002A
FFF9
0012
0013
FFD7
0012
FFE8
FFE7
001A
001E
FFF2
0023
FFD6
0026
FFF6
0011
0009
FFF6
FFDE
0006
FFFC
000C
0029
0010
FFF8
FFF3
FFFF
FFD6
FFE3
000C
FFF1
000B
FFEC
FFF7
0020
FFE2
000F
0021
FFE1
FFF2
0006
FFF7
FFE9
001B
001C
FFD6
FFD7
0004
0000
0015
FFEE
0025
001F
0024
FFFF
FFFC
0024
0007
FFD2
FFEE
0010
0015
000C
FFFB
FFEC
FFF8
FFF3
FFF6
0001
FFFF
FFEF
0022
002E
FFDA
001B
001B
FFF6
0003
0015
0022
001B
FFFA
FFFF
FFF8
0009
0020
FFFD
FFDE
001B
000A
0017
FFF9
FFEA
FFFE
FFE4
000F
FFE8
FFF1
0003
FFF8
0015
0007
FFF1
FFF7
FFF3
FFE5
0004
FFE4
FFE8
FFE5
FFF0
0013
0006
0016
FFFE
0011
FFEF
0006
FFF8
FFE5
0011
FFEC
FFF2
FFFF
FFE8
0001
FFEC
FFE7
0000
0008
FFE5
FFE4
FFE7
0002
0014
FFF3
FFE4
FFF8
FFF6
0009
FFFA
0008
FFFE
FFEA
FFED
0012
0012
FFE5
FFF7
0004
0004
FFF1
0007
000B
FFEC
0007
000A
0006
0011
FFFB
FFF4
0011
0000
FFE4
FFE7
000F
FFF8
0001
FFF3
FFFF
000F
FFF4
FFF8
FFE8
FFF6
0003
0005
FFE6
0012
000A
0007
FFEE
0009
FFF6
FFED
FFEF
0012
000D
FFEC
FFED
FFFB
0006
000E
FFEB
0008
FFEF
0011
FFF7
FFFE
FFE5
0000
0006
000A
0013
0007
FFE9
0012
FFED
FFF3
FFF5
0000
FFEE
FFF7
FFF5
000D
FFEE
0014
FFFE
FFFB
0009
FFF0
FFEF
FFEE
000E
FFE3
FFED
0007
FFE6
0008
0016
0000
000A
0016
FFF9
FFE7
000B
FFEB
FFFD
0008
FFE5
0013
000C
FFF1
FFFB
0009
FFE4
FFE5
FFF1
FFF0
0013
0007
0011
FFFA
0016
0008
000C
FFF9
FFF9
000F
000D
FFF4
FFF4
FFE6
FFE3
FFFA
0016
0004
0003
0014
FFFF
FFF2
FFFB
0004
FFFE
0013
0012
FFF0
0010
FFFD
0010
FFF1
0002
FFFB
FFE9
FFFC
FFEE
000C
FFF6
0002
FFEE
FFF5
0001
0004
FFF1
FFF9
0006
0006
0002
FFEF
0017
FFF6
FFF1
0016
FFF0
FFE6
000A
FFF9
000D
FFE9
0001
0000
FFFF
FFF0
FFF6
000A
FFFE
FFF9
0003
FFEC
FFFC
FFEB
FFF6
FFEA
000E
FFFE
FFE7
0003
FFF3
FFE5
FFF2
FFEF
0006
0008
000C
FFE6
0015
FFF2
FFFD
0010
0005
FFE6
FFFC
0015
FFFA
FFF9
FFE3
FFF8
0014
0001
FFF4
0013
0012
FFF1
FFF0
000B
000B
FFE6
FFEE
0006
0013
FFFF
0001
0018
0011
0013
FFED
FFF6
FFFC
0011
FFFF
0011
FFF1
FFF8
0005
FFEF
FFE8
0011
0007
FFF5
0012
0007
FFE9
001E
FFED
FFFE
001B
000D
FFFF
0015
FFEB
FFEE
0015
000F
0000
0016
0006
0024
000D
001C
000A
0028
001D
0032
FFF9
0029
0001
000F
0020
0005
001C
0019
FFFB
000B
FFE3
FFFC
FFDA
FFF9
0011
0009
0018
FFE8
FFD8
001D
FFEC
FFED
0012
0000
FFDF
FFD7
FFFA
FFE9
0020
0019
FFEB
FFE2
000D
FFE8
002A
FFE7
000A
FFE7
FFFA
0003
0029
FFF5
0004
0023
FFEB
001C
FFF5
0010
0021
000C
FFE0
002A
FFE4
FFD4
0020
FFF0
FFFD
0012
0024
001B
0003
FFF0
FFF3
0016
0017
0006
0012
0009
0006
001F
0018
0007
000D
FFFC
000B
FFFF
0014
0001
0008
0001
FFEB
0035
FFF4
0027
0025
001E
000A
FFF0
000A
000B
FFF9
0027
0018
0003
FFF1
FFE7
000D
0035
0004
0019
000C
000A
FFF9
0011
FFE6
0031
FFFD
FFE5
FFF1
FFEF
0005
000C
002D
0016
FFD7
FFF3
FFFD
FFEF
0009
FFED
FFF1
FFF5
FFDE
0033
FFFA
0003
FFF3
0012
FFF2
FFE5
FFFA
0001
001D
FFEE
FFFF
FFF0
FFEF
FFFC
FFED
0032
001C
FFEA
0027
001E
FFFA
FFEE
001D
0012
000E
FFF0
FFE2
000F
FFF3
FFF8
FFF8
FFF2
0022
0029
FFEF
FFD9
0022
FFE1
0006
0004
FFF6
002F
FFF0
0029
001B
FFF9
FFEF
0010
FFFA
0007
FFEF
FFE3
FFFB
FFF9
0004
0011
FFEA
FFFC
FFFB
0010
FFFB
FFF4
0010
FFEC
FFE6
FFE3
0009
0013
FFE8
FFE7
FFFF
FFFA
FFED
FFF2
FFFB
0003
0016
FFEF
0006
FFF4
0006
FFF8
000E
FFF3
FFF3
FFEB
FFEF
FFF8
FFE4
0010
FFEE
FFF0
FFE7
0003
FFEC
FFF2
0003
0000
0010
FFE9
FFEF
0011
000F
FFE5
FFF3
FFEB
FFFC
FFE5
FFF5
FFEF
000A
0007
000D
FFF1
0005
FFF9
FFF0
0008
FFE6
FFFD
FFFE
000F
000B
FFF7
FFFB
FFF9
000A
0013
FFEB
FFF7
0014
FFED
000B
0001
0004
FFEC
FFE5
0012
FFE3
0015
FFE8
FFF2
FFE6
FFE6
FFF6
FFE2
FFFD
FFFE
FFEB
0011
0018
FFEA
0025
FFF6
FFD5
FFF2
002B
000D
FFF5
FFDD
0010
FFFC
FFFE
0031
0026
002A
001F
FFE0
FFEF
FFD9
FFEE
0028
002B
FFE7
001A
FFCF
0028
0014
0011
002E
0008
FFFC
FFDE
0007
FFF9
0010
002F
0017
000B
0021
0000
FFF9
000E
FFFF
001D
0023
000D
FFE6
001D
0028
001A
0003
FFF6
FFF9
0009
002D
FFFD
0003
0025
FFD1
FFFB
0011
0005
FFFC
0020
0019
FFDF
FFD0
001F
0002
000A
0014
0005
FFF5
FFFB
0014
0014
000D
FFF9
0016
0001
0004
0002
0006
001F
FFFE
0003
FFF7
0020
002D
0015
0012
001B
0017
0009
000D
FFE5
FFF0
000C
FFF3
002B
FFF4
FFF2
0004
FFE9
0011
002E
FFF3
FFF8
0011
FFF4
0014
FFF7
FFD3
FFFD
FFF3
0015
000D
FFD5
0001
001E
FFD7
0010
000F
0012
0024
0022
0001
FFEE
002E
FFF6
0001
FFF8
FFD4
000D
000A
FFFF
0005
0010
0007
0019
0023
FFF6
FFE4
0020
FFF8
FFF4
0020
FFF8
002A
FFD3
000E
FFD1
002B
0017
FFD1
000A
FFF0
002D
FFEB
FFF2
000C
FFFF
0023
0032
FFF3
000A
001D
FFFA
0007
FFF0
FFD4
FFED
FFFF
FFDE
0017
000A
FFE2
FFD8
FFF7
0003
000B
FFF3
FFFE
0004
FFF4
0019
0019
001D
0009
000E
FFFE
0010
0013
FFF6
0010
FFF9
FFE8
0001
0005
000C
FFFB
FFF6
FFF2
FFE4
FFEA
FFF1
FFF6
0001
0006
000F
FFFB
FFF8
FFF2
0007
FFEF
0013
0008
FFED
FFF3
0005
FFE8
FFEB
FFFC
FFF5
FFE5
FFF8
000E
FFF9
0001
FFF0
FFEA
0005
FFF4
0001
FFE4
FFF5
0003
FFF8
FFFA
FFE5
000B
000B
000F
FFEE
FFF2
0008
FFEE
FFFC
FFFB
000B
FFE9
FFF5
0016
000D
0015
0001
0010
FFE6
FFEC
0008
0002
0017
FFE8
FFFB
FFE4
000C
FFF9
0014
0003
0012
FFE7
0010
FFF4
FFF9
FFEF
FFEB
FFE5
0015
0006
0003
FFF6
000B
FFF3
FFF8
FFE8
0022
FFF9
0016
0027
FFE1
FFDE
FFE9
0017
0013
0014
FFFF
FFD2
0014
0001
000C
FFE4
FFDA
0006
0027
FFE0
0008
FFFF
FFEB
FFE1
FFE5
FFE9
FFFF
001C
FFE3
0014
000F
FFFC
001C
0008
0016
FFDA
FFFE
000C
FFDC
0020
0008
000F
0024
0028
FFEB
0005
0032
0020
FFF8
0017
FFD9
0003
0001
0015
000D
FFF2
FFE0
000C
FFF9
0027
FFF5
FFF3
FFD0
0021
FFEA
FFD9
000E
FFDE
FFFE
FFFB
0015
FFED
0009
FFE2
0008
0025
001C
001E
0009
0013
FFD4
FFFF
0006
001E
0017
FFDD
001E
001B
000A
0028
FFDE
FFFE
0003
FFD7
0009
001D
0019
FFDC
FFEF
FFDD
FFDB
0020
0007
FFF4
0012
FFEF
FFD4
000C
0001
001B
FFEA
FFEB
0009
0024
FFFC
FFEB
FFEC
0014
001B
0017
001A
000E
FFEC
0011
001A
FFFB
FFDB
FFF0
0012
FFF6
001E
0015
0019
0011
FFF1
FFF7
0002
002E
000E
000C
FFEA
FFED
FFF8
0007
0014
000C
000E
002B
0025
0013
FFFE
0026
FFE7
0014
FFEC
FFF7
000B
FFF0
FFF9
0005
FFF4
FFEE
0000
FFEB
001D
FFDE
002B
FFF8
0002
FFE1
0000
0021
0025
FFDB
FFE0
0016
0017
FFDB
0022
0019
FFD2
0028
FFF7
0024
FFE3
FFEF
0005
FFF0
0026
FFFE
002B
0004
FFEB
000B
FFED
001E
FFE8
0005
0022
FFF4
FFE7
0008
0003
FFFF
FFF4
0037
FFFD
FFF4
FFEF
0004
000A
001E
0031
0026
FFFB
002A
0017
000D
FFF1
FFDC
001B
002B
FFFD
0004
FFDD
000D
FFFB
FFF8
FFFD
001A
0004
FFDE
000E
FFE0
FFF5
001C
000F
FFF7
0003
000A
0009
FFEF
FFF3
FFE3
0011
0001
FFE6
0005
0002
FFFA
001F
FFFE
0024
000B
0026
FFE1
0000
0026
0016
FFFF
0008
001C
FFFE
FFE8
0018
001D
FFE7
001B
FFF4
FFDD
000E
0011
0000
002B
0025
FFF4
FFF6
000C
FFFF
0020
FFF6
0008
0007
0023
FFF0
0024
0003
FFFF
0002
FFE8
FFFD
001B
0018
0010
FFFA
FFF0
0018
0015
0014
0021
001E
FFF2
FFDE
000F
0012
0018
FFEF
FFED
001C
0015
0012
FFF6
FFF7
FFDF
FFFE
FFE8
0002
0008
FFF4
001C
0002
0028
FFEA
0028
FFF8
000D
FFE0
0004
0007
FFF3
0027
0023
FFE3
0009
0017
FFEA
0017
0026
0001
FFE4
001E
FFDA
000A
0028
001C
0019
0012
FFF8
002B
FFEA
0001
0004
000E
0004
FFFA
FFFF
FFE9
0024
FFFA
0011
0006
001E
FFEA
0019
FFE5
0000
0019
0005
002C
0002
FFEF
0011
FFDA
0007
0019
0021
FFDE
FFE8
000A
0004
0003
FFE5
FFE5
FFF5
FFE0
0007
0010
000F
FFF4
0003
FFD6
0001
0028
FFFD
FFDB
0000
FFF7
0002
0005
001A
0016
FFE9
FFE9
002D
000F
000E
0003
0016
0027
FFFF
000E
0006
0016
FFEE
002F
0006
001A
0011
FFEA
001F
FFF7
0009
000A
0000
0011
FFE9
0008
FFF3
FFEB
000F
000A
FFE7
0008
FFF6
FFDD
FFEC
0006
0001
0025
0027
FFFA
FFEF
FFE8
FFF4
0014
FFF9
0009
0009
0021
FFE7
001F
FFFB
0015
0015
FFD9
0003
FFFC
000B
FFFF
FFF5
FFE0
0010
FFEA
FFFC
0029
FFFF
0019
0005
0000
FFF6
0019
FFE4
FFF5
0028
0029
0016
000C
0019
0025
0008
0001
0027
FFF8
FFFE
FFFB
000D
FFEB
FFFA
0018
0014
FFF4
FFCC
0003
FFF8
FFED
0006
FFFD
0002
0002
FFD2
000E
0005
FFE9
0029
000A
FFFD
001C
FFFD
FFEB
FFEE
FFE8
001E
002A
0009
002B
FFE1
FFF0
FFFC
FFE9
0026
0012
FFFD
0006
FFF7
0023
FFFC
0010
0020
0009
FFF6
000D
0024
0010
FFEF
0024
FFDC
FFF8
FFFB
001F
FFFD
000F
FFEC
FFF9
0017
FFFD
0034
0021
FFFE
000B
FFF4
FFEE
000C
FFEB
FFED
000D
0025
FFE2
FFD1
001C
001C
0017
000F
001E
0001
002D
0018
0008
FFEB
0018
0029
FFE3
0011
0019
0010
0033
FFD5
FFED
FFDA
FFFD
0024
0025
FFF4
FFD8
0025
FFEB
FFFE
0005
0013
0018
FFFE
FFF9
FFCF
FFCE
FFFE
001F
0001
FFF4
0008
FFEB
001B
0010
0018
0017
FFF2
FFF3
0018
FFD8
FFFE
0019
0000
FFEF
FFED
FFF4
0022
FFFF
001F
0009
0017
FFE4
000B
FFE9
0016
002E
FFE4
FFFA
001A
FFE6
001A
0014
0008
FFF8
000E
0010
0004
0003
002D
0023
001F
FFE8
0005
FFE7
FFE4
000A
001E
0009
FFE2
FFE3
FFFD
0025
0012
FFE3
0025
FFEB
000B
FFE6
000B
FFF8
001B
FFF3
0018
FFDD
FFEB
0023
0005
FFF1
FFFD
002A
0009
0006
0011
FFE7
0027
FFF5
0007
FFD2
FFF1
0012
FFF0
001B
0016
FFF7
FFF9
0006
0004
0005
FFEC
FFE9
000A
0000
0004
FFE9
FFF7
FFF1
0007
0009
FFEB
0011
000B
FFEB
0010
0012
0018
FFED
0016
000A
FFF0
FFF1
FFE7
000C
FFF5
000B
FFE8
FFF7
FFF4
FFEB
0001
FFF2
FFFA
FFED
000D
0006
0009
FFF4
0003
0000
000E
0007
000F
0009
0003
FFE7
FFFF
000B
FFEB
000E
0014
0010
FFF8
FFF3
FFF9
0003
FFEA
FFED
000B
FFF7
FFE9
FFEE
FFF9
0001
FFEA
0015
FFF6
0005
FFF1
0005
000E
FFFD
0017
0017
000A
FFE8
FFEB
FFE9
0001
FFE8
FFF4
FFED
0016
0005
0001
FFFA
0002
FFEE
0008
000C
FFFC
FFFB
FFFA
0015
0016
000D
FFEB
000E
FFF7
FFE4
FFEF
0010
FFE5
FFEB
0010
FFEA
FFED
FFF2
0013
FFF9
FFFE
FFE9
FFE6
FFED
FFF1
FFE4
0008
0010
0009
FFE9
0011
FFE7
FFFE
FFF3
FFF3
FFF1
000C
000A
FFE8
FFFB
000A
FFE7
0001
0014
0009
000A
0016
0003
FFFE
FFED
000D
000E
FFEA
000D
FFFB
0007
FFEA
FFF4
FFE4
000E
0012
FFFC
FFEB
0012
FFF0
FFF8
0017
FFE7
000E
FFFA
000C
FFFE
0017
FFFA
FFF7
FFE9
FFFD
0016
FFEA
FFE8
FFEE
FFEF
FFE4
FFF9
FFFB
FFF3
FFE8
FFFC
0005
FFE6
FFF2
FFEC
FFF7
FFFB
FFF2
000E
0006
000F
0001
0015
000D
FFF1
FFE9
FFFC
FFF4
FFFB
0001
FFF6
FFF3
0016
0005
0010
FFEF
FFE9
0010
0013
FFEC
FFEE
FFF8
FFF1
FFFB
FFF5
FFF8
0003
FFFD
0003
0011
FFED
FFF7
0005
FFFF
0014
FFF0
0004
FFE7
0004
FFE9
FFF8
FFF3
FFF2
FFF1
FFE6
000E
000B
FFF8
FFE5
0016
FFE6
FFEF
FFF7
000D
0009
FFF5
FFE6
0000
0013
0009
FFEB
0001
FFFC
FFFF
0006
FFF1
FFE7
FFE5
FFF6
0009
0008
FFF0
000C
000D
FFF3
000A
0003
0014
FFFB
FFE5
FFEC
FFE4
0002
FFF8
FFE8
0016
0011
000F
FFE9
FFF9
000D
FFE4
FFEF
FFFE
000A
FFED
FFF1
0016
FFF9
FFEF
0010
FFED
000E
0015
FFEE
FFFC
FFF4
FFF1
FFE8
FFF5
FFE5
0016
0011
000F
000B
FFE9
0007
0016
FFF4
0003
0001
0013
0011
0008
0009
FFE7
FFE7
FFE5
0016
0000
0015
FFF3
0015
0005
FFF7
0008
0014
FFFF
FFF1
0010
FFF7
FFEE
FFEF
FFFA
FFF9
0003
FFEF
FFFE
000B
FFE7
0004
0002
FFFE
FFEB
FFE6
000B
0006
000A
FFF1
FFEE
FFFA
0010
FFF1
000D
FFEB
FFE4
FFE9
0006
000D
FFE6
000D
FFEA
FFF2
FFF1
FFEE
000E
FFF5
0016
000D
FFEB
FFEE
FFFD
FFEF
FFF2
FFEB
0007
000E
FFFD
FFF3
FFE6
0005
0003
FFEC
FFFB
0014
FFF8
FFE1
000B
FFE7
0027
FFF4
0011
FFF6
0006
000B
0012
FFEF
000D
000C
0005
0010
0028
FFF9
FFF7
FFEF
FFFA
0004
000C
002D
002F
0008
0009
FFE4
0025
0003
000A
FFEC
0003
FFFF
FFEC
FFEC
0021
0010
0020
FFD4
FFEB
0006
FFF7
FFFC
0015
FFEA
FFFA
0001
0037
0001
0014
001B
0011
FFDF
FFFA
FFF3
001C
000E
FFE9
FFFE
0003
FFE2
FFF0
0015
0027
FFF1
FFF2
0015
FFF1
FFF2
FFE9
0007
0024
000A
FFDB
0006
000D
FFFC
0014
0008
FFDC
0030
0024
FFE0
FFDD
002C
001F
FFFF
001F
FFE3
000F
001D
0030
001D
FFD2
0012
0000
0026
FFEA
FFFC
FFE1
FFF9
FFDC
0013
FFF4
0021
FFFB
FFF9
FFEE
FFD8
0023
002F
FFF3
0006
FFE6
FFE7
FFDC
FFE7
FFDF
FFF9
FFF0
002E
000A
FFF5
FFC9
0012
FFCF
0031
FFD7
001F
0013
0002
FFFF
0025
0000
0003
0008
0005
FFE1
0022
0005
FFDD
FFF7
FFF9
002C
001A
0001
0017
FFEA
0030
0004
FFFE
FFF1
000D
0019
FFF5
001F
FFE8
0024
0007
FFD8
0013
FFFB
0012
FFF2
0016
FFFC
FFE2
FFF1
002F
FFD0
002D
0032
FFF0
0011
FFF9
FFFA
FFE5
0019
0012
FFF0
FFEC
FFE1
0000
001E
FFEC
FFE5
0020
0001
000B
FFEB
000A
0019
FFF4
0034
0004
0036
000C
FFDC
0001
0026
FFEE
0015
0022
0022
FFEF
FFE0
001B
0039
0001
0000
0023
FFF3
FFE7
FFD6
FFE7
FFEE
000F
0014
000D
FFEF
FFD9
0007
000D
001C
000D
FFF2
FFED
FFEA
FFEE
0008
0028
0001
FFFE
FFE4
0006
FFFD
0009
FFEC
0009
002A
FFE4
FFFF
FFEE
FFF6
000C
0006
0006
FFF9
FFE9
FFFB
0028
0005
000F
FFDA
0000
FFF6
000E
0016
FFFA
0021
FFF7
0003
FFD3
0005
001E
0013
FFF1
0001
000F
FFF0
FFFF
0005
FFE7
000B
FFFC
000C
FFFE
FFF1
FFE0
FFDF
0008
FFED
FFE7
000F
FFE4
0020
FFEE
0001
0030
000D
0005
FFE3
FFE5
001E
FFF4
FFFE
FFEE
FFFA
FFE3
FFE3
0004
FFEB
0021
FFFA
FFCC
0013
0001
FFEB
0024
0014
002E
000D
FFF5
FFE6
0009
FFF0
002F
0030
FFF4
0023
FFF6
FFFD
0016
FFFC
0002
0015
000D
FFD2
FFF4
0008
0006
0011
FFFB
0010
001B
FFF7
FFF2
002A
FFE1
0015
0001
0005
FFDC
0012
FFFD
0020
000F
FFEE
0017
FFFE
002D
FFF9
FFE0
002E
000B
FFEC
FFFC
FFF4
0007
000B
0009
FFD5
FFD1
0027
001E
001C
0001
FFF0
0009
0025
FFE5
FFF6
0017
000E
001B
000A
002E
0007
0016
0028
FFF0
0029
FFF1
FFF8
000E
000E
FFEA
0004
FFDF
FFF0
FFD8
0023
0009
FFE3
000E
FFE1
FFDE
FFEC
0016
0028
FFE5
FFE5
0015
001B
FFE4
0000
FFF4
0015
000C
0015
000B
001A
FFF7
002F
0006
0018
FFE5
FFE6
001D
FFFF
0024
FFE5
FFF9
FFF8
FFDB
0020
0001
0012
0010
FFDA
FFFE
0016
FFD5
FFF8
0004
0022
FFF8
0010
000D
0005
FFEA
FFF2
FFEE
002E
FFEA
FFFC
FFFD
0006
FFF8
000C
001E
0011
FFF4
FFED
001D
FFDF
000C
FFD6
0011
FFDD
0012
000A
FFE4
FFEA
FFD8
0000
0015
FFEE
000D
0021
FFEB
FFF6
0023
002F
FFDF
0006
000D
0024
0020
000D
001D
000B
FFCD
0006
0029
FFDF
001A
FFFE
0012
FFE8
FFEA
0000
0006
0025
FFFC
FFF3
FFFC
0018
FFFC
0011
0015
FFEC
FFFF
FFF9
0010
FFE8
0002
0000
FFFB
FFF7
FFF3
FFF4
FFFF
002B
FFFD
FFD2
FFE2
FFFE
FFEF
FFDF
FFFD
FFEC
001D
0008
FFDC
FFF0
FFE7
0018
0018
FFE2
0014
FFF1
0004
FFF9
0001
0019
FFF3
FFFD
0005
FFEC
001C
FFFF
0019
0025
0024
FFD6
FFE7
0026
000D
FFE8
FFFC
0013
001A
FFEB
0016
FFE1
FFF2
000C
0000
FFF6
0025
FFF3
001C
0022
FFF0
0017
FFFD
0014
FFEE
0015
0001
000E
002A
FFFF
FFF0
0014
FFFE
0014
FFF9
0009
0018
000D
0013
0023
000B
000D
FFF8
FFFF
001F
0001
0025
0025
001F
FFF3
001A
000D
0002
FFE7
0008
0006
0001
FFF7
0005
000B
0009
000F
0002
000C
FFFB
001D
0020
0025
FFF7
FFE0
FFD9
FFF3
FFFE
FFF2
001F
001A
FFE8
FFD5
FFF0
0015
FFF0
0015
FFEC
0010
FFE6
0002
FFF6
FFF8
0011
0019
FFE7
FFD5
0007
FFF9
FFF7
FFFB
001E
FFEF
FFE7
0004
000F
0004
0022
FFF7
0025
0018
0003
001F
000C
000F
FFF0
FFF8
FFDC
0001
0015
0018
0024
0022
FFEC
0015
002F
FFE1
001A
000F
0021
0003
000E
0015
FFEE
0023
0006
FFEE
001C
FFF8
0018
0000
0026
FFF4
0012
0002
000C
0008
0008
0007
001D
FFDA
FFFD
FFF7
FFF3
000D
0016
FFF1
0020
FFD8
FFFD
FFF5
0022
FFF5
002D
FFF5
001B
0012
000D
FFF5
FFFA
FFEC
0003
0016
0005
FFDE
FFFC
0002
FFFF
FFDF
FFD9
0017
FFFC
0004
000B
FFD7
0027
FFF4
0002
FFEA
0004
0016
0017
FFF0
FFD1
FFDE
001E
0007
0007
001B
FFEC
FFE8
FFF8
000C
0007
FFFB
0009
0013
001C
FFE6
0025
FFF3
0009
FFFA
FFF1
000E
001D
000C
0030
0026
FFE3
0020
0029
001D
0002
FFF5
0009
001A
0010
000B
000D
0015
0015
FFF4
FFD5
0027
FFF5
FFFA
000C
FFE5
0015
0014
FFFA
FFFF
FFFF
FFF6
FFEC
FFE9
0000
0013
000A
FFFD
FFFE
FFF4
0009
0005
000B
0009
FFF8
0016
FFF6
FFF1
FFFD
0016
FFF7
FFFC
FFF5
0001
000C
FFFF
FFFA
0001
0001
0009
FFEE
FFF1
FFF3
FFFC
FFE4
FFED
FFEE
000C
FFE8
FFE7
FFE7
0015
FFF0
FFEE
FFFA
FFF6
FFF3
0017
FFF2
0016
FFF3
FFF5
FFF2
FFF4
FFFC
FFF4
0008
FFEE
FFEC
FFEE
FFF4
0000
FFE8
FFEC
0010
0008
FFFD
FFFD
000F
0005
FFED
0003
0010
000A
FFE7
FFE8
FFF7
FFE4
FFF2
0017
FFF8
FFFE
0007
0011
FFF1
0001
FFF2
000E
FFE7
FFFD
FFE9
FFF5
0004
0010
FFF5
FFFA
FFEC
000C
000A
FFF6
0012
0006
FFF5
FFFA
FFF3
FFF7
FFFF
0009
FFFA
FFEC
FFE8
FFE7
0007
0000
0014
FFEA
0010
0005
FFEB
FFE8
0003
0013
0007
0010
FFEA
0002
0010
FFF4
0007
0002
000A
0009
FFF1
0016
FFEF
FFEF
FFEF
FFEA
FFF9
FFFA
FFE9
FFEB
0018
000B
FFED
0000
FFFD
000A
0012
FFF4
0004
0007
0014
FFEA
0000
FFF5
FFF9
FFFB
FFEC
0005
0012
FFF1
0005
000B
FFF4
FFED
000E
FFF7
0015
0006
FFFE
FFF7
0000
FFFE
0018
FFED
FFFC
0014
000E
0007
0011
0003
FFFC
FFF9
0003
FFE8
0002
FFFC
FFE7
000E
0004
FFE9
FFE7
FFFC
FFF2
FFEF
000D
FFE7
FFF4
FFE9
FFF2
FFF3
FFF0
FFE9
FFE3
FFF2
FFEA
FFF8
FFE7
0013
0000
FFE5
0011
FFF0
0003
FFE7
0002
000B
FFF9
FFFA
FFEA
0010
0006
000F
000C
0017
FFE2
FFFF
0011
0005
0014
000A
FFE2
FFF6
0016
FFFB
FFFE
FFE4
FFF3
FFEB
FFF3
0009
FFFB
FFF1
0015
FFEB
000D
FFFA
FFF1
FFFD
000B
FFFA
000C
FFEE
FFFE
FFE3
0015
FFE7
FFF8
FFEC
FFFA
0001
000E
FFF1
0004
000A
FFEF
FFE8
0005
FFE6
FFFC
FFEB
0005
FFF4
000E
000B
FFEC
FFF8
0009
FFE8
0005
0015
000B
FFE9
FFFE
0029
FFEA
0013
FFE8
001D
FFF8
000C
0000
FFE3
FFDE
0034
000E
0010
000A
FFF4
FFF9
0029
0005
0034
FFEA
0010
FFF0
0010
FFDB
0014
FFE6
0018
FFE9
0018
FFEE
002D
001D
0010
001C
000D
FFDD
FFF7
0010
001F
000A
0007
0016
FFFC
FFEC
0018
FFF7
001B
FFE2
000D
FFFD
0013
0009
0031
0028
0023
FFEA
FFF5
FFFB
FFD3
0000
0010
002B
FFD6
FFF5
0024
FFFC
000C
FFEA
0023
FFE9
0008
0001
FFFC
001F
0022
0010
000D
FFD6
0002
0021
0004
FFF1
0002
0024
000F
FFE6
FFED
FFD7
0025
0008
FFEE
FFF0
FFF5
0019
FFF9
0014
FFF4
002D
FFD9
FFF0
FFF2
001C
FFFF
0011
0003
FFD5
FFD3
002C
0015
FFF1
0009
0025
FFFE
0016
000B
002A
0002
002C
FFF5
0025
FFFB
0025
0026
0005
FFDF
FFF0
0004
0027
0020
0014
001C
0009
FFF8
FFE6
FFF5
0015
FFFF
000A
0004
0020
0012
0018
FFE2
0015
000E
0017
0004
FFFB
FFF9
0025
0007
0020
FFFC
0017
FFE2
FFF7
FFFF
001E
0023
FFE7
FFE0
0030
0024
0026
FFE3
002E
FFE4
0006
FFFE
0010
0011
001D
FFF4
0002
FFF7
FFE6
002C
FFF8
FFF1
0003
0006
FFFA
000A
FFF1
FFE3
0015
0000
000C
FFDC
0020
0019
000A
0023
FFFE
000B
FFE2
FFFA
000A
FFDF
0007
FFF7
FFF2
0007
FFF4
FFEE
0001
FFE9
FFF0
0002
001B
FFE6
0014
FFFC
002E
0024
0010
0016
000E
FFE5
0005
0025
FFFB
0005
FFDD
FFE3
FFD9
0009
FFFD
FFF2
000B
FFE7
000A
FFD8
FFE2
0011
FFDD
FFF1
0004
FFE3
FFF6
0018
0007
000A
001C
0018
FFF7
FFEC
FFFD
FFE8
0017
FFFF
FFFD
001C
000E
FFD2
FFFF
0002
0019
FFE3
FFD4
000D
0009
0009
001F
FFEC
FFF6
000E
FFEC
FFEA
0003
FFEC
0026
0023
FFD8
002A
0008
000F
0009
0021
0027
0002
0002
0014
0016
002F
FFEF
0014
FFE9
0000
FFFD
FFEC
FFF4
FFEF
000D
0019
FFF4
000C
0015
FFEC
FFF6
FFF9
FFEC
FFF9
0003
FFF9
0005
0003
FFFE
FFF4
FFEE
FFFF
0007
FFF5
FFF3
FFFF
0012
000F
0018
FFF0
FFF6
000E
0007
0008
0010
FFFC
FFF2
FFF3
0017
0012
FFF5
FFFC
FFFF
FFE7
0001
FFE6
FFEC
0010
FFF6
0005
FFE7
0002
FFE6
FFE7
000B
0019
FFEA
000B
FFFF
FFFC
FFF8
000A
FFFC
000E
FFFD
FFFB
FFF7
0016
FFF8
FFEA
0008
000A
0014
FFF2
FFF2
FFEA
FFF2
000C
FFFE
FFEB
FFE9
0003
FFF1
0000
FFFF
FFF4
FFF7
FFEC
000E
FFEF
0017
FFEE
FFF0
FFF8
FFF8
FFF2
000F
0007
001A
FFFD
FFEF
0028
FFF2
0009
FFFB
0008
FFE3
0013
001E
001D
FFFB
FFD6
FFE8
0019
FFE9
FFFF
001F
001C
FFF2
0004
0008
FFFF
FFF9
FFF1
0015
0034
FFE9
0038
FFEB
FFEE
FFF5
FFFA
FFFD
0001
FFFC
000E
0007
FFF9
FFFD
002B
0016
001D
001F
FFF2
0027
000A
FFE2
FFF1
FFE6
001B
FFE6
FFE3
FFE1
FFED
0000
0001
001D
0016
0038
FFE6
0008
0022
0016
FFFB
0008
FFE2
0009
0008
0002
FFE9
FFF5
0027
0017
0001
0018
001D
FFF3
0004
FFEB
FFFC
FFFC
0012
0016
FFF9
002C
FFFA
000F
0025
FFF0
0015
0009
FFEF
FFE6
0003
FFE7
0000
0002
FFF8
000F
002A
FFEB
FFD8
001A
FFF1
FFE6
000C
FFEA
FFF4
0003
FFD0
0029
0010
FFEA
FFF7
FFE6
0029
000F
000D
0015
001A
0001
002D
0011
FFFA
0011
FFDE
FFE3
FFD7
FFE5
FFEC
0000
000C
FFE4
FFF6
FFFC
000B
0013
FFE6
FFDA
0014
FFD8
000A
FFFE
0006
FFE7
002C
0011
FFF7
FFF5
FFFA
FFED
0007
FFF1
FFFA
001D
002C
FFD9
0000
002B
000E
0000
FFEE
0008
FFFF
001C
0002
FFF3
FFE7
0028
FFE5
FFF7
FFEF
0002
0027
0007
FFF7
0027
FFFF
FFEC
FFE3
0008
0032
FFED
0020
0007
000B
0028
FFFB
002D
0008
FFE2
0002
000E
FFE4
FFF8
0013
0010
FFF5
FFEF
FFFC
FFEE
FFE9
FFF1
0007
0013
FFE5
FFD5
0024
0023
FFD8
FFFA
FFFB
002E
0006
001B
0008
FFF3
FFF5
0026
000D
000E
0026
FFDB
FFF5
FFD5
0006
0006
000B
0002
FFE9
0019
FFD8
0001
0024
FFEE
0010
000F
FFD5
0015
FFEA
0018
0009
0005
0017
FFE4
FFED
000A
FFE0
0023
FFE2
001A
0009
0028
FFD5
FFEC
0012
0010
FFDE
FFE7
FFEF
0013
000D
000C
0000
FFFE
0010
FFF2
FFE3
0020
0000
0022
0016
FFD8
0023
002A
FFED
FFE2
0012
0024
0017
0000
0016
FFE7
0019
001D
001C
FFE1
0006
FFF5
FFF3
0005
FFD9
FFE4
FFFB
FFF9
FFF9
FFF8
0005
FFCD
FFD8
FFFE
0032
000E
000B
FFFB
FFE5
FFFD
0007
0019
FFFB
FFF4
FFF1
FFF4
FFE1
FFEE
FFF9
002B
FFCA
FFEC
FFEB
0024
001F
002D
001C
000F
FFCD
FFE8
FFCC
000E
0039
FFEC
0020
0029
0005
0003
FFFF
0021
FFE9
0039
0002
FFDD
0000
0010
002F
0003
FFEE
FFF2
FFE4
FFFB
0017
0033
FFE7
FFEE
FFE4
FFEF
002D
FFF7
FFF7
002F
FFE4
0003
FFE8
FFFE
0013
001D
FFE3
000F
FFD5
FFEE
0016
000A
FFDD
FFEA
0038
FFE7
FFEA
FFE0
FFE6
001B
FFE3
FFFF
FFE8
FFEF
0003
FFF9
001A
0003
FFFF
FFE6
FFDE
FFF8
FFF5
FFE7
FFDB
0005
0001
FFF9
0011
001D
0009
FFF1
FFF4
0006
001B
FFF9
0025
0001
0014
FFF9
0022
000A
FFF2
0010
0013
FFFA
FFE4
FFFC
000B
0004
FFF2
FFE3
001D
FFE3
FFF0
0007
FFEC
FFEE
FFF8
FFEC
FFE4
0000
FFF1
FFE0
000C
FFFC
0014
000C
000D
FFE8
0005
FFFC
FFF9
0024
FFEE
FFFD
FFED
FFF2
000B
0022
000A
0010
000D
0007
0024
FFE1
000A
FFD8
000F
FFDC
FFF9
0007
FFEA
FFFA
FFF6
0013
FFDD
0015
0012
0015
0001
FFE9
0012
0009
FFF0
FFE1
FFFB
FFF9
000D
FFE2
0017
0003
0003
FFF5
FFF4
FFE7
FFE9
0001
FFE7
0005
0011
0010
000D
FFF9
FFFA
0011
FFE8
0006
000F
FFEC
0008
FFE6
0001
0002
FFED
FFF4
0000
000A
FFF7
0005
0001
000F
FFF4
FFE4
FFE4
FFE9
0004
FFF3
FFF8
0017
FFEF
FFFB
0009
FFE7
FFE5
FFE8
FFFA
0017
FFF6
0008
0005
FFF7
0015
000C
000A
FFE9
FFEE
0002
FFF0
000E
0004
FFF4
FFEF
000E
FFE5
000B
000A
0010
FFF3
0007
0011
FFF2
FFF9
FFF4
FFF5
0014
0015
0009
0005
FFEA
FFFF
0011
FFEA
FFF9
FFE5
000B
0011
000A
0000
FFF6
FFF8
000B
FFF2
FFE8
0003
000D
0016
0013
FFF2
FFE4
000A
FFF7
0004
FFF8
0011
FFF2
0007
000F
FFE6
FFEA
0002
FFF1
0003
000B
0002
FFE4
FFFA
FFE9
FFF9
FFFA
FFEE
FFF5
FFF3
000A
0008
FFE9
FFFE
FFF0
FFE4
000A
FFF8
FFFD
0005
0006
FFFA
FFE8
FFE5
FFE8
000F
000E
FFF2
FFF7
0006
0001
FFEA
FFF3
0014
FFE8
FFE5
FFE9
FFE7
FFE8
FFF3
0017
FFFF
FFE5
000D
FFFC
0016
FFF2
FFF9
0009
0013
FFFD
0016
FFFD
FFEE
FFF5
0001
000D
FFFB
FFF5
0011
FFF2
000F
0009
0009
0004
000C
FFF3
FFF7
0015
0000
FFE5
FFE5
0014
0008
0001
0017
FFEE
FFE6
0012
FFEA
FFE8
FFF1
FFF3
FFFB
FFF8
FFF3
FFF0
FFEA
0018
FFFF
0012
FFE9
FFF6
FFFD
0000
FFE8
FFEA
FFEE
FFEE
000A
000D
FFF0
0014
0005
0008
FFFB
FFF4
FFE8
FFE5
000E
000C
FFF5
FFF2
FFF1
FFF7
0006
FFEB
FFED
FFFE
0014
000E
0005
FFF9
0006
000F
000F
0010
FFF5
FFFE
0005
FFFE
FFEB
FFED
0008
0008
0004
0015
FFF6
FFE9
FFF5
FFF6
FFF0
0003
FFEF
000C
FFF6
0018
0012
0010
FFEA
0014
0001
FFE5
FFE9
FFF6
FFEE
0009
000C
0015
FFEE
FFEC
0010
000C
000C
FFF9
FFF2
0016
FFE5
0003
FFF8
0010
0005
FFF8
0013
FFF4
000F
FFF3
FFE9
0005
FFFC
FFFE
FFF9
0003
0003
0012
FFD4
0014
000C
002C
FFD1
0011
0004
FFF4
FFFD
0004
0017
0010
001C
0012
0022
FFE6
FFEB
0003
0025
002F
0024
0022
0008
000E
FFEB
0016
FFEC
0027
0000
FFF7
001D
FFD6
0001
0007
FFF9
FFF8
FFFF
FFF7
FFF1
FFEF
FFDF
0009
FFE1
FFF7
FFF9
001B
FFD5
0022
001D
0019
FFF6
FFD6
FFFB
0012
0018
FFF6
0000
0001
FFF6
0025
FFF1
0028
0020
FFD8
002D
FFEC
FFD6
FFDD
0024
0028
0018
FFE0
FFF5
FFD6
FFD5
000F
FFE8
0003
002C
0010
FFEE
FFE7
0023
0002
0000
FFE7
FFF5
0025
001B
002C
0020
0001
FFDA
0014
FFFE
000F
FFE4
FFE4
0012
FFF1
FFE1
FFDF
0002
FFF5
FFD3
FFF4
0001
0005
FFF4
FFF2
FFF4
FFE9
FFEC
FFF9
001B
FFFB
000C
FFEA
0001
FFE6
FFF8
0007
FFEC
FFE6
FFFC
0013
0014
002A
001F
0023
FFEA
FFEA
FFF0
0028
0032
FFEE
0006
0009
FFD5
000E
FFFD
0019
0005
0030
FFE1
FFE9
FFEE
0024
0022
0029
FFF4
000A
FFD9
FFFD
FFEE
0036
0009
FFF8
FFD8
000A
0035
FFE2
FFD4
0031
FFD9
FFDC
0010
FFFF
0035
0039
FFF4
FFEA
FFF8
FFF8
FFF3
001B
FFF5
000D
000D
0005
FFFD
FFF3
FFFC
001C
FFDC
FFF9
FFE0
0006
0011
FFFA
FFF9
FFF9
0017
FFFC
0009
FFEB
003B
0018
FFFE
001D
FFFA
FFD7
0040
0003
000E
FFE6
0009
0004
0037
000E
0014
FFE9
000A
FFF0
FFF4
FFEF
FFFE
FFF0
000D
0001
FFF1
000C
0014
FFEE
FFEF
000D
001C
0005
0009
FFF3
FFE8
0003
FFF1
FFFA
FFF9
0010
0017
000C
FFDD
FFEF
FFFD
FFEE
000F
0009
FFFC
0028
0007
0004
000E
FFEF
FFE3
FFED
FFFE
002E
FFF6
FFF9
0030
0016
0013
FFEE
0016
FFF6
0000
FFFA
0016
FFFD
FFE3
FFF2
0007
FFEC
FFE3
003A
FFE4
FFF9
0012
FFEB
001F
FFEE
0001
FFF1
FFF6
0016
0018
FFE0
FFEA
0017
0006
000C
