FFFFF740
0000059F
FFFFF9B9
000002D2
00000699
000001EC
00000405
0000038C
000007EC
FFFFF6D3
FFFFEED2
00000DF3
FFFFFB1E
FFFFF830
000003D5
00000FFC
000001B8
FFFFFDDC
00000B36
000007CA
FFFFFBD6
00000CBC
000009AB
000000AC
00000364
00000129
00000744
000016EB
FFFFFEE8
00000673
00000372
FFFFFE7F
FFFFFD9A
FFFFFF81
FFFFFF98
00000BBB
FFFFFB2E
FFFFFDA8
FFFFFFE6
0000040F
FFFFFF90
00000590
FFFFFCE7
FFFFFC60
000001E5
FFFFFB35
FFFFF767
FFFFFF76
00000789
FFFFFA5E
FFFFF9EE
000002A0
000006CD
00000108
FFFFF9FA
FFFFFC1A
FFFFFA5A
0000030F
0000040A
FFFFF951
000012C8
0000032E
00000439
000007A1
00000E40
000000DC
00000131
FFFFFD1D
FFFFEDD4
FFFFFDE2
FFFFF578
000001EC
FFFFFE7C
000017A1
0000005D
00000216
000010F2
FFFFFA16
FFFFF257
FFFFFAF0
FFFFFF1A
000004DD
FFFFED74
00000472
FFFFFF13
FFFFF7E4
FFFFFDD1
FFFFF576
FFFFF703
000011A6
000007F3
00000222
000003FC
FFFFFBDF
FFFFF785
FFFFF771
