FE
AD
BF
59
EF
C9
39
41
BF
EC
38
C5
23
ED
FD
D1
18
07
DF
8E
E8
10
28
E1
D5
41
3D
7F
15
AA
E6
C9
03
E5
42
03
21
05
DC
01
35
AA
F4
B3
B1
6B
BD
9C
03
13
1F
CA
26
0F
16
1D
DF
45
C7
0F
64
3F
0D
27
03
F3
4A
D1
F1
08
40
2A
22
FD
05
F4
15
C2
4F
49
CA
29
E2
91
C0
E2
24
B9
44
2F
BC
E6
B3
E4
B9
71
15
58
A9
C7
20
DF
43
D7
09
C2
28
32
20
CE
D4
52
E4
12
09
5D
3A
03
B5
3C
3B
D4
E9
29
4D
81
42
E5
C8
0A
06
D6
00
F1
14
EB
9C
E9
DD
A9
CA
23
DC
40
C5
F7
16
07
FB
D9
57
83
EB
7F
EB
43
3D
FC
BD
EA
E9
E9
FE
3A
37
36
BF
04
08
BE
18
EA
E6
1F
EE
D2
3B
06
1E
29
4F
0A
0B
F1
CE
00
06
02
46
FD
0B
0D
DE
95
D5
12
A8
D8
2B
27
43
CA
25
D3
04
00
BF
29
0B
2C
86
B4
06
F5
AD
16
1D
B4
70
4B
21
BB
56
D7
45
D9
04
4A
1D
D9
BA
45
7F
01
CD
CE
84
18
EC
B0
32
1B
33
15
33
E4
2B
53
C7
FE
E4
E8
77
4B
0C
2D
38
F9
D2
19
F1
36
92
DA
CC
61
3B
78
46
7C
DD
F5
20
F9
E3
10
2F
32
3D
73
E6
F4
B3
12
29
B9
08
F3
E2
01
E7
48
18
D1
39
81
FB
42
CA
38
00
D3
FC
BA
AA
31
53
CE
B7
2C
42
00
D3
25
F7
19
B9
01
07
F3
DF
EB
13
F2
2B
E2
2E
15
53
D4
3B
24
1A
C3
F2
ED
EE
08
3D
81
11
E2
F9
0E
39
11
F0
FC
A5
03
D8
06
01
12
B2
FF
DF
DA
28
E1
04
F0
D0
F2
F6
F3
35
44
E5
09
E1
24
E5
01
D2
29
2A
F2
FC
F3
29
B2
10
C0
04
40
12
1A
B8
65
1A
C9
DF
31
4D
C7
AF
AF
4F
32
B1
36
00
F8
D2
81
D6
CB
2C
69
FF
38
13
04
A6
14
21
F9
1C
C8
E4
D8
30
C4
B0
B2
12
2D
E5
47
09
FF
20
DA
03
17
0E
DF
C3
09
04
13
F0
27
CC
EC
5A
39
12
B3
8F
D7
C6
00
0C
14
28
E9
D0
EA
0F
1A
81
F5
51
4B
99
A3
1E
16
20
44
15
F8
3C
EC
04
C5
3D
0B
F1
B9
59
0F
B7
E0
F7
2A
55
E0
E2
F8
E3
61
DB
18
DC
4D
3B
C9
0B
22
5D
0F
CE
1F
F1
08
3D
2F
E0
2B
BF
02
F7
DC
FB
63
29
07
85
09
58
E0
C4
BE
26
5F
FA
F5
C0
12
E0
BE
F2
E3
BC
0F
04
37
D4
32
CB
E4
DF
C9
EE
AC
19
F0
D7
56
B2
B1
75
7E
FC
CE
4D
F9
30
EA
E4
CA
71
21
8C
E3
FE
D0
0F
7F
34
99
40
3C
04
F2
D2
D0
FD
32
08
DD
B5
00
00
D6
B6
E8
F5
19
BC
D4
16
A9
08
D9
25
C3
D1
45
44
36
62
0D
E7
C6
FB
8F
D8
0D
36
3C
B1
10
3E
DA
33
CE
37
C6
17
C6
40
0E
3C
0A
69
CD
B0
BD
B2
1E
F6
16
7F
19
45
47
C0
98
B4
DF
BA
0B
2E
0C
09
E1
19
88
0D
65
EC
21
12
10
B9
8B
57
18
39
2C
0F
E8
70
4A
D2
81
35
A5
35
85
79
2E
65
2C
EB
4B
39
91
A8
0C
C6
DA
92
8A
1B
1D
0D
97
F8
F3
11
17
AD
5F
0C
0A
66
04
21
68
0E
06
42
AC
5D
E7
56
2A
1F
1A
E9
32
CA
BE
71
52
AF
01
F3
CD
C9
00
21
1C
0F
CE
26
F0
D1
B3
23
7F
D0
07
D4
FC
B2
F2
DA
BA
50
18
E0
11
1B
EC
8F
4A
FF
1E
24
45
91
1E
14
00
FB
D0
36
C5
01
C8
FC
13
2E
CB
BB
FA
27
BB
A1
2B
2A
22
42
66
7F
31
A8
FA
59
D0
2E
FD
3B
5C
EB
7B
20
A4
02
82
ED
43
28
D2
3F
07
34
CF
19
E5
FE
43
03
13
B7
21
2B
28
41
5B
06
3B
F7
B2
F4
29
AC
4A
29
17
08
A8
F4
F4
E2
1A
03
E5
EB
8C
19
50
57
CB
D2
BE
45
91
B9
FF
36
F7
FA
03
E5
81
8D
AF
48
F8
C6
19
12
1F
F7
3A
B6
4A
F2
F6
E0
1F
49
14
52
1B
29
F6
25
4C
15
A6
EF
D8
C0
DB
98
F5
14
DC
A6
D0
18
BF
DA
33
66
C3
1F
25
0D
33
26
E8
08
35
26
16
0C
DE
D7
8C
AD
9E
51
1F
AC
F7
48
E9
0A
9B
25
91
D7
66
E6
6C
59
3E
BB
E7
DB
0E
D7
1D
F1
22
A8
20
D4
DE
1A
0D
EC
EC
D8
FC
73
E4
7F
39
EF
C8
F8
CD
C6
56
55
2E
E0
0F
FA
37
E1
DE
08
0B
C6
EB
E0
BB
B9
7F
4B
22
3D
41
C5
26
6D
28
B3
16
20
1B
D8
10
34
F4
A8
CA
38
E8
4C
4A
FB
15
E4
FC
57
27
FF
A3
27
F9
35
3B
43
2C
07
30
D5
3C
3B
3F
89
11
21
30
E7
C7
08
CA
E1
FB
D0
33
E0
63
67
18
F7
1B
81
B3
AD
3D
CE
E1
D0
29
27
36
13
FA
DB
71
D2
36
F2
03
DE
CB
86
1F
1E
49
FB
3E
F7
DE
26
AA
F4
2A
0A
DE
A6
F3
2A
53
49
F0
15
FD
F5
9F
BB
18
39
DC
C0
F8
C0
C7
06
DF
B6
B4
43
15
39
E6
04
D9
52
24
57
CF
00
E7
7F
B3
C5
9B
70
41
D6
14
11
CD
D6
9F
15
46
53
FA
C7
15
E3
D5
C7
68
D2
21
CF
C5
F6
D7
18
3E
15
E9
D0
41
E8
20
C7
36
CC
3C
D5
41
24
DF
97
0C
0A
D2
DB
E4
2A
C5
08
CE
E4
CD
CA
1B
B4
AF
07
CE
F8
DC
29
FC
0C
15
A6
05
28
D8
8F
92
07
DA
C4
0F
3E
CD
41
5F
C3
97
30
0B
4D
E2
F2
7F
F9
2B
D1
1F
57
FF
FF
BE
B4
0D
ED
CE
17
E2
6B
B9
FC
2D
3D
E1
BE
12
F1
CE
F7
21
E4
18
D2
F5
ED
AD
4B
AA
6F
28
3E
B1
EE
FB
FD
A6
69
29
B5
39
F4
81
F0
E1
F5
08
52
D4
0F
01
B9
C2
E4
79
D4
15
BF
1A
C3
2E
42
DB
64
14
C7
C0
55
13
B2
72
BC
19
59
46
B3
F5
DD
EC
3E
DA
06
D5
EF
AB
E8
35
F3
BB
18
05
02
F6
B3
14
FE
47
30
31
57
46
81
0D
45
2F
F4
F5
31
2B
EA
55
C9
B4
DF
EE
2A
FA
17
C2
B0
E0
34
F4
7D
FC
EB
A0
FC
09
16
02
3F
C8
F0
A1
95
73
30
E5
ED
26
26
29
FA
F6
FD
A9
C2
26
FE
1C
F3
17
EE
D9
FC
F3
0B
31
05
3F
42
67
05
CE
43
54
EE
0D
E2
B1
BD
F5
06
10
05
CF
CE
16
E6
FE
F1
7F
0D
1D
C4
C8
1A
02
4D
CA
31
06
FC
14
4D
B5
A2
41
FC
32
D8
41
F8
0B
0C
4D
40
CD
F9
C7
B3
D2
22
45
F2
4A
01
07
EF
69
C4
D2
F6
41
08
F1
BD
F7
F7
7F
38
11
E9
5C
D4
EC
1D
05
FA
17
EE
32
09
0B
EA
E4
D2
20
05
8C
41
79
B7
BF
C2
26
15
68
E5
D7
F7
29
39
A6
22
63
C4
E9
D3
12
FB
D8
2E
09
C9
F0
0C
EA
30
1B
2E
11
1A
2A
AB
03
EB
60
23
F3
0C
E7
09
1F
5E
20
FC
F2
14
FB
2D
3B
DB
EC
81
CF
3A
27
1D
17
92
F6
09
A2
0F
C9
66
CA
CF
00
D8
47
49
E7
BE
01
0A
F3
E8
01
CC
E5
D7
CA
E7
0D
F4
19
99
D0
F7
F0
1A
7F
0F
34
A5
2E
DC
C6
85
2B
F7
A7
F9
E8
23
5E
3B
EB
08
39
C5
BD
43
C1
DE
61
D8
26
55
1E
11
0E
0B
38
04
D2
74
1E
13
E1
83
24
08
57
C6
2D
26
E3
40
B6
D8
E9
EB
DC
09
D8
FA
24
F4
14
B2
E0
12
30
00
17
0B
09
B2
41
0E
C2
DB
E0
54
EA
A2
BC
1E
00
C4
39
ED
01
FE
A8
F1
D9
0F
18
21
01
E9
EF
D4
F6
08
E2
EF
EA
28
D7
FB
06
81
E6
05
4D
BD
F5
33
1D
28
E0
08
25
40
BD
E3
01
E6
EB
E5
44
D2
F2
5D
16
07
D9
FA
D7
CC
2F
90
C5
04
5C
19
7F
2E
5A
BB
01
20
F3
B2
4F
28
4C
F8
42
DD
00
D3
D5
40
F7
12
07
26
1F
2F
32
68
24
55
C1
E6
62
FE
49
45
D8
25
FB
E0
18
3D
2A
BC
45
12
3D
09
FF
FA
C2
E6
26
E0
28
AF
D2
A7
EE
E2
FB
01
FF
37
F1
D4
69
F1
EB
C9
0A
0B
1D
D3
9E
33
E3
D6
D1
13
F4
69
FB
BE
C9
62
29
45
EA
42
C9
D4
19
A2
D4
4F
26
E9
D3
B2
07
D6
05
28
52
7F
E9
A2
0B
7B
EC
0F
04
1A
E5
10
2A
D9
13
0E
C9
00
0C
1B
1F
29
F1
E9
C9
3F
E5
E3
DA
22
CF
32
E0
3D
D3
15
0D
14
3B
22
E3
21
44
00
9D
4C
3B
D3
D0
E6
EB
1D
E4
D5
DE
ED
A0
17
F5
3B
0E
23
26
EE
04
63
FF
0E
B4
3F
01
92
0B
27
39
1E
DB
55
7F
D3
DD
F2
3B
A5
11
02
F4
02
DF
D6
1D
54
2E
81
FA
6A
BB
A0
F3
0E
19
BA
79
2C
92
44
16
2F
A9
66
4E
45
B9
C4
02
E4
1E
D4
19
21
E3
9F
09
F7
F5
24
CA
D3
20
6C
C8
11
1B
0C
C9
D1
CA
EA
B8
16
3C
F6
0B
B4
09
28
B2
17
1B
24
06
C1
FE
F4
A3
82
FA
04
2E
D2
D5
28
3E
E1
91
05
C7
FE
7F
FA
69
21
3A
89
E6
FE
DA
10
12
19
4B
BC
1D
CA
F7
58
FB
AE
DF
CB
E7
5A
94
EE
2E
43
EA
18
F8
C8
FA
36
32
00
D3
07
EC
3A
14
52
F3
FF
C8
42
2D
0B
0D
41
1A
35
81
56
DE
2E
05
07
AC
AD
E0
4A
03
7E
B2
BF
CD
EF
4B
FC
5E
0A
34
CB
D3
0F
24
76
17
E2
C0
FD
04
41
07
BF
5C
BD
24
9B
18
27
13
9C
25
50
CA
9C
E2
FC
82
2B
2A
FC
0C
D4
F8
1D
C8
ED
27
EE
14
E8
23
FB
01
C6
0D
EF
02
33
29
DF
E2
09
FA
E9
22
5E
D5
0E
1D
F3
81
22
03
24
EC
CF
FB
41
20
C5
61
EB
FB
D3
EF
3C
E1
FB
ED
E4
D2
C4
2A
BE
10
38
0E
1B
FC
9A
D9
DD
C8
D5
37
E3
2F
15
19
C6
D7
E1
34
FF
F4
E4
14
FB
27
1C
2F
3B
7F
13
EE
EE
0C
01
2C
EA
F2
02
07
EC
DC
EA
1A
24
DB
E2
05
E3
E3
A7
35
05
FE
E4
0C
FD
08
0C
0B
38
E8
D9
0F
F9
1E
06
EF
2D
33
02
F7
EA
F0
B4
BD
0D
FC
45
FB
0E
D8
DD
B1
0F
F1
E9
C7
E0
FE
A1
C1
12
15
F8
C3
29
DA
C8
31
1E
0E
FA
81
48
EF
FB
DE
2F
03
E0
CD
E6
1F
0B
AE
4E
DF
EB
01
4B
F6
36
F6
EA
B8
F2
22
B4
04
FF
3C
FD
E9
1F
2E
C9
D2
F3
15
22
C7
16
D5
2C
3C
0E
18
0E
46
15
C2
FB
31
EC
F5
E5
BB
AC
04
04
00
08
AB
DD
CD
04
33
F7
64
ED
2E
C7
F8
31
1B
15
CB
0C
ED
F3
FC
1D
DB
CE
7F
A6
20
FA
0F
E5
DB
0C
18
32
E6
00
DC
E8
EA
2C
4B
B4
22
FC
D4
4F
79
05
CA
BF
30
E0
9B
C1
CC
33
FA
BD
EC
16
7C
00
A3
62
F4
E3
1B
20
FC
2F
34
FD
B5
E1
18
F5
22
4C
52
B6
0B
F9
99
BF
38
9A
2A
0D
F1
15
E4
E5
D4
7F
0C
E8
A2
AF
51
3A
2A
F2
15
35
D3
E5
3D
24
03
0F
20
1B
0A
CD
FC
36
8C
B3
DB
3D
4D
C8
C6
F7
EA
E3
81
FE
C3
AE
59
03
15
69
FC
DA
FB
F3
E3
EC
1A
F4
22
B4
F3
00
8C
0F
26
E5
EF
E6
E5
60
A6
2B
D7
27
E8
D2
D2
97
5F
51
3D
2B
2A
04
2F
48
38
B7
D7
14
D8
1E
2E
DC
30
20
E5
0C
06
20
BF
D9
D4
FE
CE
F2
E4
1D
49
32
DA
96
BE
12
03
18
2C
D1
EE
B5
00
0A
D4
4E
0B
01
A9
BC
4C
12
BA
81
57
B0
16
0A
02
08
1B
2B
06
DE
31
F4
33
00
BD
2A
E9
08
08
E9
1E
0A
CC
01
25
4A
CF
DA
2B
23
26
B0
FB
EA
C9
31
39
F2
EF
C2
E2
FC
F7
01
CD
E2
41
24
B2
19
29
2A
1F
17
C1
D3
0F
CA
0B
DA
F1
F7
FD
7F
2A
26
0F
21
A8
FF
15
D3
F3
06
08
46
27
D5
EF
E0
B5
D1
24
27
06
11
8F
CF
02
7F
F4
F0
4E
17
3A
8B
CB
E9
11
4B
2B
FE
0F
26
F8
F3
CE
20
05
FC
0A
15
B0
64
15
02
5B
F1
D9
23
BF
EA
5C
0E
D8
EE
D0
4A
35
00
52
32
B1
E9
32
97
1E
33
13
ED
00
91
F1
CC
D9
17
07
19
04
01
EC
FC
BC
FB
38
23
38
07
00
C3
EF
09
FE
B7
81
0C
57
CA
A3
F8
29
69
35
AB
A9
69
F6
FA
F5
12
0A
28
F8
BD
DE
3A
2F
C8
ED
F1
FD
FB
F6
C2
F3
FE
D5
F2
FE
33
E0
08
22
14
F1
4B
56
F9
FD
05
1C
E0
C3
D8
DC
F9
E6
81
B4
F5
83
99
D8
F7
D6
D7
05
FB
3B
10
C5
06
92
21
0F
1A
1A
2B
3D
10
F4
3A
E1
02
28
FF
33
DE
2E
AD
B2
20
2C
C2
22
74
FA
44
FD
9A
C6
3C
10
CE
AD
F1
42
EF
48
1A
3B
18
D8
04
DC
E6
07
2B
9B
D9
F9
71
14
23
65
45
2E
95
00
03
13
0B
12
0C
FF
10
06
12
D5
5B
81
10
19
D1
A9
FE
D8
3A
EC
30
F4
19
2E
CA
57
FB
D7
33
C9
79
11
1D
0B
CC
CC
05
12
03
3D
4B
FD
46
10
C7
C1
B8
08
F5
C4
3D
E3
09
19
9D
06
FE
0E
19
7F
22
32
03
F7
6E
B5
F9
FC
DE
75
11
26
DF
AE
98
44
29
E1
F6
E7
1A
E9
F9
C5
28
FA
3F
09
0B
05
06
2C
39
D2
F7
00
A9
69
E1
E2
D3
EC
F7
EA
ED
EE
E6
19
CD
0C
F0
0C
10
3E
53
3C
FA
C5
FF
FA
E6
FA
F3
06
18
0D
F6
12
B2
E7
11
81
F1
C2
DF
DB
07
25
50
9C
9D
12
B9
D4
4B
0D
F2
43
E9
B7
4C
DC
C3
E7
C9
E9
EF
FC
49
F5
1E
0D
E3
1D
B7
09
EB
18
6A
0C
EF
1B
EC
B4
28
E8
CE
C1
F5
0B
12
09
0E
16
E2
BF
F2
F8
34
0D
CB
BF
E3
2D
07
92
16
1E
08
FA
CF
19
56
1E
05
86
3A
0F
03
CE
1C
FE
4C
E0
CF
11
4E
EB
A6
E1
EB
E3
06
B7
F6
27
F1
B5
2A
CE
02
13
14
17
DF
FD
7F
56
22
00
F4
34
ED
40
0F
A9
C0
D0
53
CC
1A
43
FD
28
8E
E4
E5
1C
41
36
D6
EF
F2
18
0F
E9
2B
F2
EA
3D
EE
AD
76
19
0F
29
F5
EF
FA
E1
C4
5E
39
EF
EA
EC
73
3B
F6
4D
C2
A9
12
FB
A7
4C
0D
00
29
E4
81
D6
CC
C8
01
6D
48
F5
E8
7F
86
AE
A0
6E
D5
18
0D
30
61
19
24
3F
25
11
29
14
00
30
B8
2F
CC
F6
2D
24
1A
2B
0B
E6
FD
AC
FE
0F
1B
C7
E5
18
35
54
4A
0E
ED
E4
FB
BA
02
02
CA
CB
04
DD
F5
A6
3B
21
B4
C2
ED
19
1A
D5
F4
ED
3D
BC
FF
11
7F
1F
32
FD
1D
41
C7
19
F0
00
4B
F2
3A
D3
08
22
FF
0E
22
A7
D9
0A
0A
87
50
C4
3C
59
A2
98
F8
D8
D6
30
D9
B1
E8
D1
57
15
1B
23
2C
9A
DA
2A
D8
5D
F0
33
4D
F3
C1
C4
04
BD
1D
F7
E9
EF
10
E7
BD
E3
C1
1E
F6
40
ED
26
12
0E
50
E2
06
22
E0
67
48
63
12
E7
86
E1
03
09
F3
24
CE
D2
1D
D6
25
E4
51
F1
EC
31
38
56
2B
FE
DF
F8
A5
24
81
34
F5
36
0A
02
FF
DF
2A
EE
01
F7
EB
24
2E
F3
42
19
EC
4D
81
C3
F1
06
18
05
11
15
F1
F7
0E
27
F5
67
13
22
DF
F6
F8
0A
DC
27
13
04
36
F1
CC
3D
1C
EA
F0
D7
F2
D7
E9
10
B5
1C
21
C9
28
10
CF
0D
07
EB
E4
E0
1F
08
DA
0A
20
07
C8
F6
0C
FC
D6
45
26
FB
D1
5A
F2
1C
FF
FD
DD
D9
EE
81
15
E6
07
E5
39
0F
13
B9
D0
A7
FB
45
FB
42
3A
32
B7
F2
32
FA
E0
F6
D0
FB
FB
E5
BA
C9
FF
1A
F1
03
43
10
4A
BF
2B
0A
28
E7
F1
BE
22
2A
01
56
01
F9
2C
21
CB
FD
FF
26
3C
CB
F1
02
53
9C
51
1F
F4
B6
DA
C7
C9
0B
5B
DB
3D
D6
CA
22
39
B7
48
B9
AC
E1
E1
1B
44
1D
F6
24
0B
C2
FF
97
CE
38
42
16
18
DF
F7
43
F9
7F
19
17
AF
23
A8
13
16
24
1E
27
92
D3
F2
C7
DE
07
0C
EF
14
81
F1
FF
33
CD
38
25
09
FE
D4
E2
DA
E3
21
25
29
10
24
26
34
C9
05
D8
E5
0C
DF
FB
38
EF
0F
19
D9
C5
56
EF
E6
18
D8
E8
1F
E4
F9
36
0E
22
0B
02
D5
1B
BB
1A
30
13
05
08
DB
E2
F4
E5
FF
2A
FD
ED
D5
81
F2
DA
49
B1
48
0D
E5
43
FD
FC
EB
F6
EE
F8
38
FA
05
37
24
EC
3E
AB
05
2F
C5
26
34
15
18
BF
17
AF
FA
F8
E9
4E
0F
24
AE
29
30
66
DF
2E
FF
17
EA
EE
CB
E9
58
01
DD
3E
E3
1E
27
18
EE
30
41
13
EF
12
A2
C2
E7
57
11
19
2A
2D
EC
EF
74
F2
EC
59
0B
78
14
29
CC
BF
81
E1
31
2C
17
ED
AF
B7
C9
EC
1D
EC
4E
E0
D3
06
10
68
56
DD
E5
23
A1
F5
1D
1D
06
ED
E7
08
BC
2D
FA
FF
B4
E8
EC
28
08
62
0D
ED
0A
74
18
E5
E4
F2
CD
81
D6
C5
2A
09
B4
C9
51
11
08
9D
FB
9F
F0
12
24
42
14
28
A9
29
2A
20
C8
0C
19
55
ED
FE
08
87
05
3D
FB
5E
38
0B
10
A2
62
4E
19
D3
F8
DF
02
55
0F
17
15
03
1A
29
B1
E0
E2
07
D4
BA
19
F4
0B
E5
24
FA
3F
23
C7
E2
0F
12
9C
A0
D9
35
F7
D8
F1
C6
75
40
9B
95
3B
23
D0
E8
1F
1F
AB
F0
E8
27
3C
0A
81
F9
EA
58
B6
E1
E6
E4
5F
BB
E0
2D
6A
21
A8
2E
2E
D2
2D
32
D6
CE
01
A8
E1
FA
EB
10
F5
EB
F8
E3
0D
F0
76
1B
BE
A1
41
F6
17
CE
27
25
C3
11
F0
D1
E7
F7
2A
21
62
D4
AB
E1
3A
CC
7F
C2
CF
FE
08
AD
B2
F9
F0
29
D8
E9
D1
24
32
9C
41
1A
66
E6
D9
2A
BF
E6
6E
3F
0A
2C
CA
EC
FB
18
03
FE
12
F1
26
2B
E1
72
32
DC
9A
29
3A
FD
F8
81
F6
EE
DE
CE
0B
C1
2F
20
D8
94
64
08
FE
10
06
13
10
04
A0
A3
35
27
DB
F3
EA
4C
DE
C8
E5
1A
2A
D0
D0
16
4F
17
11
C8
F4
BC
D1
4C
F2
1B
0F
06
ED
EF
EB
8E
F9
C5
59
F6
E1
51
F4
0B
96
18
9C
D8
46
22
3C
2E
D8
81
34
FC
47
9F
ED
20
01
B8
7A
FC
63
FA
36
00
0C
EC
9D
0C
A5
22
C5
24
00
54
20
3D
F4
00
AA
35
ED
2A
FA
D7
3A
D5
A5
D4
CE
AD
1C
D1
1A
0E
33
1A
40
12
F1
D7
28
E6
04
88
47
13
EF
18
2D
AC
83
D2
F2
FB
41
C0
BD
A8
AF
5D
06
7F
AB
29
A7
A9
33
FB
06
18
4D
ED
2C
F6
03
0A
B9
7E
A3
FD
97
78
FD
CA
B3
03
15
DA
CB
1F
19
97
68
09
D9
DD
FA
36
EB
20
D0
F7
23
3A
20
4D
71
19
94
D3
69
25
9C
EA
4F
38
2D
21
24
B9
41
E4
2D
F0
56
4A
FA
C8
0F
D2
D4
EE
57
05
F6
15
EC
F7
D6
D6
34
9E
D9
E0
54
A4
E2
23
7F
F4
20
0A
B8
DB
21
3E
1C
49
02
F6
D7
3C
D1
28
37
E6
BD
45
2D
FF
DB
9E
B3
D9
20
11
24
F0
AB
D9
09
BC
07
20
A2
28
26
3A
1C
0C
F1
27
2D
E6
FC
09
10
AC
FA
43
09
3B
45
D7
CB
B9
FE
E4
6A
5B
DD
39
30
AE
FB
DB
44
DF
43
D0
7F
32
D7
1E
15
FA
04
FA
1D
F3
E7
DF
3B
B4
FD
8B
04
06
E2
0D
F1
AF
C2
DC
D1
F5
49
1A
BD
DE
BD
40
C7
7F
1E
2E
B4
DB
E2
CE
56
FC
0B
DB
07
23
3E
BB
DD
43
EE
D3
B2
1A
F4
2C
BE
D9
1C
16
F2
DB
62
D9
F9
E4
BE
F8
FE
F9
19
81
02
21
67
C5
1F
6D
EC
27
D3
D5
D0
EE
13
BF
04
EA
28
0C
15
2A
4E
F3
DC
17
EC
D5
49
FC
28
51
02
CB
E2
B9
F0
27
BB
00
E5
1D
FA
55
03
6E
F1
0B
C5
22
F6
1D
35
30
15
15
1E
E8
BF
BB
41
41
F9
0B
E7
DD
0D
F5
97
36
44
9E
D8
C9
04
25
EF
E4
46
BE
B3
F1
15
28
32
EA
81
17
DA
E5
D4
4C
AA
03
E8
D4
D7
AD
5E
D9
FA
EE
06
50
24
BB
EA
07
BA
E6
BD
EB
3E
39
D9
CC
E4
CC
01
30
0B
EA
40
E5
FA
E7
E0
F0
E1
FA
02
2B
C9
E1
1E
8F
19
EE
FB
D4
03
06
E4
C3
5E
46
32
B8
F4
5B
11
5C
DE
81
32
D9
01
99
EC
16
E1
2D
EE
DC
09
B2
43
F7
24
FB
D7
98
2F
3A
E2
BC
24
0E
C4
B0
F7
22
AF
02
3A
5C
F7
3E
25
C6
FD
D7
2C
AF
E1
FE
1F
04
0F
62
39
5C
90
D4
D1
2B
31
2F
32
0C
4C
7F
28
96
49
A7
EE
0F
36
B5
23
1E
42
08
D0
F6
47
35
DE
3D
C0
02
1A
C7
7B
1D
E1
43
F1
98
F8
FC
E1
40
5F
FE
1C
A8
BF
D8
D0
1F
B7
B4
BC
37
89
D9
33
09
BA
B6
E4
C9
1B
6E
AC
08
18
DF
85
9E
1A
24
23
BE
0E
38
6C
1A
E6
81
2B
0F
19
8E
F8
11
FC
F9
07
4F
65
BB
F4
D8
C5
34
D2
A1
07
E8
FB
EB
55
33
1A
E9
9D
62
D0
C7
5A
16
FD
07
64
01
08
06
CD
4E
1A
F6
DD
0E
3D
05
11
92
48
FD
37
05
19
B7
CC
14
46
2B
45
25
85
DC
14
72
FF
32
E0
18
E2
D5
F2
03
7F
ED
FB
EC
D1
64
01
D7
A1
63
A0
5B
BC
ED
00
EF
CC
D6
F5
DB
0C
FD
EC
B6
04
3E
DA
41
F7
D9
CF
44
F4
08
CB
EA
DE
81
D3
D8
31
47
E3
EC
FE
F9
D7
EF
00
D9
30
10
F3
5B
39
19
BD
DB
29
C8
FC
D0
29
F6
1A
25
DD
0D
13
2D
F4
0A
00
0C
FF
E0
0C
3F
29
F7
D1
EA
E8
33
F8
1D
DC
0D
33
0B
06
E2
F8
E4
20
F0
F9
42
D7
17
24
7F
17
A9
10
34
4B
DF
BE
F4
D8
3C
FB
D9
0C
CA
03
3A
1F
E3
33
09
D0
1C
08
D8
DD
37
0E
E1
38
21
06
0F
F9
02
F6
43
F0
41
0D
CB
AA
0F
4C
02
10
FD
1D
F4
9C
1A
DD
3D
04
32
D7
3B
1C
EF
DC
DE
2B
F9
1C
06
1C
FE
CB
EB
02
14
04
32
08
BD
C6
09
BA
06
2C
C7
2F
17
EC
E4
1F
23
3D
DD
DB
E1
08
10
81
1E
0E
14
CC
41
2B
26
36
C5
05
D1
D2
17
D1
30
0C
1A
0D
EC
C0
07
E7
EB
CA
21
A9
36
2F
CD
DC
D2
E9
0D
F9
FF
E8
FC
E3
34
C5
FE
27
21
CA
92
DC
04
ED
18
34
E8
37
33
C6
8B
4F
1D
45
DC
11
B7
13
30
B8
4C
FE
F8
BC
2C
7F
08
36
FA
D4
D5
F5
E0
C2
3F
26
23
33
04
CB
07
CA
EE
FF
B6
EB
EC
F4
BD
15
F3
FA
E5
C1
2D
E4
CC
DE
FE
DA
17
AF
C7
F3
D8
DC
03
32
B8
37
28
A5
A4
7F
16
08
EF
45
21
CD
14
E7
FB
30
20
C5
B8
D7
43
D8
E4
19
25
6B
D4
E7
11
7F
03
BF
F6
F7
CC
DB
39
04
1F
DD
33
FC
D1
D3
4E
1F
E7
87
E2
E5
EE
F2
30
E1
B7
D3
32
21
CF
27
FB
09
A7
12
7F
22
FD
EB
DA
17
E7
1B
E6
EE
23
2D
13
FB
2D
DA
9E
27
08
EA
23
0E
18
F5
12
05
E1
6E
EC
1C
F1
A0
13
FF
32
EE
5A
E7
EA
EC
17
C3
DB
E8
65
B7
F7
9C
3C
DD
81
A2
58
E8
27
1C
D2
02
19
23
0E
20
07
E0
43
1B
26
7A
5C
F9
9B
FF
08
FA
0D
51
40
02
03
14
CC
EA
19
B7
2F
C5
C3
CE
2C
04
35
41
EF
C8
B6
AE
11
FC
28
FE
21
0C
14
C9
BF
CA
E9
B7
10
D9
B6
18
FD
01
E3
4E
78
AF
AC
31
BD
BA
BD
CA
29
DB
58
F0
E0
3C
FC
C0
DD
3A
05
1B
F3
E3
0F
D5
BC
B4
EB
11
0B
C5
FD
A9
E8
E4
96
D6
1F
19
0F
0C
3B
7F
30
B6
40
D5
95
EC
03
03
D0
E9
04
30
CB
21
1F
61
22
20
D4
49
BD
02
BB
64
F2
FF
F4
03
81
C8
BD
40
07
36
01
BC
F7
B3
25
98
74
D9
18
C1
08
D0
DA
59
E4
FF
E6
EA
E9
36
DD
D0
57
B3
DF
FF
F5
F0
17
B3
18
29
06
E2
14
45
9A
3B
2D
F7
3C
23
25
1A
6B
AC
BE
FC
55
C2
29
D0
29
F9
F1
E5
12
03
7F
C6
2A
4C
E4
BD
3E
E6
0A
57
24
DE
F5
C6
45
05
C3
20
FD
E1
C1
C6
2F
EE
4C
02
E9
E3
09
EE
C2
F8
04
F1
F8
07
E7
DA
CE
13
1B
E0
02
EB
D6
EF
EF
53
5B
CE
F0
B7
81
E3
3E
E5
A5
0E
5D
BD
09
79
0F
15
5D
EF
50
E9
0E
C9
0E
B8
0A
2F
DF
58
B7
94
D8
01
FE
52
29
05
0F
B3
2D
D3
25
C6
E8
E9
F7
F1
F9
E6
21
3D
F4
41
0C
85
E8
DE
F3
0D
1E
45
42
93
D3
E6
D6
F2
C5
15
2E
1C
BF
FD
F4
08
FC
D9
18
D7
30
C2
BB
1E
11
D8
BD
F6
EE
57
4D
BC
D7
19
08
02
BB
13
02
01
20
93
18
6C
EC
E7
B7
F2
C6
20
E2
29
B9
4F
AA
00
F3
E0
F5
F9
3F
3C
D3
7F
24
D2
36
9B
31
D6
34
4E
C2
16
2F
78
0D
05
46
F5
41
A2
D7
1D
49
48
D7
48
EB
00
24
ED
0B
7F
FB
D0
F5
DB
D7
FB
F9
5A
CE
C6
0B
F4
C8
BF
23
E2
EE
EB
23
51
47
F7
54
C9
97
E9
3E
D1
30
0B
04
45
25
C7
16
A8
E0
07
F1
45
E0
FD
12
EC
06
FA
4B
D5
10
FD
51
13
F5
50
0C
CC
31
2E
38
72
7F
3E
A6
87
B4
E0
21
CD
0F
A5
00
F0
D3
F3
F8
6C
D7
D5
E0
D0
4E
77
B8
D4
1B
F4
69
A2
56
D2
24
ED
4C
E9
C2
36
09
E6
CC
49
3A
5B
C9
DC
E9
C2
C7
A3
1B
DF
59
37
49
54
13
D0
0B
7F
F7
B7
0B
EB
60
D3
18
E8
A4
F1
10
F6
05
18
BC
20
DE
FF
F1
04
E1
55
BA
F0
DA
BF
05
4F
0B
13
A9
9A
45
52
BF
C0
0D
1C
2B
1A
E0
14
C5
D1
18
DA
22
E3
EC
CC
14
22
44
08
DF
05
FF
4B
EC
CE
DF
04
19
FB
D5
0F
03
E9
AC
40
03
F1
53
26
FB
57
B8
DA
E3
F4
E3
03
48
0F
DC
CB
00
FE
C0
23
EA
07
29
D9
11
D9
02
FF
FC
7F
E6
30
04
BA
31
F7
31
48
FE
5C
2F
6C
A8
5E
01
C0
39
92
B0
F8
56
12
54
47
30
11
BE
63
14
EA
4F
E3
3F
F0
7F
BB
D5
E8
3B
67
11
23
BC
10
48
B0
09
66
E0
07
0C
D3
CE
00
52
F2
F4
DB
C3
9B
4A
C6
0D
31
12
27
0C
9D
CA
EA
F9
13
1C
1E
9A
BD
EF
10
F5
09
E6
18
22
24
1A
00
70
14
03
81
3D
05
E2
A9
A7
27
D6
A5
02
F2
B1
62
0C
08
87
40
F2
10
D9
F2
10
1D
F3
C0
DF
2E
28
B2
D9
0B
1F
12
C2
0B
1F
7D
05
DE
1B
24
EA
2A
E3
F4
BD
D3
38
C9
25
2A
5A
26
13
F1
2B
F6
D7
97
60
40
FA
D4
D8
28
46
E3
C1
32
C0
2B
08
67
D3
39
DA
81
03
4A
20
D2
5F
D8
3E
11
85
5E
FF
75
D9
12
B1
BF
6A
1B
DF
88
5A
C1
16
E3
52
E4
26
B6
C4
2D
AB
F1
15
29
BE
35
F9
17
12
36
D1
CD
EA
CE
02
03
57
EB
45
1C
39
DD
07
7E
F0
CC
3B
01
7F
09
56
13
C1
C1
0B
04
E3
1E
2E
09
EA
0A
09
0F
E2
21
CB
C2
13
F1
5F
62
DA
DD
1D
AD
2E
3E
FE
9A
1E
05
1D
B6
E1
23
D1
AF
18
FC
F8
C7
6F
06
ED
D8
73
C7
B7
D5
64
07
AE
98
DF
66
7F
D5
1E
1B
4D
2F
B2
60
DA
C1
40
AF
1A
31
28
DA
E5
16
D5
E9
F6
02
1D
F0
E6
D8
E4
EA
3E
91
38
DB
DF
55
94
BE
07
35
BC
06
EA
C2
D5
28
1B
9A
DB
68
E2
ED
E8
20
23
FC
34
A6
E7
06
42
4E
E1
22
2E
FB
1D
6C
F8
DE
0D
E6
45
1A
63
EF
CA
81
06
DA
32
FD
0B
EA
21
0C
91
59
CF
64
A7
D0
33
32
66
0B
A8
FA
42
C5
F6
09
50
FC
C9
BC
1B
14
3D
CA
FC
0D
15
2C
35
FF
F3
4F
D7
47
81
33
FD
22
C2
5C
3E
08
C5
F2
E6
D7
CF
14
D1
F6
15
2D
42
44
1B
C9
83
AA
1B
EE
E5
24
E6
D5
11
C6
A7
1A
FF
DE
39
DB
FD
0D
D7
0F
3E
C9
7B
18
26
FB
18
8F
32
16
1A
0D
F7
0C
D9
13
CB
D0
CC
F2
E8
17
09
20
31
F1
9B
F6
D5
19
E5
FE
D0
F5
4F
BC
A9
21
E0
F5
0C
E2
06
0E
17
06
81
10
F6
F2
DA
EF
54
2D
16
06
14
08
A3
2C
D8
F2
F5
D4
C2
0C
2A
43
0E
32
F3
F8
14
B7
33
DC
38
2B
33
E6
DD
