memory_initialization_radix=16;
memory_initialization_vector=
00040002FFFB0009FFFA000CFFE900190019FFFA00190005FFE8FFFF00150006,
000700240009FFEF000A000B0011000A0007FFFE0015000A001900130016FFF7,
000C000F00140006FFD90026FFFC001A0032FFF50027001600130003001DFFEC,
0009FFDCFFE6001DFFF3FFF8FFEEFFF70010000DFFDF0000000D000CFFF8FFEB,
0014FFF0FFF4000A000FFFF6FFFEFFFAFFE700120006FFF0FFF9FFEA000FFFF4,
000B00110005FFFA0012002B00290006FFF9FFDE0016FFE90009FFF6FFE9FFEE,
001600010020FFF0FFEC0013FFE3FFF20029000600320016FFE8FFE500180011,
FFECFFBAFFDB002C00160004000AFFF30001000AFFDFFFEF0029FFE800070017,
0021000300040002FFFA001BFFE700100035FFF100070006000A00120010FFE9,
001DFFE50019000E00100011FFED0012000C0019000CFFF1001EFFE9000BFFF5,
0001FFD6000A001EFFF2FFF10009FFFB00160015FFEC000F00090011002B0007,
0017FFF10017001E0029002400310001000600040003FFFF00130012FFF20017,
0003FFF4FFF0FFF00005FFEF00290006FFE60012FFDCFFF5000EFFFAFFEAFFF7,
001EFFE9000AFFF0FFF6002FFFE80008000BFFFC002CFFEC0004FFF1FFFFFFEA,
000300320012FFDFFFDD0021000000170036FFFB0032FFE8FFF0FFEA0008FFFC,
00250001FFEC0028FFFDFFED00230002FFE9001A0013FFE60018FFE9000FFFE6,
00260018001FFFF30014FFF20005FFFD0029001D0023000100200002FFFCFFEE,
0034FFF3002BFFF100010001001200040013FFE10005FFF00029FFF4FFFE0004,
0004FFD2FFCF0011001CFFF1001BFFF9FFEB000FFFDDFFEE002AFFE90026FFF2,
FFF1001200060013002100180001001AFFF5FFECFFE4FFED0026FFFF0004FFFE,
0007FFF0FFFE000C001C00090018FFE8FFE1001CFFF90017FFEB0015FFF2FFF8,
0013FFE100010023002400090008FFE5FFE5FFFE001AFFF1002DFFFFFFFFFFF3,
000CFFFB0024FFFD001EFFE90007FFEA002C0003000FFFEC00110002000C0000,
001AFFEC002AFFF9000EFFEB0006FFFA001A000C00200002FFEFFFFEFFFBFFE9,
00050034002600020004000AFFF600140025000F001AFFEFFFFE00140005FFF6,
0003FFFD0013FFDEFFDA0022FFE9FFFD00310014002A0008FFF0FFEC00030004,
FFF8FFFAFFFE0006FFFFFFE3001BFFFCFFDE0017FFE1FFFF0013FFF70000000C,
FFEFFFF7000000070025FFFD001DFFEDFFD40013FFD9FFE800210008001D0004,
00220012FFFD0014000000020010FFFB0028000400210009000000180023FFED,
0007FFC0FFEC0011000F00100012FFF9FFF9FFE2FFFEFFEC001D000C001B000C,
0009000C0018FFE1FFEC0002FFDFFFFC0024FFF70027FFEE000500170026FFF3,
00230012002EFFEF001800070014FFFA000FFFE5FFF6000B0027FFFF0014FFF3,
FFDA0042FFF5FFF0FFE60019FFE70003000B0023FFFAFFF9FFDAFFE8FFFE0014,
FFF4003E0022FFE600110016001800110009001100090009FFDB0015FFF5FFF7,
FFD9001C00180012000300060015000CFFE20007FFDD000DFFE5000DFFDD0001,
FFFCFFF6000F000C000DFFFE0020FFFBFFE0FFF8FFEC000D0015FFF6FFFFFFFC,
0021FFEC0018000CFFEE0003FFECFFFF00060008001BFFF4000A001500280007,
001B0025FFFBFFECFFF7001DFFFB000300220003000AFFE7FFF1FFEE001F0013,
0026FFF40008FFEE001FFFFAFFF300040017FFFD00120004FFFDFFF20015FFF8,
000800230014FFFDFFEA00100015FFEDFFFE000AFFE4000F00000009FFEFFFF2,
FFD300120014000B001200280011FFF5FFD1000BFFF2FFEFFFDBFFE6FFD80011,
0024FFDB0001002B0027000D0013FFFEFFF10004000AFFF7001DFFFEFFFFFFF2,
FFF7002A0010FFE3FFE3001BFFE500160003FFEBFFECFFEAFFF4FFEC0009FFEE,
00020025FFFE001400010020FFE9000EFFDEFFEBFFF7FFFAFFF5FFECFFE5FFF3,
001CFFBE000D000700080008000AFFE5FFF60000FFE60011001A0007FFFCFFE5,
FFF40029FFF0FFE5001E001F00170011FFED000CFFFDFFEEFFF4000500010014,
FFEEFFFDFFD500180002000DFFFD000D001B000DFFD60019001700170020FFE6,
FFD80037FFE4FFDF0004FFFEFFF4FFF4FFF5001DFFE80005FFDA0006FFE4000E,
0019000E00020001FFEFFFE6001000160023001D002400190014FFFD00120007,
FFEB0036FFF4FFFFFFFD000E0008FFF5FFDC0009FFE0000AFFE2FFF6FFE6FFE6,
000C00180024FFEE0023FFF3FFFE000DFFF2FFF200290014FFF2000D0021FFEA,
0009FFE4001300050020FFE7001FFFEA0006FFFC001DFFF90018FFEC0007FFED,
000B001C0033FFE8FFE90026FFDD000B002D000500380003FFF7FFF000130008,
FFDF000F0016FFF60012002C0003FFF7FFE1FFF7000B0010FFFEFFE7FFDE0002,
0007002DFFFAFFE00012001DFFF9FFEFFFD20011FFDBFFEFFFEF000FFFE5FFFA,
0005002900100005FFFD002800170007FFEAFFFBFFE200120000FFE6FFE3FFF6,
001AFFE70028FFE9FFF80005000EFFFC001C000E00280000001C0011001CFFF8,
000E00260022FFF0FFDE0029FFF800080032FFF90023001600050002FFEDFFEA,
001DFFBCFFDC001E002700100026000FFFEEFFE0FFFAFFF900330006000F0014,
FFDAFFD2FFE50001FFE5FFF80000FFEE0003002E00050006FFEC000200090014,
0009FFE9FFFF00180020000A000CFFF3FFDCFFEDFFCFFFF600260008000D0017,
FFEC0042FFF3FFD9000B001DFFF5FFF4FFE1FFF6FFF0FFF0FFDDFFEEFFEFFFEC,
000FFFF00026FFFD000A001F00060015001EFFE3002300160010000100040001,
FFE9FFD6FFD70021001AFFE20001FFE9FFF00026FFFA001AFFF6FFE600120011,
0016FFFE0012000300010011FFEB001700100000FFFEFFF7000900020027FFFC,
002AFFE90002FFF0FFF300210018FFF3FFFEFFDF0019FFE90002FFE7001A0012,
FFF800390021000C0009002E000DFFF60000000BFFE9FFEC00040009FFE6000C,
0008000C002F000F001CFFEDFFFAFFED0026FFFE001C00100023000C0016000F,
FFF1FFD7FFF5FFFD0002FFFE000800160010000DFFEC0016FFFD000D001EFFFB,
FFD9001A00040014000800110008000BFFEE001FFFCF000900030004FFDEFFF9,
001FFFBBFFEA002EFFFC0008FFF1FFF4FFF6FFF7FFE3000AFFFDFFF50023FFF7,
0015FFFA001C0008FFEE000B0019FFE90024FFE80034FFF0001BFFED000D000D,
001100110025FFD8FFE80017FFFAFFF6002000200024FFFF00030016001BFFF7,
0004FFE8FFF400290019000B0029FFF0FFD0FFE9FFF4FFF900230004001CFFE5,
FFDC0020FFF0FFEBFFE10027FFEBFFE90007FFF9FFF00017FFDBFFE4FFF5FFF6,
FFDC0037FFF8FFFBFFF90027FFEEFFEC0003FFFF0006FFFCFFE1FFEC00000002,
000AFFB9FFCD000C0022FFE10016FFE9FFFB0007FFCFFFF9002CFFF00003FFFE,
000DFFE500030014FFEA001DFFF5FFF5FFF70017FFE7FFECFFF0FFF60010FFF6,
FFF5FFDEFFE8FFFA0006FFE1FFE6FFFC002400290004001A0004000D001C000A,
FFF5FFBCFFFE00230005FFDF001E000AFFEAFFF7FFF9FFEC000100080029FFF8,
002000190021FFEE002100260006FFF30025FFE00014FFF90015000A000A0012,
0007002B00130000001EFFE0FFF5FFFF001000120027FFEA0009FFE60009FFF4,
FFF0FFE4002000160012FFDA00000010000D001D0026FFEA0004FFEC001EFFFA,
0003FFCCFFE1001CFFF8001AFFE8000F001F0005FFF8FFEE000DFFE6001B0015,
FFF2002AFFF2FFF70007FFF900070013FFD7000BFFFDFFF4000A0001FFE10013,
0003FFEB000D0000002AFFEA001500170018FFF500100008002A000A001E0014,
FFE6FFDEFFF1001F001BFFDD00190006FFCD0008FFEAFFF20003FFEC00150018,
FFFDFFF3FFEF000E00010023FFF10006002A000AFFFF0007FFFC0002FFF40000,
FFF3FFF3FFF400200013000A0013FFF5FFFE000A00010006FFF4FFE70001FFEB,
FFF8FFFEFFCC002B000F00100027000EFFF2FFF0FFE0FFF00005FFF8000BFFFA,
00220022002EFFE5001DFFF7FFF100150027FFF90029FFED0014FFFA001A0016,
000DFFFBFFFA00190008FFF3002AFFECFFE0001FFFFFFFE9FFEEFFEDFFFA000B,
0005FFFA0024FFF7000B000DFFF8FFE7002400080034000FFFF9FFFB00050001,
0023FFFE000A000B00130005FFFA00160007001F001BFFF9001BFFF800240006,
00000023FFFBFFF500090017000B000CFFDBFFE4FFD7FFEEFFF1FFFEFFF70014,
FFE0FFE2FFE20006000A000AFFDDFFEC00100004FFF4FFFCFFEA000EFFF7FFEA,
0003FFF0001CFFFEFFEF00030014000D0012001B000FFFF3FFEF0002FFF0FFFB,
FFF7FFECFFF6FFF6000B000B000E0019FFEA001CFFF30027002DFFE90007FFF0,
FFEA001500120011FFE40032FFF1FFF700300009FFF0002700150014FFE6002A,
FFF5FFF1FFF5000B0032FFFC001E000500010029FFEE001D000E0009FFFB0003,
FFFDFFFB0008FFFD002DFFE40013001000040022FFF4002A001BFFEDFFFAFFE8,
FFFB0005FFF6FFE6FFEEFFED0002FFFEFFEF00000007FFD2FFF80015FFECFFF7,
0017FFEF0005FFE6FFF9002A0011FFE80038FFD600020002FFD8FFDEFFEF0034,
0001FFE7FFF0000B0017000CFFF4FFFDFFE70004001A0024000F001AFFF1FFF9,
0012FFEB000A0012001EFFF3000B002CFFFC0015001D000CFFFCFFE90010FFE5,
FFF90004000E0003FFFE0023FFD8000CFFF7000D000700110013000CFFEF0022,
FFE5FFE6FFF8FFED0014000800210004000500260019002F0013FFF5FFEB0005,
000F00000001FFFE002AFFEC0016001EFFDC002D0017FFEE000F0004FFEE000A,
0017FFF100170015FFCF0021001A001700140001FFE0FFF0FFD0000B000F0020,
FFF2FFF900170008FFE20019FFFBFFF40030FFE0FFFBFFF8FFF8FFEC00050028,
000E000BFFEA0015001DFFFB00020003FFF50015FFEB00290026FFEFFFFC0007,
001500090011FFF2002F0018000DFFF3FFEA0003FFF90023000700030007FFFB,
0013FFF9FFF40001FFDC0019FFF8FFFA0023FFD600040002FFEA0015FFF9FFF2,
FFE7000BFFF0FFF9FFF6FFF4FFF10018FFFEFFF10011FFFBFFE000290000FFF3,
FFEEFFF1FFFAFFEB000C0008FFED001E00260002FFF700290002000E0010002A,
FFE7FFE5FFF100030018FFF5002D001D001600110008FFF8FFFDFFEEFFFEFFDF,
00170011FFE8FFF0FFDF00160013FFEF000EFFD3FFD30016FFF2000400040020,
FFEB0006FFF90004FFF6000B00170021FFF70001FFFDFFF30004000E0005FFE1,
FFF7FFF7FFEDFFFFFFD60001FFFEFFFF0024FFDD0008FFDBFFD9001CFFFDFFF4,
00040014FFF6FFFDFFE7FFF6FFFB0011FFF100150022FFF5FFF2000D000E0007,
0011FFF6FFE6FFFAFFD80010FFD10011FFF2FFF00011FFF0FFE8000EFFEF0013,
FFE50014000BFFED001C0008FFDF000F00090004FFF3FFEAFFF700210014FFF8,
00050006FFF5FFEF0019001AFFE8FFEAFFFB0017FFF700100003000D00060013,
FFE7FFF7FFE8FFFEFFD5FFE5FFECFFFF0010FFE2001EFFD3FFFA000DFFFCFFFB,
00070006FFF80006FFFCFFF6002A0023002F000F0003FFF4FFEE0011FFF6FFDE,
0014FFFCFFF6FFEE0010FFEF0011001A0000001B0008FFFC0015FFFAFFF2FFEF,
00050012FFF2FFE90021FFF6001700080010002400150022001FFFEA0015FFFF,
FFE6FFF30013FFF1002FFFF6000BFFFAFFE70010000E00180011FFF200020009,
FFF1FFEDFFF20006FFCC0028000A0003000EFFD6FFD9FFFAFFF4FFF4FFFE001B,
0016FFF6FFEA0019000DFFF4FFF6FFF9000F0019FFEC0010FFFBFFE2FFFCFFF1,
0016FFE700110015000900090000FFE9FFF0000800120004FFFEFFFE0005FFE9,
FFF0FFEFFFF4FFF200120011FFF7FFFA000E000BFFF0FFF70013FFF40015FFFE,
FFFB0010FFECFFF0FFF7001FFFFB0014001FFFD0FFE1FFF4FFF9FFFDFFFF0009,
FFF50008000A00130017FFE000000018FFEC0013001300060014FFFAFFECFFED,
00120005000D00000011001D000BFFE5FFEC0006000F002D002F0004FFFC000A,
FFF10014FFE50002FFEF0017FFE70006FFF800090019FFFBFFE8FFF800000020,
FFEDFFEA000B0017FFEF000DFFFCFFE1FFFB00100013001B001AFFD90011FFEB,
FFF40006000DFFEE000F00040014FFF20029FFE5000BFFE8FFFEFFF00011FFEA,
000AFFE80001FFEE000AFFFB0034001E0024FFE60009000500130014FFEAFFFC,
0001000A00050000FFFE0014001A0007000FFFFC0007002B002DFFDD00130012,
000EFFE7FFEBFFF40010000F0008FFECFFF60004FFF3000C001EFFFBFFFF0006,
00020018000000180011FFE8002200060005001E000D001200020010FFE5FFF1,
00050003FFEFFFF2FFE5000DFFF0FFFF0033FFEBFFE2FFFFFFFDFFCDFFED0037,
FFE5FFF0FFE5000D0026FFE80030FFF9FFEC001600130023001DFFD7FFF4FFDC,
000A00040007FFECFFF500060009FFDF0018000A0014FFFEFFFF000CFFE4FFEB,
FFF3000FFFF0000000010007FFFD000B0001FFEE000E0003FFEE0025FFFCFFEE,
FFF8FFF1FFEF00000005FFE9FFFDFFE10018FFFB000AFFF8FFF7FFFEFFF60018,
00180007FFF10003FFD6000FFFD1000B0003FFEB001EFFDEFFE80010000D0009,
FFE9FFE5FFFEFFFEFFFBFFE50015000DFFE9FFE90003FFEDFFFF0028FFE8FFE7,
0017FFEFFFE5000600010022FFECFFEDFFFE0012001400280007001600030017,
FFF7FFFFFFE5FFF9FFFD002CFFFBFFDC002DFFE1FFE10012FFEDFFE1FFF00017,
FFE7000A000BFFE9FFEC001BFFE9FFE50023FFD5FFE80015FFDCFFFCFFE80024,
FFF5FFF3000DFFFBFFF3001BFFF8000E00230004000F0003FFEDFFFD00100030,
00060014000FFFF3FFF20002FFDD001DFFF2FFD9000EFFF0FFD8002BFFF9FFFE,
FFECFFE9FFF0000F0017001CFFE8FFE6FFEC002CFFFC002A002800090014001A,
FFF8000A000200100025FFF2001B0012000CFFF90013FFFF0015FFF8FFFAFFFC,
00090003000B00090024FFE0FFFA0004FFD5000CFFFBFFEE0006FFF1FFE4FFD9,
0002FFF0000A0009FFF7FFFA002C00230018FFF200000000FFFCFFE4FFFCFFE6,
FFF600130015FFFD00130022FFFBFFDAFFFBFFF8000D000700180010FFEBFFF0,
0003FFEF00000009FFEC0029FFF700140036FFEAFFD5000EFFE10008FFE90012,
000D0014FFFEFFEAFFF8FFF3002E001FFFE80004001FFFECFFF2FFF40014FFE7,
0012FFEDFFE6FFF90021FFDDFFFC0021FFE8000D0016FFEEFFF70019000E0006,
0015000F0018FFEFFFE40030000C000F0038FFF2FFE70001FFEFFFF2FFEA0010,
00160002000DFFFA000F001FFFF7FFE20005FFF8FFF2FFFB0011FFFFFFF9FFEF,
FFF1FFEAFFE8FFFAFFE00024FFD4FFFEFFFFFFFBFFEDFFFCFFE20021000E001E,
0017FFFDFFE4FFEF0029FFF300100016FFF0000E001D00180019FFF2FFFA0011,
FFF0FFF2FFF5FFE7FFF60007FFEE00080021FFE6FFFAFFF9FFE600070015FFEB,
0000FFE9FFFFFFFC00230005002C0027FFFEFFFF001F001B0032FFDA0014FFE8,
FFF1FFF2FFF0FFEAFFE1000FFFE0001A00200002FFE3FFF100180013FFEC0008,
0001FFE8FFF4001100110006FFE3FFF6FFF70024001C0007001D0013000F000C,
0018000D0014FFEEFFF9FFFCFFFDFFFB0017FFD6FFF5FFDDFFF8FFF20012FFF1,
0013FFF7FFF300020013FFFCFFFBFFE4FFFD0012000A0004000100060007FFE0,
FFFAFFFEFFFFFFEB0012FFF8FFF6FFE80020FFEB0004FFF60029FFDF000A0007,
FFF3FFEA000900000002FFF8002E001E00020010000F0012000FFFF7FFEB0009,
FFF70010FFFDFFE8002BFFF800250005000A001FFFF9FFFE002000050005FFDD,
0014FFEBFFE40010001FFFF100060009FFEF0024FFFE0012001500170012FFE3,
FFEDFFF3FFEE000B0013FFDD00140028000800110002FFF8000AFFE4FFE9FFF9,
FFFE0003FFE80002FFF1003AFFDD0011001FFFFCFFF00021FFFFFFED0006001E,
0001FFE5000A000FFFECFFF7FFEDFFEFFFE00001FFF7FFEBFFE2001C0012FFE3,
0005FFE700070012FFE9FFE2FFDE000EFFEA000E0016FFFAFFFE0023000FFFF1,
FFF6000DFFE90016002100130039FFF8000F002CFFED002B001FFFF7FFE9FFF6,
FFF40003FFFDFFED00090009001700040026FFE5FFFD0003FFF70000FFF7000B,
FFF30010FFE7FFFFFFD30002FFDB0011FFF8FFDB00200002FFE5002BFFFD0027,
00060015FFF5FFFD0001FFE8FFF9000A001F0007000BFFEDFFFC0017FFEAFFD6,
FFF6FFF1FFF7000600190013000EFFF6FFE5002CFFF800120022FFF8FFED000E,
FFF40009000FFFECFFF9FFE30019000EFFFD001B001EFFED000E000BFFF1FFE9,
FFF4FFEF0013FFE80011FFEF0033000500270006001700060000FFF10012FFE3,
FFE5000CFFE5FFFFFFEF00220005001400010005FFF8FFECFFEF001CFFED0005,
0015000EFFF4000CFFEE0008000CFFFB001AFFFF0016FFE4FFF100070008FFE9,
FFFB0000FFEEFFF80016FFE8FFDE0015FFF3FFFDFFFAFFE6001A0011FFE5000E,
000DFFF0FFE7FFE7FFDBFFF0FFEC00010008FFD2FFFFFFD9FFF8001AFFEA0001,
FFF9FFF4FFFEFFFCFFD60030FFF20002003BFFF0FFDA0027FFEAFFDC000D000B,
000AFFEB0014FFF2001A00110004FFEFFFF800280008001F0030FFEEFFE9FFDD,
FFF600150015FFFFFFFFFFF200060017000A0015FFF600180008FFF90005FFE8,
FFD2FFF20006FFEF000100280020000A0011FFFAFFF4000C0002001300280020,
FFDBFFEEFFE00010FFDF000CFFE3FFE50024FFFDFFF4FFEAFFE4002A0011000F,
FFDB0013000F00110024000B00060004002EFFF5FFEC00110007FFF80028002B,
FFF5000D001F000CFFF5FFFF002B000D0002000EFFFFFFD8FFF800090028FFE1,
00130003FFE50017002DFFF8FFF20011FFD8000C00250017FFEAFFF7FFF3FFFD,
00120005FFFE000EFFD1FFFCFFE4FFDA000400130022FFFBFFFA0022FFF70021,
FFD1FFE50007FFF9001C0022FFE5001800190011FFFD00100017001900230021,
FFFCFFF80032000900010003001EFFF5FFDA000DFFF9FFEA0014FFD10008FFE4,
FFFF0015FFF6FFEC001B0029FFF9FFF20024FFE8FFE8FFEDFFF0001C00040030,
FFDFFFE70026FFE80004000D0017000000290012FFEDFFF9000BFFFC00220004,
FFEAFFEAFFF9000C0017002A001C0010FFFF00160010000D0016FFEB002A000A,
00010003FFFB000AFFDAFFFB0002FFF7FFEAFFFB001EFFED0007002D0015FFFA,
0012FFF20003000FFFDEFFF1FFF50008FFE7FFF9000F00160001FFF3FFD0FFE4,
FFE400130007FFEE000900170010FFF1002BFFF7000000050015001A0025001D,
FFD1FFF4FFEE0019001F00220003FFF30028FFF0FFCF001DFFF7003000220025,
001C000EFFFC0002FFEB0009FFE5FFFFFFE40004001FFFF70004FFFBFFFBFFFE,
000F0000FFD40000001C0003FFF30010FFE2FFF1FFEF001E00030019FFFEFFEA,
FFE2000AFFEFFFF0FFF7FFF90008FFED002C000200130008FFE500280013000C,
FFED00140035FFEAFFD5FFF5000BFFDE000AFFF3002DFFD50001FFDB0022FFE3,
FFF9000EFFFA0000FFE3FFF8FFEDFFD00019FFFC001E0008FFEC000CFFFDFFE8,
000E0000FFEDFFF0000DFFEF0012001BFFD8000200230001FFE7FFF2FFD0FFE5,
0007FFED00080001FFDAFFD5FFFBFFFDFFF8000C0031FFFE0006FFF8FFE1FFF2,
FFFDFFF5FFE9FFFE0014002BFFF20003FFF4FFF7FFEAFFFAFFE900000004000C,
0008FFF6FFDEFFF9000C000DFFFE0003FFE60004000000210015000FFFFAFFEC,
FFFAFFFEFFE7FFEA0017000DFFEB000C0015FFFCFFEC0019FFF7001C000D0024,
FFE9FFEEFFFDFFF400270005FFE30013000BFFECFFE90022FFF2002700200026,
0021000BFFFAFFE9FFF1FFEF00120024FFE100020032FFFBFFECFFD6FFFAFFE8,
0012FFF30001FFE8FFD3FFE8000D0005FFE60014002BFFF70013FFEFFFF7FFD7,
FFFEFFEBFFE6FFFE00250019000B0006001300120001000300060011001F0014,
FFFBFFF9003AFFE6FFE7FFE30016FFFCFFF7FFEE0028FFFBFFF0FFEDFFF7FFCE,
FFE30000FFE50007001F001AFFEE0004002C0003FFE00014FFF6001D002A0009,
000CFFFBFFF2FFF5FFFEFFDBFFEBFFF7001E00130018FFE80015003000100016,
00120013001D00190009FFE70007FFFB001D000C0012001BFFE50007FFDF0013,
001E000CFFE7FFF6001D001DFFD5000BFFFE0018000C002DFFF00022000CFFFE,
0019FFE8FFFD00130004FFD9000CFFEC0007FFEC0003000D000800000007001D,
001FFFF90003FFF2FFFDFFDCFFFFFFF5FFF9FFEF001B0007000F0002FFD90001,
000BFFFC0001FFFFFFFF000BFFFE00140007FFFF00190012FFF2001A00200011,
FFD3FFF0FFF9FFF800050025FFE7000E000BFFE9FFD0000BFFED00220034002D,
FFF8FFFFFFDE0013000FFFEB0002FFF500140002001D000E000D002900270019,
000C0007001E0016000B000200040015002AFFFCFFF100230012001AFFEC0004,
0029000CFFF5FFE9FFE9FFE1FFDE000F0005000100160004FFFBFFE2FFD6FFF5,
FFFAFFFD0002FFFBFFE200050015FFE400010002001CFFDFFFF4FFF00000FFF7,
FFEDFFED001DFFFC0009FFF90005FFF60027FFEDFFE6FFFE0009001900010016,
000BFFE400190006FFF1FFEDFFFEFFF0FFFFFFE8FFFAFFF0FFEBFFE2FFE9FFF7,
FFF5FFF20005FFF7FFF8FFFB0017FFF5FFFAFFF6001BFFF8FFF9FFF6FFFAFFED,
00130002000AFFEEFFD2FFE5FFDEFFFC00160016FFF700060009000F00120005,
00070017002D0012FFF60005001AFFE7001C0005FFEDFFE80015FFE100210013,
00320016000DFFF5002300150010000DFFFBFFF100050012FFFFFFD7FFDCFFFB,
0022000FFFE5000600290011FFEF0013FFEEFFF5FFF9002400120002000F0009,
000C000D0013FFEAFFEF00010004FFF80010FFFDFFF8FFF6FFE9FFDC0007FFF5,
002FFFED0002FFF10006000500080027FFD4FFE700210005000AFFF9FFFE0007,
0021000DFFF500010017FFFFFFE400160003FFF0FFF6000FFFF00001FFE6FFE5,
FFF60000FFE20004000B002DFFE10025002EFFFAFFDD0028FFFE001A0015002C,
000BFFE4FFF30005FFD8FFD5FFD000010022000900260005FFFAFFFAFFF50014,
000EFFFFFFE6000DFFCCFFDAFFD7FFEFFFFFFFF800320008FFFBFFFEFFD5FFF2,
0007FFE6001F0002FFE9FFF6000FFFF6001A000500120012FFF1FFF700120018,
001EFFE7FFE000160006FFF7FFDE001FFFF400180000002AFFEB0022FFE5FFEA,
FFF8FFF90001FFEF002D001FFFE30025001B000FFFED000EFFE5002E00270019,
FFFE00070014FFFEFFD0FFF7002BFFDCFFFC00050005FFDCFFE9FFE00007FFE8,
000BFFF30008000D00080011000C002CFFFA00090011FFFB000CFFDEFFFEFFE0,
0024FFFF00150005FFFDFFF30019FFF3FFE1000D0011FFE5FFECFFE20009FFCD,
0024FFFEFFFCFFF90006FFF0FFD5FFF1002BFFF3000A0021FFF5FFE7FFFC000D,
000C0007FFDEFFEB0013FFFDFFED000F001BFFEE000BFFF70013003600230025,
00040017001EFFEEFFF800030004FFF4FFD5FFFFFFF6FFFF0005FFCB0004FFF4,
FFFBFFEBFFEEFFF10029000FFFFE00020007FFF3FFEEFFF90015001D002B0003,
FFE4FFEEFFE1FFF8FFF1FFE5FFD6FFEB00100017001BFFE90017003200030013,
0015FFEDFFF20016FFF3000EFFFF0014000100020004001B000BFFEA00040018,
0014FFECFFFEFFF4FFF7000BFFF8001EFFF3FFE70009FFFB000D00320011FFF9,
FFF2FFE5FFFCFFF20016FFFF0023FFF20021FFF3FFE7FFEDFFEA0006002C0013,
002DFFF2FFF7FFF3FFF4FFEAFFEB0010FFE6FFF6002F0001FFF3FFE0FFD3FFFA,
FFE8FFED0033FFF1FFED00090009FFE40010FFFAFFF0FFDEFFE7FFE40031FFE1,
FFEEFFE6FFFFFFF00006000FFFFA00060025FFF0FFEA0005FFF8000E0001000F,
FFF0FFFB0003FFFB00150013000D000F0026FFF0FFE20011000E000200340029,
002D00050017FFFCFFF1FFF8FFF50010FFF000010029FFFBFFFBFFFCFFE8FFCE,
0005000C0029FFE7FFF4FFFD0010000B000E0002FFF60012FFFEFFE6FFF0001C,
00070007000800120026FFEDFFF40015FFFEFFFE00000025FFE80001FFE80001,
FFE8FFF30021FFEDFFDA0001000CFFF4000800050018FFCF00040003FFFAFFE6,
FFDFFFF5001AFFF7FFFC000D001B000BFFFCFFE80003000E0010FFE700110023,
00040006FFF400140006FFFF001C002BFFF50003FFED001000040003000D0003,
000FFFEE003100050005FFE7001DFFE4FFEFFFF7001FFFF7FFF2FFD2000DFFED,
FFECFFE400010011FFE80006FFD6FFEEFFF80014001FFFF30009002500200027,
002E0013FFFEFFEC00350018FFFD0025FFF800070009002CFFFD000CFFE60003,
0008000CFFF80003002B0006000F002D0006FFF600050023000D000BFFFAFFF4,
FFE0FFEB0034FFFBFFF2FFF8001FFFDE00180004000DFFD30010FFF7002CFFFA,
FFFEFFFBFFFDFFE90006FFD00002FFFCFFFAFFFF001D000CFFF0FFF5FFE3FFFF,
FFFB0009FFD300130013FFF00002000FFFF2FFFDFFFAFFF40002001EFFF1FFE5,
0026FFFBFFF70002FFE4FFEAFFFA000DFFD1FFE600120010FFF6FFCFFFD9FFE6,
00030004000F00080018001600130000001D00040002000BFFF700160017FFFF,
0009FFEE0013FFECFFEC000000160012FFF50001FFFAFFFCFFE5000A0004FFEE,
000CFFED0036FFE8FFDFFFD0001EFFDAFFE2FFF9002D00040016FFE8FFE4FFF2,
FFEFFFF5FFD6FFF8001D001EFFF00013FFF6FFECFFF8001000070029FFFB0010,
00340017001400170007000E000B000CFFD8000400200001FFFC0016FFE4FFE7,
FFF80017FFF300190002FFFE0002FFFB000C000EFFF30004FFEA0024000D0008,
00090007FFDD001900030008000AFFFAFFD6001300110000FFF10022FFF70005,
FFF7FFF5FFE4FFF6FFE9FFD2FFD3FFF2000DFFFA0018000A0008FFFAFFE9001E,
FFEA000A00090008001900020008000300270017FFF9FFF60009FFF8000A000B,
000FFFEAFFF9FFE7FFFAFFEF0012000F0009FFEC000C0018FFEC0021FFF20013,
FFF4001BFFEDFFDC00220009001BFFE2FFFAFFFFFFE9FFFC000D001700080004,
00030018001EFFEFFFF9000E0017FFFD00070014001EFFEEFFECFFF9FFD9FFFB,
FFD60010FFE8FFDD0016FFFE0009FFFEFFEF0001FFED000CFFEDFFEA0006FFEC,
0001FFFA0005FFDB00270010000DFFEBFFE30008FFFEFFF6FFFBFFFE00240009,
0028FFF000220020FFE10013FFE50011FFFB0001001B00020006FFE40023FFF5,
FFFD0018FFF40007FFDEFFF6FFF00018FFF9FFEB000DFFEE000E000FFFD50000,
FFDB0015FFE7FFF4FFE90010000CFFEA00040035FFFFFFF5FFEBFFE8FFDCFFDE,
00000014000800120017FFF9FFF300250011FFF4001500010008FFF1002A0020,
FFF700210003FFEF0013FFE8002BFFF6FFEA0027FFEB0004FFEF0003FFF90000,
0002001EFFFFFFD400140001FFF4FFD5FFFC0025FFEEFFF10011FFF800120000,
0005FFF2FFF4000CFFFF0005FFF2FFF2FFFB001E0015FFF9FFF700150013FFFF,
001AFFDE00370001FFD2000C0004002B0010000A000F0006FFFE0007FFD7FFFC,
0016000FFFFD001B0014FFFBFFE9000DFFFBFFF000000006FFE5FFF10012FFF0,
FFE90012FFF4FFEA0001FFF60011FFF5FFF4000A001600020000FFF7FFE8FFFF,
FFE90018FFEFFFEB000CFFF2002EFFDD0010000B0006FFEF0006FFF3FFE7FFFC,
002DFFEF00040009FFE4FFE4FFF30010FFECFFF900240017000AFFE5001AFFEB,
000FFFED000A0024FFDAFFEAFFF8FFFCFFE60027000DFFF600130004001EFFE6,
000E001C001EFFFC0006FFF10011FFFEFFE30018001CFFF10007FFE4FFF2FFFF,
000300150031FFEB0027FFF6FFF4003100090003000A0016FFE9FFE800230017,
001600120026FFECFFE00001001400260013FFF10028FFF00012FFE5FFD6000E,
0027FFF6FFFB001400080006FFF7002AFFE8FFE7001DFFE6FFEDFFF00026FFEB,
FFFFFFF7002A001BFFFF000FFFD3001FFFE7000D0032000AFFF30013FFF60004,
000EFFDF00170017FFEBFFFBFFFDFFE0FFFF0035FFF9FFF9FFF500060011FFDF,
0006FFFE000D001AFFE1FFF8FFF3FFEFFFFA00040029000D000000160009FFFD,
0016FFE8FFF1000EFFE5FFF20015FFD9FFED00190001FFE9FFEEFFFEFFF60001,
FFEE0002FFDCFFECFFE90007000DFFEEFFF2000C000F0001FFF70011FFDE0004,
002F0008001B0011FFFFFFEFFFD50028FFFB000A00200000FFF5FFEF0006FFFD,
0006FFF4002B001A001C00130001002B0003FFF90005FFFF000D0006FFFC0013,
001A001CFFFDFFFBFFE30008001EFFE700160011001CFFF0FFEEFFF8000C0009,
001100020004FFDB0014FFEDFFD7001AFFEFFFE60019FFF60014FFE500290013,
FFEA0028FFDDFFF0000FFFF30010FFCF00060031FFFB000AFFFE001100100014,
001FFFEA000D0012FFFC0005000F0028FFF4FFFD000BFFFEFFFBFFECFFF80005,
FFF70028FFFBFFF6001CFFE8001200140006FFE5FFE3FFF90009FFF2FFF3001C,
0009FFF8FFF8001E0008FFEB00240011FFF8FFF1FFFC0003FFF0FFFFFFFFFFED,
000A000DFFFD00150016FFFC0022002E000EFFEFFFDAFFECFFEFFFE8FFD6FFFB,
0000FFE0001A0019FFDAFFF500010008FFF30005FFF9FFFCFFEE0001FFE30010,
0011000400040011FFFEFFE5FFEEFFFCFFF3000C0011FFEB000EFFEC000C0003,
FFE90007FFDEFFF1000CFFF8002EFFDEFFEB002D0009FFF6FFE3FFE7FFF10017,
0008FFF3000EFFF7FFDC000EFFF60007FFEF00160018FFEAFFED0000000B0003,
FFF30027FFE000020020FFF90001FFF9FFF8FFD7FFE8000E00070008FFEC0003,
FFEB0023FFF5002E00080001FFF80010FFE4FFF3FFD8FFFEFFE6FFE5FFF7FFEC,
000FFFE3001C000E000FFFF0FFD4002F0010FFFD001DFFE70008FFE40020000A,
000A0009000F000C0024FFEA000D0017FFEEFFEFFFEC00030016FFE7FFE20014,
FFE70017FFF7FFEA00280005000A000BFFF00009FFEDFFF300000002000F000E,
0008FFEA0003FFEDFFEBFFF4FFFF0021FFE7FFED0012FFE5000A001400210011,
FFF60017000AFFF800050001000500000003FFF10000FFF20016FFF3FFE1FFFC,
FFDD0026000900070032FFE40010FFF9FFECFFF5FFDFFFEFFFF9FFE4FFF20018,
FFEC0001FFEF00140020FFF50007000EFFF2FFDEFFD70006FFE7FFF80006FFED,
0006FFE4FFF3000CFFF800030019FFFF00030033FFFA0008000BFFF6FFF70008,
0001001EFFE3000E0017FFF80023001D0000FFFAFFE9000CFFEB0009FFE9FFED,
0025FFDA0011002BFFD9FFFAFFF60023001000030020FFE6FFFDFFFA001BFFFC,
0027000A000100250003FFE5FFE4000DFFE9FFF30019001500080008001CFFE5,
FFFA0028FFE600130001000B0020FFE6FFEF0012FFEBFFF2FFE5FFFEFFD6FFF3,
FFEF001C0005FFFE0015000BFFF8001D0011FFF2FFE2FFFD0013FFEAFFD70009,
FFE8001900020026000D000FFFF40028000FFFE5000D0010000CFFED0004FFFF,
FFF40012FFFAFFE7FFF2FFEE0020001AFFE5FFFAFFE80005FFF100120000FFEC,
0014FFF8001F0014FFE0FFF2FFF80003FFF30001002AFFE6FFFB00120015FFD7,
FFF9002BFFFEFFEC000C0008002AFFF6FFEB001DFFE7FFFC0009FFE5FFEEFFF4,
0009FFEA0024FFF7FFF9FFEEFFD3FFF9FFFCFFEE000A0015FFE4FFF700250031,
00090001000B000B0027FFFC000E0009FFE5FFFFFFE7FFFAFFE50004001FFFD6,
002100040026FFF0FFF5FFFBFFD1002DFFF5FFF0FFFAFFF9FFF1000400240004,
FFE7000EFFE1FFF9FFF3000B002BFFFDFFEFFFEF0003FFE3FFF0FFF1FFFFFFF9,
001F000400000005FFD0FFE900170003000AFFFC0029FFF800130007FFFCFFF0,
FFFBFFFA0026FFF40021FFF5FFD100250007FFEDFFF500140007000B0024FFF6,
0015FFFF0016FFEEFFEA0016000AFFD1000D0032000400010011FFEC0007FFF9,
0015FFE9FFFF0000FFD9000DFFF0FFFBFFF1001C0023FFF4FFFA0007FFD20012,
FFD900240008FFEB000E0015002D00110005FFEAFFEB00130016000AFFEE0007,
0003FFFA001C001DFFDE0001FFEB0005FFF90027001C0012000800060010000C,
FFFC0011FFFEFFDEFFFE0010FFF2FFFCFFF0001EFFF5FFF1000C001100150005,
000B0006FFE8002BFFFBFFE6000C00200008FFFA0010FFF0FFF9FFFB000CFFFE,
FFFF001E0018FFF80015FFECFFFF0019FFE6FFEE0021000BFFF9FFF4FFFB002E,
FFF5FFEA001D0002FFED00080023FFDFFFFD001D000C000B000F0011FFECFFF3,
FFE00019FFE7FFE1000900020032FFD0FFFE0012FFE0FFE6000D0000FFF8000D,
0010FFE5001B0000FFE20017FFF3001F000F000E002AFFEEFFF4FFE4FFF30019,
FFEA0000FFF400210008FFE8000A0002000BFFF0FFE40006FFF4FFE7FFF60004,
FFFC0019FFDD00250025FFFB001D000AFFF7FFE2FFD40013FFE6000F0001000A,
00290005000EFFDB001CFFE4FFFA0014FFFB000F0020FFFFFFE3FFF8FFFF0029,
FFFF002C0011FFE0001E000C00070005FFF9FFF3FFF00001FFFA0001FFEF0028,
00190002000000160009FFF9FFF0FFF5000AFFF8FFFD00180016FFF30022FFF9,
0005FFEF002B001700130014FFD4FFFB0013FFF8001200110004FFFF002E0012,
000000110025FFDBFFD40003FFED0014FFEBFFF2002400130003000FFFDAFFF7,
FFF6FFDAFFF40022FFFF0012FFFF0014FFF70022001BFFED0014FFF4001B000D,
00190007FFF600190006FFE7FFDE000D001400290003FFF6FFFFFFF8001BFFEF,
FFE40019000CFFD2001E00100017FFF9FFEDFFEFFFF0FFFCFFF2FFE8FFF60005,
FFF50021FFFF00280017FFF4000A0016000BFFD9FFF30011FFFBFFF600030003,
0028FFDE0020FFF7FFDDFFF9FFE20001000100220016FFFF000400030015FFD8,
0029FFE8FFF60024001EFFEFFFD800040004FFE100170011FFFE000500220012,
0016000A0008FFE3001BFFEBFFF70002FFEC00060006FFF10013FFE6001B0011,
000C00040007FFEF000AFFE500030006FFE500040012FFF800120012FFFA0010,
001900030023000500280015000B001F0012FFF600090005FFF0000AFFFF002D,
0025FFE5FFF0FFF0FFDE0006FFF3FFFEFFE3002F0006FFEF00100007FFF8001D,
0008FFE500240026FFFE0003FFFE00030015FFF0001FFFE8FFFDFFEE0009000A,
0001FFF50003FFFE0003FFF60004FFF7FFE8002900180011001000090020FFE9,
0027FFE0FFFF002BFFD7000BFFF40020FFF2001B00070007FFF1FFF6FFFDFFD5,
FFF80007000200040009FFF30019002DFFE6FFF9000DFFF50002FFEDFFDE0018,
FFFE0010FFE8FFEB001DFFF800190015FFE6FFEFFFFC0012FFFBFFEF001BFFED,
FFFB000FFFFD000B0019FFE8001D0012FFF60010000B0007FFE90012000A000A,
FFE9FFFA0018000D00290004000500340026FFF8FFF90001FFFB0016FFD8000D,
FFF5000C00000013FFDFFFDFFFE30004FFEAFFE1FFEF0015FFFAFFF70025FFEB,
0004FFE500260023001AFFF0FFE50036FFFC000B0010000D0015FFF9FFEBFFFA,
00100015FFF4000BFFFEFFD8001E000CFFE1FFE7FFEDFFF100160006FFFE0018,
FFF500140012000D00120023FFF4FFDCFFF90027000EFFE9000D000400050014,
FFFAFFFA0002FFF8FFE80009FFFE0001FFDCFFF40015FFFCFFEB00050013FFF4,
FFECFFFF000CFFFFFFEAFFE3FFEE002600130011FFEEFFF4000EFFEC0018FFCC,
000CFFFF0008001F0000000EFFFAFFEEFFF4FFF6FFFCFFFBFFF7FFE9FFFE0003,
000AFFF6000800010006FFE1FFE3001500210006FFF40001FFE4000AFFF9FFF8,
FFF6FFEC000700250025FFDEFFE30022FFFB000BFFF1FFF6FFEF0000FFCFFFED,
0012FFE9001D0025FFFCFFEC00040022FFF90012FFE8FFF300100004FFCE0006,
00060000FFDA001FFFF30016FFEBFFEFFFEEFFEFFFF50016FFE5FFE9FFFEFFFD,
FFF50013FFFDFFF3FFFC00280021FFE0FFD8000DFFE50005FFEBFFF7001F0002,
FFFA000AFFF7001A0018FFE5FFFA001B0023000C001600100010FFF100010002,
FFF3FFFDFFF3000DFFFCFFE5FFCC0039002F00050011FFEFFFEA0007FFF4FFD2,
FFF7FFFE000D00020011001500130001FFF30010000FFFE9FFED00090008000E,
FFFFFFF40016FFE70015001B0001000000060028000B0010FFF2FFEBFFEB0005,
00090009FFF10008FFECFFE4FFEB0023FFE6FFF9FFE9001300130011001BFFE9,
FFFA000500200006FFFF00000024FFF3FFE7FFF70007FFECFFF9000B00100029,
FFEC000BFFD80001FFF9FFF40014FFE7FFDCFFEF0016FFEEFFFEFFEB0018000A,
FFE80009FFFDFFF700100015002EFFD6FFE7FFFAFFF4FFF8FFE900100017FFFD,
FFE7FFF8FFF50005FFE8000C000DFFE7FFDF00040003FFF1FFE60012FFF2001C,
000700160022000B00020015FFF5FFEEFFF9000C0001FFFBFFED0018FFF3FFFD,
0000FFF6FFF500090000000BFFE6000FFFF0002D0013FFF5FFF1FFED0018FFEB,
0014FFF1002D000FFFFB001A00090014002E002F0011FFF8FFE40016FFD8FFEE,
FFEAFFFDFFF50002FFF7FFF7FFF0000D000A0008000800030008000AFFFEFFE8,
00100016001B000CFFF3002F002FFFEFFFF500090009FFFD0010FFF00019001E,
0005FFF70012FFFBFFF400060030FFD9FFC9FFE4FFE700030009FFF10000002A,
FFEBFFFC000D001DFFFF0018FFF4000700120025FFE70011FFE9FFE7FFEF0009,
FFE8FFF5FFF50020002BFFE50023000DFFCF0003FFE5FFED0011000CFFED002B,
00030001FFFA0025FFFDFFE6FFF6001C0031000A0016FFF7FFE7FFF5FFF4FFE1,
0013000CFFECFFF7FFD2001DFFFD000DFFD7FFEC00000005FFFE000B0022FFF0,
0007FFFF0003FFE0FFE2FFFF0016FFF2001F00030015FFFFFFF3FFE8FFFFFFFC,
0010FFFA0016FFD9FFFE0024FFFCFFED0013FFFFFFF30014FFF3FFF7001FFFE9,
FFEA00010005FFF3FFEFFFE50002FFEA0002FFEC0015FFF0FFF1FFF400090026,
00020001FFDEFFFEFFDFFFF90015FFEEFFFFFFEC00050004000CFFEB00170012,
00100009FFFCFFF2FFFDFFF8000D000800250021FFF7FFE7000A0001FFE4FFFD,
FFF4FFEE0002001FFFECFFDBFFD200280000001000080004FFE8FFF2000B0006,
0007FFF1FFFF001A001D0020FFF40001000300200014FFE9FFFBFFFAFFE9FFF7,
0002FFF3FFDFFFE8000800010008FFFE0008FFD4FFFFFFF8000AFFED00160023,
000AFFFCFFD9FFD5FFDC00120006FFE40005FFEBFFF1FFF3FFE7000D002EFFFC,
0009FFE40017FFF0FFF0001000110006FFE100060010FFF200010006FFE40010,
FFF1FFEDFFFC0015FFE7FFDAFFFBFFFD0022FFF7FFF7FFF100140009FFFA0020,
0016FFEE0004FFF00018FFFE001000090005FFFCFFEEFFE60009FFF4001A0009,
FFEF000C000B001500180016001BFFECFFDD0015FFEF000E000A0003FFE6FFF6,
FFEFFFE8FFD7FFECFFE2FFD5FFF70009FFF7FFEAFFFA000B00160000001A000D,
FFEFFFE7002700100014FFF8FFF2002AFFF9FFFAFFF9FFF80003000E00140024,
FFEAFFE7FFF4FFE6FFF10004002AFFE4002C00010003FFE5FFFE000700080010,
FFF900150002000200040022FFE1FFFF001A0037FFEF0016FFED000FFFF8FFEF,
FFFAFFF0FFEAFFF6FFF9FFF80015FFEE00010001FFFEFFE6000D0009000E0024,
FFE9FFEE0004FFF8000100100001FFF600170014000BFFEF000E00030010FFDC,
FFEBFFFA001600110019000D0005000CFFEA001BFFE7FFF7FFEAFFE70004FFF8,
0018FFF600170019FFF30005FFDC0006003000110004000D000DFFFF0003FFFB,
000BFFF3FFF0FFE7FFFDFFEA001200060004FFDF00020009FFFB000B002D001F,
FFED0017FFD1FFD50005FFF2FFFDFFF9FFFEFFFAFFFEFFF50007FFEB0023FFFD,
0000FFF2FFDE0007FFECFFEE0020FFE9FFF1FFF3FFEBFFE6FFEA000E001F000F,
FFFD0016001EFFF9001C002E000FFFFB000D001CFFE60000FFF40014FFE8FFEC,
000AFFF30007FFF7FFFFFFEAFFEE00280019000E000B0013FFE400100005FFF9,
0012FFF50007FFFB0019FFFC00170005FFF5FFE900060009000EFFF8FFE70017,
FFF4FFF2001B001E0025FFFDFFFE000F001FFFFE000AFFEB0012FFF3FFE4FFFD,
0004FFF4FFECFFEF00240006002DFFDAFFE80003FFF10001FFFCFFF9000A0034,
0007FFFCFFE8FFE7FFD6FFF8FFF900000024FFE2FFEEFFFCFFEB0003001E0021,
0014FFF4FFF80004FFE7000CFFE0FFF60007FFF0FFFAFFFF0012FFEA0009FFFE,
FFEA0008000C000F0026001E002E000EFFD8001500100006FFF0FFEDFFE2000B,
0000FFEE00070004000D0011000B001600130027FFF1FFF1FFF8000BFFE3FFF4,
FFF5FFECFFFB0022FFE8FFF4FFECFFFAFFFBFFF1000DFFE70017FFF7FFFDFFEE,
FFF9FFEE0009FFF7FFFCFFEDFFFC00210012FFF2FFEBFFE5FFE7FFE90025000C,
FFFBFFF4001300250013001DFFF4FFF7FFF20015FFE4FFF6000EFFEE0012FFEB,
FFEC0000001C0018001AFFDF000700030016FFF1FFE90009FFFAFFF9FFE3FFED,
0005FFE8FFE60003FFEB000C000BFFD3FFFCFFF200060008000C00010025000D,
0012FFEC0025001F0016FFD600090005FFE2FFE9000DFFF0FFFEFFEAFFEB0025,
FFF10010FFF3000CFFE10011FFD5001EFFF10007FFE6000C00170015000BFFE2,
000500080009000FFFF2FFDDFFD10013002F0024000D000DFFFAFFF6FFE6FFD1,
000BFFFDFFFAFFF0000C00120027FFF1FFD0000AFFEAFFF3FFF70005000B001C,
FFF4FFFDFFF1FFF80000000A001E0001002DFFDBFFF2000AFFE9FFF1FFF8001C,
FFED000F000EFFDCFFF6FFE4001C000F00320006FFF10003FFFD0005001B0017,
000E0005001D00010025FFEA0001FFF0FFF0000DFFEE00140016000EFFF3000F,
FFF7FFED000C0015FFF3FFD8FFF0FFFF0011FFFC000EFFFBFFEAFFFD0018001E,
0015000300300018001C000000090005FFF90014FFF5FFE5FFE80017FFDD0001,
0006001000260024002200150025FFE7FFFA00080016FFECFFEE0017FFEB002D,
FFFE000AFFE30022FFF0FFEEFFE5000BFFE5FFDC000DFFE4FFEF000A00230018,
FFF7FFE70020FFEC0017000DFFF6FFFC00190030FFEB0002FFE4FFE800050008,
0000FFE800290015FFFD00210017000C00120024FFEEFFF8FFF9FFEBFFF1FFEB,
FFFEFFF7001D002F0014FFEB000EFFFEFFF0FFE0FFFDFFE8FFFBFFE9FFFD0018,
0018FFE40002FFE1FFEEFFF6001BFFF1FFECFFDDFFEF0016FFF30001002A0029,
FFEDFFF2FFF5001A00150023000AFFE0FFE1002CFFF20011FFE8FFE80009FFE3,
FFFC00170009000F0001002F002EFFDF0000001FFFEB000FFFFCFFF400060011,
0014FFF8001A0021000EFFDF00070008001EFFFF0007FFE90005FFED00110019,
000EFFFE00100003002A00060016FFEDFFEC001F000EFFF9FFE60016FFE70010,
00070007000B000EFFFF000D0028FFE7FFE5FFE3FFFD000DFFF2000500270033,
00110011000D0015FFF00024FFF0000F0020000FFFF3FFE4FFEC0001FFF5FFD5,
0003FFF10015FFEE001400200029FFE40001001DFFE6FFEFFFF7FFFA0007FFED,
FFFC000100150023FFFE000DFFF10020000B00300005FFFEFFFB0002FFD2FFDA,
FFF9FFF2FFF400060014001DFFF8FFEEFFEB001D0003000AFFF2FFEEFFF1FFFD,
0003000EFFD5FFEEFFF9000B000E0001000AFFD2FFECFFED000E000800120024,
FFE8FFE70027001C0009FFCD000E003000190012FFFBFFF10006000CFFF00025,
0002FFFDFFF5FFF800180006FFEA000DFFF4000000140016000FFFFC001BFFF4,
FFF9FFFE0003FFF3FFF7FFF40003FFF3000E0000001AFFECFFFEFFF4FFFEFFFC,
0017000F0003FFF00004FFE7FFFF0005FFE40002FFFDFFF4000B002D0029FFE7,
FFFCFFE40012FFEAFFF8FFE9FFE6FFD9FFF8FFF8FFEFFFEFFFE2FFD9FFEA000E,
0009FFE4FFD4001800110001FFDEFFE40013000F0028000DFFFAFFF000130004,
FFEB00120014FFFFFFF2FFE7FFF8FFFB0010002AFFF20019000AFFF2FFE8FFE9,
003BFFF1000C001200070005FFF5FFF9FFF5FFEB0009FFF4FFDF001C001DFFE7,
0018FFE1002CFFE9000F0011FFE7FFF9FFEFFFD8FFFB000C0007FFFFFFF8FFFC,
FFFEFFDFFFD1FFF6FFE60010FFDBFFF8FFFC001A00080015FFF70011000CFFF2,
001D00020011FFFDFFEA000D00050005FFEEFFF1FFE3FFECFFF200030000FFEF,
FFFAFFF5000400000002FFF90001FFCDFFE9FFE60013FFF60007FFD5FFE3000D,
FFD7FFD3FFF4FFE8FFF1FFFAFFF9FFD8FFF1000C001EFFF9FFF4FFD3FFDEFFE7,
0040FFF4FFFDFFEA000300110011FFFE0007FFEA001DFFECFFEE002C0034FFF4,
000300010004FFEE000BFFE8001D00320013FFF4FFFBFFF900010015000EFFE9,
000E00050017FFEE000200060009000EFFE50003FFD60003FFE9FFF10010FFF2,
FFE6FFF40010000AFFE4000FFFF1000BFFD5FFD0FFE8FFF9FFF00009000AFFF3,
0009FFF2001C000DFFFAFFECFFF4FFFB002400290019000500020025FFF4FFF0,
0004FFF40012FFF0FFE900080006FFE500230010FFE90003001BFFFEFFF9FFE9,
0037FFE900220014FFF9FFE6001BFFFDFFD8FFEAFFFFFFFEFFE600160029FFE3,
000EFFECFFE60005FFFA0001FFF90007FFFAFFF7001FFFF40014000B0005FFF2,
0014FFF9FFEB0008FFEE000200250019FFFBFFE6001CFFEEFFFC002A0034FFEA,
FFE9001B0003FFFBFFF5FFED0001FFFB002E0029FFF2FFFF002E0002FFEAFFF8,
000AFFFB0025FFF4FFF3FFF40014FFF40006000F000400070024002C0010FFE7,
FFF0000C002FFFE8000A0000FFF9FFF1001B000D0008FFF50010FFF5FFF00013,
FFF4FFEA0024FFE50008000A0022FFF400080015FFFFFFF30016002500100000,
FFEF00010022000EFFE9FFF7000AFFE1FFF3001AFFF9FFFF000EFFFBFFDBFFE5,
FFFEFFE60008000CFFFE0005FFF2FFEEFFF50001FFF10012FFE5002500140011,
FFF0FFF8000EFFF5FFF000010010FFF90026002D0015000F00050026FFE6FFF0,
000D0007FFEBFFF2FFE4000F0013002B000D0011003400180025000500180003,
0001FFEC0016FFF1000AFFF4FFFAFFCA000EFFFAFFE9FFF0FFFBFFDFFFE9FFE7,
FFF1FFE6FFECFFF7FFF8FFE4FFE4FFEC002600110038FFF60005FFF000180002,
000CFFFC00270006FFFDFFE4FFFCFFEBFFDBFFDEFFEB000EFFDD0004FFEE000B,
001400130000FFEB0005FFE9000B0024FFF5FFE3FFEE0007FFE30027002DFFF9,
FFEE0014FFF7FFED000600040004001FFFD5FFD7FFF50008FFD90020001DFFFA,
FFEF002A001DFFFEFFFAFFF3FFF2002D0006FFE5FFFA0010000900140010FFEA,
000D001FFFD60014FFE8FFF8FFE3001C0006FFECFFFDFFFCFFFD001C001C0010,
001C00230001000EFFE50017001D000F000B00000001FFF2FFF20009000D0006,
0005FFEA00070005FFE8FFEFFFE3FFCD0002000CFFFCFFF3000BFFF8FFDD000F,
0009FFEAFFF9FFF9000FFFFBFFF0FFE8FFE9FFE4000E0017FFE7FFE6FFF7000C,
FFF3FFF0FFF80006000E00090007FFCC0019FFF600070012000AFFF500100017,
FFE80028FFFF000FFFF2FFE7FFEC000EFFD8FFFCFFF9FFF5FFD80015001FFFE2,
00030032FFF7000FFFF7FFE5FFEE00390001000BFFFDFFFCFFE2FFFF000AFFFF,
FFF1FFEEFFF100100006FFE8FFF8FFEC00240013002BFFFF0011000A00070011,
FFFA0006FFEFFFF50001FFFAFFEC0020FFEEFFE60016FFE7FFDD000400160005,
FFF90009FFDFFFFEFFEA0017FFE400290010FFDA001D0001FFF10020FFFC0014,
0010FFD500090005FFF3FFF600000005000F0014001FFFE600040012FFEC000A,
0017000EFFE1FFFE00140008FFF10003FFD5FFD8FFF2FFECFFE300180018FFE2,
000CFFFDFFF7FFEBFFE80005FFE0FFFF0015000A00270010FFF6FFE2FFF7FFF6,
FFDD0019FFF9FFEDFFE5FFF7000C0021FFEAFFFE000AFFF600180015001B0016,
FFEF0005001B0008FFE90015FFFCFFE900180006FFE200050007000EFFE2FFFB,
FFFD0030FFD50008FFE7000C001400390009FFE7FFF1FFE7000A0017000DFFFE,
FFEEFFE100220004FFE8000A000C00020005002CFFE60002001C0004FFFDFFE4,
000FFFE9001D0015FFF3FFE9000DFFDD00170011001BFFE60018FFFB0013FFF3,
0009FFEE0019FFF60017FFEEFFE80000FFE4FFF7FFE6FFE7FFF7FFF90009FFEB,
FFFC0024FFF6FFE9FFFF000200050010FFEDFFF5FFE3000BFFEC00250031FFF3,
00280022FFD6FFF5FFE5FFF0FFFC002F000AFFFAFFE10019FFFD000700280009,
00070029FFFBFFF6000D000EFFF90003FFE0FFEDFFEDFFEAFFE800200023FFFB,
0004FFF40012FFF0FFFC00040024FFEE002300070000000B0017FFFCFFEAFFF1,
000E000A001800030016FFF4FFEEFFF2FFE2FFF10001FFFFFFFF0017FFF50015,
FFEFFFD9FFF6FFEFFFF2FFEFFFFDFFE4001AFFFA001DFFFCFFFDFFE2FFFBFFEB,
FFE3FFFD0000000CFFF9000EFFEDFFFB0009001D0016FFF8001CFFF7FFD3000D,
FFEDFFEE0001FFF60009FFE5FFF200170028002C0038000A000EFFFF0000FFFA,
FFFE0036FFF600180013000B000B0033FFD5FFD9FFE6FFFCFFD2001E0010FFF1,
002E000900250012FFFD000A0022FFE7FFEC00000008000EFFFF0023002BFFFD,
FFF6FFF8FFF1001000160010000AFFEE0012002B0022FFFD0002FFE7FFD6000B,
FFF9FFD80028FFEAFFFDFFF30010FFE40010000E0016FFFB0019FFE0FFF5FFFA,
0030000A00200014FFEE0007000DFFEFFFDE0000FFFBFFF7FFE300300024000C,
00160035FFD80001FFF500110007002DFFE7FFEE00080016FFD40024FFFCFFEE,
0013FFE2002DFFE50001FFF20024FFF7FFEF0008FFE2FFF8000D0026000CFFFE,
FFEEFFD4FFECFFE9000DFFF9FFE1FFF70013FFFF0009FFEA0009FFE3FFEAFFE3,
00160031FFD6FFF6FFFBFFF4000A002F000D001C000800080009002E00230015,
FFF6FFD9FFDDFFEEFFF5FFF5FFD8FFE4000C00020002000A001FFFE4FFE9FFE7,
0000FFDC0024000900110014000F00030000FFF3FFE90014FFEC00060008FFF8,
FFFA00100028000CFFF20015FFDCFFE8FFFEFFE7FFF5FFF2FFF6FFFE0001FFEC,
0016FFFF00180015000F0009FFF9FFFE001000280027FFF2000E0010FFFCFFFA,
FFFD0035FFE0FFEE0009000500070013FFF2FFE50017FFEAFFEC0011001F0001,
FFE30039FFF5FFEC0009FFEAFFEA001DFFE3FFF70001FFF2FFEA001D0022000E,
FFF2FFF4FFD600100004FFFFFFFAFFE30020FFEF0018000C0003FFF40010FFF1,
0007FFEAFFD5000C000C0011FFF6000F00000002001DFFFEFFEC0002000D0004,
FFECFFF8000F000CFFF3FFEA0013FFD500220027FFF3FFEB0026FFF7FFD6000A,
FFE3FFF8FFE8FFF9FFF7FFF9FFDDFFEE001600070004FFE90023FFE60002FFEF,
003AFFF30003FFF20015FFE500150016FFD8FFF7FFEB0003FFD8002C0021FFE8,
FFE4001B002C00160000000B0012000A00230027FFFCFFF1002AFFF800040005,
FFF9FFF50010FFE5FFE500110015FFDD002AFFFFFFFC00000008FFF1FFF1FFE6,
0012000DFFEE0003FFE5000A0001FFEAFFEDFFEC0012FFFF000F00030002FFFC,
FFEB000DFFE7FFF800140000FFE90038FFE2FFE30016FFF4000900060024FFEB,
001F0005002300100008FFF60012FFE700120008FFF9FFF70021FFFA000F0005,
FFEEFFFD000200050001FFF80009FFEA00240032002CFFEC0027000AFFE6FFF4,
0001FFF30000FFF80017000BFFF0FFE00017FFEDFFFA000E0002FFF1FFED000E,
FFF1FFFCFFE70013FFEEFFF2FFE1FFE600000020000FFFEF0002FFE3FFD7000B,
FFF6001CFFF5FFF4FFE6FFE8FFFB001B0016000700250017001400150025FFEC,
0016FFDC0025000F00120003FFF9FFE3FFE7000BFFF0FFEE001600000008FFF8,
0018FFF9001BFFF3FFEA000D000DFFFF001900280015FFF0002F000CFFEE0009,
FFE0FFE0002CFFE9FFE80016FFE2FFE8001DFFFB0009FFF8FFEFFFDCFFF0FFE8,
FFEA000600200005FFF100130017FFEF001C002DFFEFFFF800140020FFF50005,
001700110001FFFCFFF3FFF200030003FFE10008FFE6FFF2FFE9001900190015,
0006FFFAFFDAFFFEFFFBFFE40003FFF90006FFE20003000F0000000AFFF9000B,
000CFFF90014FFF9FFF8000AFFF5001AFFF50002FFE70007FFFD00230014FFE9,
00000000000000000000000000000000000000000000FFEEFFF0FFF400050019,
00000000000000000000000000000000000000000000FFD0000C0019000D0003,
000000000000000000000000000000000000000000000008FFF8FFFD0009001B,
00000000000000000000000000000000000000000000FFD4FFE4000D000B001E,
00000000000000000000000000000000000000000000FFF4001400090005FFF0,
00000000000000000000000000000000000000000000FFD10032FFCB00100014,
00000000000000000000000000000000000000000000FFFC000400030008FFC9,
00000000000000000000000000000000000000000000FFC00021FFDDFFE50000,
00000000000000000000000000000000000000000000FFFDFFFB0003FFFFFFF3,
00000000000000000000000000000000000000000000000DFFE2000D00220016,
0000000000000000000000000000000000000000000000280015FFF1FFD8001A,
00000000000000000000000000000000000000000000FFFCFFCA000B0023000F,
00000000000000000000000000000000000000000000FFE9FFCF002E001A0007,
00000000000000000000000000000000000000000000FFF00027FFBC00070026,
00000000000000000000000000000000000000000000FFF7000A00600071FF9D,
00000000000000000000000000000000000000000000FFD30009FFF800120033,
00000000000000000000000000000000000000000000FFF7FFEC00800000000E,
00000000000000000000000000000000000000000000FFF3FFFB000A0006FFEE,
00000000000000000000000000000000000000000000FFF1001EFFC2003EFFF4,
000000000000000000000000000000000000000000000008001C000FFFC1FFFA,
00000000000000000000000000000000000000000000000E001F0015FFD80026,
000000000000000000000000000000000000000000000000000E0022001BFFD3,
00000000000000000000000000000000000000000000FFDA001E001CFFCAFFE5,
00000000000000000000000000000000000000000000001CFFC1FFF3FFF20022,
00000000000000000000000000000000000000000000FFCEFFED00190014FFFE,
000000000000000000000000000000000000000000000006FFC70038FFD50027,
0000000000000000000000000000000000000000000000160002FFE2FFEA0030,
00000000000000000000000000000000000000000000FFF4002B0031FFB9FFDE,
00000000000000000000000000000000000000000000FFF4FFF2FFFDFFEF000F,
00000000000000000000000000000000000000000000FFF7FFE70014FFFA0015,
00000000000000000000000000000000000000000000000C000CFFE800160003,
00000000000000000000000000000000000000000000000C00080016FFF4FFEF,
0000000000000000000000000000000000000000000000040036FFC5FFCE000D,
00000000000000000000000000000000000000000000FFD200310017FFE4001F,
00000000000000000000000000000000000000000000FFE0001BFFC7FFF30034,
000000000000000000000000000000000000000000000008FFF2FFE600110016,
00000000000000000000000000000000000000000000000C0015FFCE0005FFE5,
00000000000000000000000000000000000000000000001DFFC40008001E000C,
00000000000000000000000000000000000000000000000400010002FFE70009,
0000000000000000000000000000000000000000000000040024FFE9FFC80010,
0000000000000000000000000000000000000000000000160029FFDA0002FFD6,
00000000000000000000000000000000000000000000FFEBFFF6002CFFF5FFEB,
00000000000000000000000000000000000000000000005B0017FFDB0025FFC9,
0000000000000000000000000000000000000000000000120042FFC20036FFD0,
00000000000000000000000000000000000000000000FFECFFED0003FFF8FFE9,
00000000000000000000000000000000000000000000000DFFD8002BFFC2FFF1,
00000000000000000000000000000000000000000000FFFD0010FFFEFFFAFFFD,
000000000000000000000000000000000000000000000027FFE8FFE10033FFBE,
00000000000000000000000000000000000000000000FFF5FFD6000FFFCB0020,
00000000000000000000000000000000000000000000FFF3FFFF00220014FFE2,
0000000000000000000000000000000000000000000000120000FFEDFFEFFFF6,
000000000000000000000000000000000000000000000013FFFC00100006FFEF,
00000000000000000000000000000000000000000000FFF0FFF1FFEBFFF90011,
00000000000000000000000000000000000000000000FFDBFFE3000100250025,
00000000000000000000000000000000000000000000FFC70021FFF0000E000A,
000000000000000000000000000000000000000000000013FFF80012000A0009,
00000000000000000000000000000000000000000000001EFFD2000700090006,
000000000000000000000000000000000000000000000020002CFFE2FFD5FFFF,
00000000000000000000000000000000000000000000FFFEFFF1FFF3FFFD000A,
0000000000000000000000000000000000000000000000200008002EFFD6FFE6,
0000000000000000000000000000000000000000000000290003FFBD0041FFCA,
00000000000000000000000000000000000000000000FFE4FFCE001300180014,
000000000000000000000000000000000000000000000028001D0007FFCD0006,
00000000000000000000000000000000000000000000FFEDFFDF0007002D0007,
000000000000000000000000000000000000000000000017FFCA001BFFE2FFF5,
000000000000000000000000000000000000000000000023FFCAFFD4FFDDFFF6,
00000000000000000000000000000000000000000000FFF0FFEFFFFFFFF9FFFD,
000000000000000000000000000000000000000000000010FFFB001100100014,
00000000000000000000000000000000000000000000000000050005FFF4FFEE,
000000000000000000000000000000000000000000000012FFE8000C000AFFEC,
00000000000000000000000000000000000000000000FFDA0012FFF50017FFEA,
00000000000000000000000000000000000000000000FFF9003CFFD40048FFA2,
00000000000000000000000000000000000000000000FFDA002AFFF6FFD10000,
000000000000000000000000000000000000000000000020FFE0002F0018FFCF,
000000000000000000000000000000000000000000000024FFF5FFD50045FFB8,
00000000000000000000000000000000000000000000FFE1FFFA0018FFFFFFDC,
00000000000000000000000000000000000000000000FFD900110019FFFD000F,
00000000000000000000000000000000000000000000FFEA0017001C0008FFDE,
00000000000000000000000000000000000000000000FFF70003000B0001FFF5,
00000000000000000000000000000000000000000000FFF300160002FFE70014,
00000000000000000000000000000000000000000000FFF4FFEC000BFFF6FFEC,
00000000000000000000000000000000000000000000002CFFDEFFEBFFD70025,
000000000000000000000000000000000000000000000028FFE6FFD90000001B,
0000000000000000000000000000000000000000000000280001001B0030FFB4,
00000000000000000000000000000000000000000000000BFFE90010FFE9FFF0,
000000000000000000000000000000000000000000000004FFCD00240001000D,
000000000000000000000000000000000000000000000017000600110032FFBE,
00000000000000000000000000000000000000000000FFF1FFEF0022002CFFC7,
000000000000000000000000000000000000000000000029FFF9FFFCFFF6FFC5,
00000000000000000000000000000000000000000000002A003E0043FFC50008,
00000000000000000000000000000000000000000000000BFFEAFFF6001A0018,
000000000000000000000000000000000000000000000005000AFFF60017FFF5,
00000000000000000000000000000000000000000000000CFFFB0018000BFFF2,
00000000000000000000000000000000000000000000FFD5001AFFCA00230011,
000000000000000000000000000000000000000000000037002200270038FFA6,
00000000000000000000000000000000000000000000000FFFEC0002FFCB0040,
00000000000000000000000000000000000000000000001E001AFFEAFFE1001C;
