0018
0057
007F
FFF2
00C2
FFB9
0061
0099
0098
FFEF
0003
011B
FFB5
006A
FFC8
FF08
0090
FF6E
0000
FFF9
FFC8
FFD9
0075
0029
FF89
FFBD
0031
0050
006B
FFC4
00A3
00AE
FFDD
00A9
005B
0069
0014
0095
006A
0106
0064
FF20
FFDF
003B
0043
004D
0086
00C1
00B1
007F
00BC
0006
00DF
FFE8
000E
FF81
FF2B
FFF9
FF00
FFD6
0084
FFFB
FFEA
FF5C
