FFE7FFF3FFEEFFFBFFECFFE10019FFF1
000200380008001000190032001DFFF9
FFC8000B00160009FFE0003D0001FFDF
FFF8FFFAFFE8FFE3000FFFE7FFFC001E
FFE10014002FFFE70009FFCEFFFFFFF4
FFDEFFE5002EFFE5FFE3FFEEFFCB000B
FFFF0009000DFFFEFFFFFFCD001D001C
FFDAFFD9FFE7000A0007FFD9FFE2FFEE
FFEBFFE9FFF5FFE6FFD4001DFFF6FFE7
FFF5FFF20014FFE400050027FFCCFFC6
001B001D0002FFEAFFDC00120003002D
0022FFE8FFF9000AFFE3000D00330012
00060010001BFFEDFFE4FFE10010FFF5
FFF80011000E0022000400100038000F
0007FFF90017FFE0FFD90021FFE9FFF0
00310013FFF9001B00350000FFEDFFD9
0008001FFFE1000AFFC2002BFFF60003
00070003FFF50010FFD2FFE30012001C
FFD4FFD9002DFFDF000B0008001A0012
000FFFFDFFE00000FFFDFFE90013FFC5
000AFFF0FFD3FFE0001C0006FFFE0022
FFFF001B000DFFFDFFEC001300070018
0027FFD7001A001300180000001DFFE9
001F0009000CFFEF00320001FFC00005
FFEF00090007FFDCFFEDFFF7FFB6FFDD
001600270018FFE7FFD60003FFCBFFFA
001D0021FFC9FFDE003100020005FFDC
FFE800030017FFD0001F001CFFCEFFEA
FFE2FFD80003FFFF00070022FFE3002C
000CFFE3FFC7000B0011FFF80012000D
FFFCFFFEFFD9002AFFE9FFDF002C0010
FFF50010FFF0000B001EFFE7001CFFD9
FFE900120007000AFFF7002AFFF4FFEA
FFDFFFF3FFF5FFFE0012002EFFD2001F
002DFFD7FFD7000E00020026FFF7FFF2
002D0023FFE60016FFF2FFFCFFFCFFF0
003000020007003FFFDBFFF400090026
002E0002FFD70034FFACFFFF001C001A
001AFFF5FFECFFEAFFFB000B00280004
00200004FFDB0027FFFBFFF80023FFED
00170028FFF3000F0002FFF9FFFA000B
FFF8FFF90000FFEFFFEC001C00260015
FFF1FFDEFFE6002700040016FFF4FFF6
001EFFCEFFDB0003001EFFFB0019FFFA
000DFFD9FFD8000FFFF5FFCEFFE7FFE1
0010FFDC0019FFFF0016FFE0003B001B
00230007FFE5FFF7FFEA0023FFFB0019
000700040026001FFFF8000F00010003
FFEF0017FFF40008002300270037FFDF
FFFEFFAB0007FFF90010FFF7FFF2FFE4
FFDB002A0011000FFFEE000200030021
FFFBFFFE0003FFD2FFE10016FFF7FFD1
001C0007FFD0001DFFFD0003FFEEFFC5
FFED00130023FFCEFFE0FFCAFFF4FFF7
00140003000B0016001C000E00300007
FFEEFFFD0004001F0009FFE2000CFFFC
0001FFFB0025FFE6FFFDFFE4FFF2FFE2
000B001600120004FFC6002D0000FFF2
0002FFFEFFFAFFF8FFC7FFF40007001D
00190013FFE40002FFE6000AFFFF0003
0012FFEA001B0024FFE50000FFF4FFDF
0009FFF10013FFEC0010FFD70015001B
FFCFFFDE0016FFD40027FFFC0010FFF2
0004FFEA0014FFE8FFE1FFEA001DFFFA
0006FFDBFFECFFEEFFE5FFF8FFFF0010
FFF9FFF3FFDF0009001BFFF500080032
FFEC002CFFD2FFF500370020FFEA0039
FFF0FFF70003FFF9FFDF000E0024FFD9
0011FFEB0002FFFCFFE9FFF9FFF00011
FFF60018FFDD00100026FFFFFFE10008
001DFFE400210015FFE60003001CFFD5
FFFDFFFA0005FFDDFFD6FFC80008FFE9
0007003BFFF1001B000C0009FFDFFFE7
000700210018FFFBFFE5FFF6FFF60009
FFD7001AFFF9FFFBFFF9FFCDFFF00018
000E001A000EFFED00400028FFEAFFD7
FFDFFFDFFFD0FFF70022000700110017
0000FFDCFFFB00070009003C00070020
FFF3FFF8FFEA0035000B00190033FFEB
FFFFFFEC0012FFF8000D0011FFE6002B
FFCBFFFEFFCEFFF5001AFFF8001A0032
FFFFFFF3001CFFF4000E0026FFF9FFF7
FFF4000E000CFFE3FFF1FFE2FFF1FFE4
FFDEFFFDFFFB00230015FFFD0030001B
FFC8000C00020029FFF9FFDE0021FFF7
FFD3FFB5FFDDFFF1002A001EFFFDFFFC
00010020FFFCFFD4FFD30004FFCEFFC5
FFFAFFDD00190023FFEE001AFFFF0016
0032001C001C003B0000000DFFFB001F
001400140015FFFA00130024FFFAFFD8
000FFFE20015FFFA002F0000FFFEFFED
FFE7FFF9FFC80020FFF7FFE20000FFFB
FFE800120019FFDAFFB7FFB8FFEC0015
FFF9FFE9FFE8FFFD0019FFD300130002
FFE4000AFFF5FFFAFFFEFFFB0007FFFF
FFE10001FFDE0001FFDA0038FFFDFFE8
FFEA0011FFE5002B0023FFDE0005FFF5
FFFE0016FFD10013002EFFEFFFF20022
FFF4FFEA0008FFCEFFECFFFB0026FFE9
001A0002001E0000FFFB0008FFE1FFDE
FFFAFFD4005FFFDEFFE2004AFFF2FFD9
0019FFCC001CFFC6001F0023FFF3FFDD
001B0024FFD0000C00150023001A0022
FFCB000E0014FFFAFFE5FFCFFFEE0029
FFF1000A002F0012FFEA0012001D0006
FFD8000D000E0038001CFFEC001CFFD1
FFF6FFFE002900350023FFF9FFDCFFEE
0004000900170008000A0028002FFFE9
000C000600130016FFF6FFE2000C0032
000000360016FFE8FFF800160042FFD6
FFC4FFE7FFD20017FFF0FFFA00110008
000FFFEF0008FFE1FFFE001B00210032
00080011FFE9FFE6000BFFEE0004FFD1
FFF00019FFEB00210014FFE300270008
0011000B0021FFED002BFFF80009FFFA
FFCCFFD0FFCAFFECFFF9FFCAFFED001D
FFDDFFF300200019FFCAFFFE000A0023
003D0001FFF6FFFEFFE4002B001CFFDF
0018001CFFE70000000C0012000BFFEC
FFFAFFE9002900200003000FFFDFFFDD
FFD4000A000AFFE80016FFDD0036FFF1
0008FFDD001B0023001AFFDF001E0009
FFF2FFEE000EFFF0FFF6001A0016FFFE
FFFBFFE20015FFE7FFEB0001FFFCFFF6
001600130008FFE9FFDEFFECFFEF0003
001B0017000DFFCEFFE6FFEE00150015
0025FFFFFFE20003FFE4FFE8002E000B
00120031FFF100000032FFFEFFCA0004
FFE9001C000B0004FFF0FFDAFFE30003
FFF20005001FFFEFFFDC002EFFC4000E
0020FFCE001BFFD5FFE90007FFF10004
FFE2FFE3FFEA0048000EFFFE0015FFFA
FFE6FFE8000DFFE0FFF8FFD80014FFDB
0017FFDFFFCBFFDFFFC80003000BFFED
000BFFDFFFD5000FFFE10028FFFBFFE4
FFFD000CFFEAFFF9FFDC002BFFCBFFEF
FFFAFFDEFFDD0004FFFBFFD3003C0002
00190001FFEDFFD8000AFFD70018FFE4
00300014000FFFED000D005200200018
00030012FFE7002DFFEB00330001001D
FFF70015FFDF001EFFDF002D00090033
FFE000100024FFBD0006FFE60006002F
FFFEFFE4FFEEFFE4FFECFFCBFFD20017
FFDCFFF9000C0001FFC7FFF0000E0016
000EFFEBFFF900220023000E0009000C
00170007FFF2FFE0000AFFE4FFE10046
FFFAFFD1FFFBFFFE0000FFFEFFEAFFCB
FFE8FFE2FFE70013001300140013000F
FFCFFFD7FFCC0010FFEB000C000B001A
FFF4000E0005FFFC0043FFF80003FFFD
000C0003FFF7FFEAFFD0000F0005FFE6
FFFDFFF7FFF80018000C000B0020FFE6
FFDF001E0006FFD6FFB800010008FFFB
FFD30018FFD9FFF3FFEDFFC6FFD70001
FFD1FFFA000FFFEE00330009FFFC0017
FFEAFFFA00120001001EFFEEFFEBFFEE
0009FFDF0004000D001CFFF3FFCF000D
FFF9000FFFF50007FFE10007FFFA0002
0026FFDA000BFFFC001CFFE7FFEFFFCC
FFE90020001AFFD3FFE4001AFFCCFFF2
FFE9002B001CFFF7FFE3FFE00024FFDB
FFD90017001F0001FFE80026FFCC000C
000F00150041FFEA0006FFFC0010002E
0020FFFAFFE30002FFF3FFE5001D0025
FFF1000BFFDAFFEA00270035FFF4FFCE
0000FFE5FFE300230027002CFFF5000C
FFE5FFF5FFECFFD5FFFD0013000F0011
00270025000C0009FFEC0012FFE5FFF2
000DFFFC000C0045FFFAFFDA000FFFFB
0026FFD000230014FFEB000F00300006
001F000D00230024FFF50012FFD40008
0012FFD2FFE60000FFD4FFE800110008
0021FFF6FFE5FFE2FFE8002500160006
FFEC001F0012FFD9FFD6FFF50009002A
000300130024FFFFFFD9003800290003
0029FFE0FFFB0000FFEDFFEF001C0006
FFED00280041000EFFCD00200010FFF0
0005FFDD0004FFE80020FFEFFFF80007
FFDBFFF800090003002BFFFE00300015
0014FFC3FFFDFFEAFFF10024FFFEFFFF
FFFB002200260014FFFB00050026FFF1
FFF2FFDCFFEEFFD8FFF1FFD4FFE6FFE1
002400110009FFE7FFF00012FFE20007
002400270002000C000B000000230023
FFF70009001FFFEEFFF8FFEA002D0013
FFECFFDC000100200005001DFFE8FFEE
0007FFD6FFE4FFF40012FFD700210014
FFF1FFDB000C0032FFD5002D0017FFE3
FFD30003FFF3FFE70018FFDDFFFFFFD2
002B000C0003FFFCFFDEFFF2000C0008
0020FFFAFFC9FFE900150026FFF9001D
FFE6FFE300100020FFDAFFFC0011003A
002AFFF7001800160015FFFF00160033
0046002C0008002600080020001D0042
FFEFFFFA0025FFE6FFE6FFE300170006
00220003000BFFDC000FFFF10007FFEA
0033000DFFE60016FFF3000F00400006
0008003C0020FFD1FFF4FFD70009FFDA
00120021FFDDFFFA0016FFDEFFEAFFD3
0021FFEDFFFAFFCBFFEF000BFFFFFFEA
002CFFF2FFE90012000DFFD1FFFFFFE3
000700000005FFE20017FFEB0016000C
00050001001D0012FFEFFFE8001CFFF8
0018FFDCFFD70019FFBBFFE50015FFE6
FFF0FFE80019FFE2FFD80009FFD80000
FFD6FFCB001C0009FFDC0002FFFD001E
001100100023000F0024FFEEFFEDFFF6
FFE7FFE0FFDD000E0004FFFC000BFFEF
00060002002B000A0018FFDAFFC80022
FFD8FFE00016001AFFBB00160014FFEB
FFF700120008FFD4FFFFFFED0027FFD8
0030FFDFFFF5FFC60020FFCDFFE1001C
00220001000D0015000FFFDFFFE7FFD7
00160008FFE2FFEEFFF1FFEEFFE2FFD6
0019001EFFF2002BFFF20012001F0011
0000FFFD0018002E0018FFD80014002E
001F0034000FFFEA00100026FFE7001A
FFDF0022002FFFFEFFFE0025FFFCFFDF
0007FFD2FFE5FFC80013FFE0FFFFFFEB
FFE20020FFED000300070001000E0028
000AFFC60001FFD2FFE5FFA9FFE1FFB4
FFFEFFE6FFEF0028FFF7001AFFF5FFF5
FFEAFFF0FFEE001400190002FFD50033
001BFFF6FFEFFFD8FFFFFFF3FFF2FFF3
002FFFD2FFF4FFD4FFFEFFF4FFF70005
FFFF0015FFDB0019FFEDFFFCFFE70005
0002FFD1FFE60004FFF8000EFFFB0008
00310035FFE8000800180023FFDB0037
000B000BFFD5002500060009FFC50039
000AFFFAFFFAFFF0FFD6002FFFFC000D
FFCB0000FFE3FFE50015FFD5FFD6FFFE
FFF1FFDBFFFE003100050021FFF60015
0021FFF5FFEB001BFFE90008003B000D
001CFFD90030FFD9000FFFE00009FFD9
000F0006FFF60034002BFFF8FFFF000F
000400290025FFC3001CFFDFFFBF0001
00000000FFD6001AFFF7001300110038
000FFFF60017FFFBFFD2FFE4FFCB000A
002C0013FFD6001500150020000CFFFD
0024FFE8002BFFECFFE2FFE3FFE90035
FFFA0009FFF2FFD1FFEFFFF0FFE7FFFC
00170015FFF3002BFFFB0020FFF60001
000EFFFC000CFFD3000E00280003FFEC
0008001AFFDFFFE1FFD200010025FFF3
002B00100025FFF1001B002100190017
0025FFE5FFF3FFEF00090003FFE7002E
00070002FFD2001EFFE1000AFFF80028
0014FFB70028FFEF0020FFE8FFF4FFF1
FFF90023FFFF0002FFF40026FFF9FFEB
0025FFE60007001A0042FFEC0022001E
000BFFF80019FFF0FFEC002A0023000D
0028FFE8000BFFF3FFD6000EFFF9001D
000CFFFA00130026FFF9002B0024FFE3
0016000BFFDB0029FFCE0009FFF40008
FFFA000800020016FFE3FFE9001BFFE1
0002FFED000D001EFFEC000CFFE0FFFD
