7F
70
7A
B3
B5
DD
F7
7F
68
4D
E7
24
1D
81
F7
30
CC
81
C4
3C
DD
99
7F
14
21
E3
F6
97
81
CD
CE
81
2B
9E
98
E9
C7
D7
81
3E
F7
2D
67
58
7F
8E
24
A2
81
D4
2F
7F
B3
16
23
9C
21
8E
81
C9
4C
CB
7F
61
F8
FC
27
7F
09
59
E7
11
7F
48
4D
A0
E3
7F
CC
B7
7F
0E
7C
28
46
24
7F
B7
54
C7
70
7F
61
31
7D
54
1D
7F
1E
5E
E0
81
F2
4A
9B
7F
EE
D9
3E
2A
F6
7F
FF
5C
0F
7F
DD
F9
3F
1B
B6
81
35
2C
C8
7F
14
58
2E
7F
65
77
58
7F
29
AF
0F
A0
81
9F
81
9B
D2
DF
BF
A7
1C
C6
0F
81
81
A1
ED
15
00
CC
2A
81
A4
B0
2B
BC
06
81
CF
58
CB
81
1A
89
1C
D7
7F
C2
D2
13
38
EF
7F
25
2F
FB
19
16
7F
81
E4
F1
E9
30
14
42
53
7F
40
F1
57
2A
7F
B3
9A
81
F6
A5
12
81
DF
BC
97
C9
C2
81
DC
B1
0E
81
11
D0
26
9A
F3
79
CC
7F
EF
C9
11
8E
81
0B
DE
09
81
8C
85
81
0B
A8
A5
E1
A6
FC
3E
81
E1
3F
0F
7F
62
29
81
C8
92
2F
8F
58
7F
F9
30
4E
C9
EA
62
4A
7F
40
66
94
9A
81
87
C1
90
09
81
98
81
DF
7E
D7
9D
B3
C5
81
29
7F
B0
4A
1A
BE
4C
81
BA
98
19
1A
DC
81
AA
9C
32
03
2B
7F
6D
D7
7F
55
7F
7F
5C
21
D0
04
7F
7F
12
4C
B2
75
