FFC4
0040
0023
0012
0015
004C
0018
FFC3
FFF5
FFE6
005B
0036
FFD1
0025
FFC6
0026
000D
FFD0
FFFB
FFD1
FFF2
FFFD
0051
FFE6
0039
004D
FFA2
FFC5
FFCF
0016
0051
0038
FFA2
FFEC
FFAE
FFA2
005C
FFB7
0049
0049
FFCD
002B
0058
FFF9
FFCA
002D
0008
005E
003D
FFA6
0002
FFF0
FFA4
FFE3
FFA2
FFBC
0032
0026
FFAD
002C
FFEB
FFBA
FFF9
FFEC
FFA4
FFBD
0000
0056
0017
FFD6
005F
003A
FFC6
FFEF
0001
FFD5
FFE5
FFAD
FFC8
FFF7
FFCC
FFC3
FFCA
0045
004F
FFEA
FFF1
FFA9
FFB4
004D
001E
0030
FFC3
FFD1
000B
001A
FFAE
0023
FFD7
FFD8
FFAC
FFC3
FFD6
0049
FFBD
001F
0007
FFEA
FFB3
0019
0010
005A
001C
FFAB
0047
FFBE
0001
FFC7
0037
0033
0006
004A
FFA0
FFA5
FFE5
002C
001C
0042
0021
000A
0043
0022
FFB8
FFE2
0047
001F
FFEF
FFE9
FFC0
005A
0054
FFC6
FFEA
005C
FFD5
0012
0045
FFD8
001B
0039
0000
0040
FFA6
0041
001F
FFCB
003C
FFB3
005B
000A
FFE5
005A
FFFF
0051
0037
0022
FFF6
FFFD
FFAD
FFBA
002F
FFCF
FFB0
FFF4
0038
000D
FFB0
FFC8
FFC7
FFEF
FFBC
FFD7
FFE4
000B
0006
0050
0057
FFE0
0054
0035
FFA7
004D
0001
FFE8
0000
003D
FFF1
FFDE
0040
0037
FFC2
0060
FFB1
0046
0057
FFB1
FFC6
0038
003C
0034
0028
0051
FFB9
FFB1
FFFC
FFB7
FFF9
FFA4
FFB4
003B
002A
FFD4
FFAA
0037
FFE8
FFF6
0060
0007
0047
003A
FFF9
FFAF
FFF1
003B
0033
FFC4
0021
0059
FFC6
FFC8
FFED
005B
FFDD
FFF2
002D
0004
FFCF
001A
FFD7
FFEA
FFE2
0016
FFBD
FFC5
FFAF
FFE0
0011
FFAA
FFB4
001D
0008
FFE9
FFBB
FFFF
FFB0
004C
FFDE
0055
FFCB
FFF2
0048
FFF6
0037
FFDE
FFFA
0031
FFEA
FFDF
FFFD
0049
0001
FFBA
0014
FFF0
FFB2
0052
FFFA
FFD8
0025
005B
FFAD
FFE0
0040
0029
002D
0039
FFC6
0030
0003
0060
FFE6
0041
FFD7
0043
0035
FFDB
FFE6
0022
FFD7
FFA2
0029
0031
0042
0004
0018
0056
FFB5
0030
FFD8
0016
0037
FFA3
FFB1
FFC6
FFF5
FFBE
001D
FFC0
FFDD
0007
0006
0021
FFAF
004C
0045
0053
0018
FFB5
FFCC
0050
002B
0056
FFFF
0038
FFB5
FFC1
FFDA
FFC8
0041
FFFA
FFAE
FFC7
005A
0009
FFCB
FFCA
0051
FFB0
002E
0027
0006
0054
0034
0049
FFFB
FFA8
FFCF
000E
FFB8
FFF0
FFEE
0016
FFD0
FFC7
FFC0
FFCF
FFAB
FFC5
FFEB
FFA2
0055
FFFF
FFDE
0025
FFE2
FFC7
FFBC
002F
0017
FFA5
FFB9
FFB3
0050
0012
0033
FFE5
0010
0059
0040
FFEA
0055
FFF6
FFE9
0040
FFFC
FFAA
0035
FFC6
0053
FFFC
005F
FFB2
FFFD
0016
0010
000E
FFF1
FFC8
FFDC
FFB6
FFC0
0044
FFB3
0045
0002
0021
000B
FFB5
0047
FFD1
FFBE
FFC7
FFE2
FFF9
FFB8
0032
FFD8
0056
FFB9
FFAC
000A
004E
0028
FFD2
FFC4
FFC5
0005
0007
005E
0039
FFE2
000B
FFDE
0029
0043
0001
0012
FFD3
0023
FFF7
FFA0
FFE7
FFAB
004A
0017
002B
FFD3
005B
FFE6
FFFE
003F
0025
FFBB
003F
0032
002E
0042
FFE8
001E
0043
FFEB
FFD1
001F
FFEA
001A
FFCB
0029
004E
002E
FFCF
0016
0011
FFFC
FFE6
FFC5
003A
FFA1
0010
FFFB
FFB7
FFBA
FFB7
FFF5
FFEE
FFD0
FFE0
0037
000A
003B
FFF0
0002
FFCF
FFBB
FFFA
FFEC
001F
003D
0008
001E
0028
005E
0013
0053
0032
0058
0026
0049
FFBA
FFCB
0043
0032
0003
FFFC
FFC1
FFA5
FFCA
FFFF
FFD8
0022
0032
0029
001C
000F
003D
FFA3
FFFB
0034
0032
0033
0006
FFDD
FFA6
0020
005E
0056
FFF8
FFE3
FFAF
001E
000A
0053
FFC4
FFB3
FFD7
002D
001C
0056
0048
0054
FFD2
FFFB
FFC4
0060
0056
FFD1
0013
001A
0044
FFC9
0006
0057
FFFD
0028
0049
0042
FFA0
0025
0033
0036
0023
0054
0042
FFD6
FFE9
FFAB
0051
0031
FFD6
FFA8
000C
0036
002D
FFD2
FFFA
0052
0037
FFAA
FFA9
FFF2
FFB5
FFF5
FFDF
FFBB
FFF8
FFB9
FFBF
0055
FFC2
FFE1
004A
FFB0
001C
004B
FFCE
005A
003E
0039
0047
0015
0008
0058
FFA5
000C
0043
FFB9
0046
FFE0
FFA4
FFFD
FFD4
0052
FFD7
0035
FFBD
002C
FFC6
FFBF
0060
FFFA
FFC1
FFFF
0041
FFB7
0039
004D
0038
FFF1
0020
0004
FFFA
FFDC
000D
FFA9
0023
002E
002F
0033
004D
001D
0025
FFEF
0052
FFA2
FFB6
0048
005B
002E
0033
0034
FFC3
FFB1
0003
FFCB
FFB8
FFB3
FFF2
FFBB
0020
0040
004B
FFF9
005D
0054
FFA7
FFC2
0014
FFAE
0031
FFBD
002D
FFBA
FFE3
0014
FFD8
0001
FFF7
FFB5
000C
FFA7
0023
FFCA
FFF6
0048
0043
FFF0
FFD4
FFED
FFBD
0060
004A
0031
FFD1
FFDA
FFA1
FFBB
000C
0013
FFBD
FFAD
0029
FFBF
0044
002D
FFD2
0040
FFA4
0009
FFE2
005D
0029
FFDB
FFB5
FFFE
FFFA
FFE8
FFD4
0018
FFE1
FFFC
FFB6
FFB0
FFBE
FFBA
0023
0039
FFE7
004E
0025
FFA9
FFB2
0029
FFED
0007
FFEC
FFC8
0003
FFB7
0014
FFC2
FFA0
FFB0
004C
FFDA
FFF1
FFC5
FFFF
FFB1
0042
0041
0009
0041
FFC7
0042
003E
000F
0058
003C
0022
FFD1
002D
0037
004F
FFA8
0057
0014
004F
FFC5
FFA6
004C
001D
004C
0046
005B
FFFC
FFE6
0006
FFFF
0010
FFC8
0006
0025
001A
0052
0033
FFAE
FFE2
0010
FFCA
001D
0057
FFCA
FFA5
FFCD
0034
001F
FFEE
FFCD
FFE1
FFA2
0014
0021
FFD5
0006
FFC1
004E
FFE9
FFF7
0021
FFE0
FFD0
0050
0006
0011
002D
FFC5
0037
002A
0057
004C
FFB6
FFC8
003F
004B
FFF0
FFF1
FFD4
FFAB
FFAB
0042
001F
001C
FFA1
FFA2
003C
FFCE
005E
001C
0046
FFD5
005A
0055
004D
FFB9
0002
FFF2
FFEF
0042
002F
0050
001D
005D
0028
0028
FFDB
FFB2
000F
FFA6
FFD6
FFDE
FFEA
0054
005C
FFD1
0013
FFAF
0002
002D
0011
FFBF
002E
FFB8
FFE7
FFAA
001C
FFD6
0041
FFC6
001D
FFCC
0048
FFCE
FFFE
0043
002E
0057
FFD8
0046
0028
004E
FFFE
FFDC
FFFD
FFD9
000E
0048
FFC5
0047
0014
004C
FFAF
004A
FFF5
0031
004F
0007
003C
FFB9
FFC2
0014
FFE1
0024
0058
003B
FFE0
0000
FFF7
0031
0032
005E
005F
0027
FFD3
0033
FFB6
FFC5
FFC1
FFED
FFC7
FFC8
0054
FFC0
0004
0049
FFA6
FFD5
0022
FFF0
FFDB
FFF2
002E
0036
FFA4
FFC8
FFBE
FFBA
004C
FFC4
0038
0049
0011
FFB5
004B
FFE0
001C
FFAB
FFCC
FFA7
FFA9
FFE2
004D
FFA5
FFBD
005D
FFB7
003D
FFC1
FFF4
FFFE
FFAC
0000
004F
FFE0
FFFF
FFAB
004E
0022
FFD7
FFB9
0011
FFC7
002B
FFC9
FFE9
004C
000E
000B
0040
FFD4
002C
FFE0
002F
0000
FFB2
0059
FFD0
FFA5
005F
0013
FFB9
FFFD
FFC7
0017
004A
001F
FFAE
FFB8
FFB1
0051
0043
FFB3
0006
0040
0052
0026
FFD2
004B
FFCA
FFB6
FFCC
003A
FFFC
FFC2
0007
FFCD
FFAD
FFF1
0004
003F
0004
FFD5
0020
0060
FFE4
003A
0008
FFEA
FFA3
FFF1
FFA0
001E
FFFB
002B
005D
FFBD
000E
FFFB
FFC0
FFBB
FFC6
FFB0
0046
FFE8
FFED
0036
FFAE
0059
FFA4
FFE9
003B
FFA1
004F
003E
FFE1
004F
FFA4
0041
FFE5
0050
0040
005F
0006
003E
0051
0017
FFEF
0046
0046
FFCA
0004
FFC9
005A
0050
FFAF
0054
000C
0055
FFD4
0060
0017
FFB6
