30
F7
15
E0
99
E2
D4
14
F7
2D
1E
06
F7
E7
E0
C3
F6
81
3F
B8
58
F2
1E
EC
C2
F2
3C
1F
4F
E5
62
19
FF
F2
12
64
F7
A9
D6
D9
49
AD
A7
29
39
0E
16
1B
3A
D2
C8
59
40
B5
81
22
00
1C
3F
40
0D
24
23
B3
13
17
AC
B5
1F
27
08
EC
5F
CA
C0
45
1A
38
39
02
5A
81
B6
05
C8
CE
4A
45
FD
43
B4
FE
55
13
AD
B4
CF
76
25
3D
C0
D4
F7
3B
10
A0
39
D8
C3
10
B7
24
E1
E2
30
D9
F1
E9
DC
FB
F5
CC
53
C7
0C
DF
99
96
08
0B
B0
D9
9E
4A
6B
2E
CF
55
7F
00
EE
22
19
F4
CB
D2
0B
A6
0C
F2
F6
C6
F7
7F
15
CA
A7
3A
4F
AD
C1
2A
DB
B5
44
D6
F6
CD
4A
14
42
EB
6F
1F
DF
13
BA
03
4B
D5
2A
16
1D
43
FA
E4
A0
FE
14
17
49
66
4C
81
13
21
1D
F2
38
CF
30
39
DE
C7
8C
EC
2E
2F
E6
16
E1
1C
E4
50
F7
DD
31
ED
F6
EA
12
02
C7
05
20
E8
34
0D
C0
A4
B9
F1
1D
70
7F
21
08
CE
20
E0
0B
0E
E2
BD
FC
61
E2
9E
EB
7C
21
DC
F2
78
94
17
FD
2B
AF
D7
DD
7F
09
88
2D
2B
E8
CB
E2
72
96
D4
E1
56
E5
1B
0C
F1
3C
0D
3B
48
9D
D6
81
E6
BC
B3
46
CC
F2
E7
CD
35
DD
30
D0
74
EA
55
52
53
14
7C
1C
16
17
DB
0D
AD
35
8F
9E
FA
39
3B
96
67
7F
DF
2A
CA
E6
84
CE
08
4C
44
1A
EB
67
64
C3
AA
DD
F0
B3
ED
F5
AA
7A
5F
40
16
B9
DA
09
2B
B3
1A
BD
C2
A5
FE
85
CE
04
3B
DE
49
6D
15
E3
22
55
FD
A8
3B
A1
9B
7C
0B
43
D5
2D
C4
A2
7F
3C
1A
DF
D8
13
39
1A
1F
03
49
44
50
19
CA
CC
C4
3B
D7
D6
D2
19
0A
E8
16
16
81
21
73
BB
0C
17
38
23
E5
ED
58
EE
B7
93
98
24
2D
DA
E8
03
1A
16
BC
4D
5E
B1
3E
BC
CE
02
FE
5F
05
2D
CF
BE
F2
23
F3
A4
AF
01
54
EA
81
12
53
EA
F9
40
0D
1C
3D
06
1C
C6
7F
B4
0D
09
01
92
F3
FB
39
F1
5B
2C
90
A4
43
0A
06
5F
45
D6
ED
50
11
0A
B7
46
EB
3E
1E
E8
95
1A
7B
0F
FC
C4
68
4A
CE
99
EA
E0
ED
62
FE
39
39
4B
3B
AF
B1
0D
AF
3A
C9
5A
4D
B5
81
D3
C6
B6
33
25
05
05
1A
13
05
4D
15
D4
40
E9
B8
45
33
04
B9
5A
F1
CA
AC
C9
74
6B
05
42
76
47
ED
59
EF
FC
0A
D3
75
C6
01
81
A4
46
61
91
B9
26
EF
A5
FE
BC
F5
16
F7
F2
6D
81
3D
3E
44
B4
0E
A0
46
E1
2A
28
ED
E5
03
53
CB
C1
D0
FD
2F
E3
18
7F
BE
C3
2B
DA
05
91
29
E7
E1
26
E5
FE
34
34
EE
4B
42
C8
EE
35
FE
AF
BC
BA
4D
1A
C3
36
7F
C1
CA
3A
C8
99
21
D6
06
CB
2F
BB
4A
D7
F4
65
40
C3
E2
47
A8
E3
37
DB
48
DD
E9
25
BC
F6
5B
10
D3
7F
C1
09
CE
E1
0D
3E
B5
81
12
F5
D4
11
F3
EC
0E
08
00
FF
EA
57
58
4E
56
06
1C
D8
D7
05
ED
9E
9A
0C
1C
1F
2B
2E
2B
4D
EB
EB
F7
23
06
B7
8E
A5
F8
4D
F2
F3
EA
4C
41
EA
E7
1F
8D
22
F0
B1
47
BD
5C
6D
40
49
0E
35
EB
81
C0
0E
4D
DF
07
FD
F0
9D
52
E0
1E
D1
F2
F6
D4
CF
2A
D9
63
34
2C
08
BC
D3
BD
46
71
2E
ED
00
F8
60
81
91
19
0F
F3
F5
AE
03
C0
E8
44
B4
60
CD
39
DA
53
DC
FB
CB
43
98
34
09
DD
F5
DD
C3
CA
D5
08
1C
FB
45
01
7B
4A
81
15
F0
26
82
EC
A5
81
A0
BA
BA
49
2E
29
0B
2C
1D
81
BD
08
D1
E9
27
1D
DF
5E
ED
F3
FA
9E
66
D0
CE
53
14
B8
3F
10
A7
D6
05
86
28
24
36
19
B7
13
0D
EA
B6
2B
7F
E1
FB
08
E9
2F
FE
D2
A7
C3
F8
09
ED
17
4D
12
EB
0B
FB
C1
33
42
17
D6
E2
95
1B
82
B1
6A
05
42
FC
07
F0
5B
C2
A1
CB
1C
C9
15
FC
AC
7F
B1
2E
1E
D1
D6
5C
24
D2
B3
94
49
D9
60
4E
76
13
4B
DC
D1
C8
81
B0
38
33
E9
9A
2E
4C
6A
13
EE
31
F6
16
1A
45
0E
C1
F6
19
92
0F
BF
84
BE
68
6B
5E
5E
0C
4B
19
C3
35
E7
D1
3D
7F
59
FD
B0
4C
0C
30
F7
3A
FB
50
2F
ED
4A
67
9B
34
33
54
18
C7
00
E0
97
14
49
F1
38
D7
20
37
F5
C0
BC
3D
A3
E6
21
DD
1D
C4
18
42
EA
F3
DD
F8
4E
26
1F
E2
F5
16
6A
E3
0B
D2
2B
F2
BD
81
B8
BB
1C
93
AB
4B
A5
C9
D1
DD
70
FB
D3
62
7C
43
26
3A
52
63
2D
A3
A4
EB
F9
7D
AA
D9
23
00
CD
E2
81
B4
CA
C9
5C
0A
DD
D5
91
9A
FD
B8
02
33
4E
A4
D8
7F
08
98
B4
FC
DD
34
A7
05
F9
E3
E9
53
48
71
0B
49
D4
0D
95
91
87
D6
EC
3B
D7
2A
E9
31
FB
DD
F9
A7
E8
EC
EC
7F
3D
1F
21
B8
CD
ED
E3
EA
34
D7
15
27
DE
18
DE
05
1E
0F
E8
DE
22
