FF91
0179
0029
0013
0006
FFDF
0090
00C7
007B
FFEC
FE33
01E4
FEEE
FFD7
00C7
0254
FFF8
0031
0161
0129
FF5F
01EB
0061
FFDD
010A
00CF
00BC
0269
013A
0145
0043
0168
000A
011F
0049
0123
FF6F
00E4
0126
005B
0021
021C
0035
FF28
0142
FF34
FF50
007E
0147
FFB8
FF4A
016B
0122
FF62
FEE6
FF5D
FF14
00EF
0125
FDE9
01F7
00B3
01C0
FF36
FFE2
0113
000A
008C
FED9
FF6B
00A8
02CF
0000
031D
0058
004C
015A
00A2
FDE4
009C
FFAA
00D5
FEC7
00C9
FFF5
FF70
FFF9
FEFB
FF6F
01E4
026F
0174
0066
FF83
FFB3
FF50
