memory_initialization_radix=16;
memory_initialization_vector=
0004FFF10013FFFEFFFD0017FFF600190001FFF9FFEB0010,
000FFFE8FFF5000CFFDD001AFFFB0001FFD6000400020000,
0018FFEDFFF3FFF8FFE8FFFC0006FFE30005000A0017FFF5,
FFEAFFFAFFF7000BFFE5000BFFFE0003FFF3FFFBFFEF0000,
0017FFEF000AFFFCFFFBFFEE0015000AFFE30006FFED0018,
FFEA0017001100230007002AFFF80010FFF70001FFF90006,
002900080001001AFFFB00110020FFCF0007000C00200006,
0005FFF7FFFA0010FFFCFFFA0006FFEB0005000300120016,
0006FFFAFFEFFFEA0012FFF60032FFE90013FFDF000BFFE6,
0009FFF9FFFDFFF5FFF5000BFFEB002CFFE7FFF00004FFF6,
00010006FFF80019FFE4000800220023FFFEFFE6FFFE000B,
FFFEFFEEFFF9FFF00004FFD7FFFD00280003FFE1FFF7FFD9,
FFEF000E0001FFED0003FFE6001100100012FFF30006FFF2,
FFEB000BFFDFFFF1FFEEFFF7FFD4002DFFE60005FFE8FFE2,
00270007FFF60011FFDC001C0001FFF0FFF0FFF500250013,
0014000200000019FFF7001BFFE7000100010020000C0002,
FFDB0008FFE0FFEF0024FFE1FFF1000D0008FFD9FFD6FFFD,
FFFB000CFFEE000B001B0014000D00040008FFFE00100006,
FFF9FFF00001FFEEFFD8FFFD00200001FFD10006FFF7FFFB,
FFE8FFEEFFC40009FFE00007FFB70028FFE9FFF6FFCFFFED,
FFE900170007FFF9000CFFF80004000E0007FFFFFFF1FFF7,
FFF7000DFFF1FFDB0005FFE3FFEE00070000FFF5FFF8FFF0,
0010001A000AFFF40008FFDF0001FFFDFFE9001500140003,
00160000FFE6FFF9000A0009001100270000FFCCFFEDFFE2,
000D000BFFFBFFE90007000E0014FFFE000AFFF30010FFEA,
FFE900000014000DFFF4001E0006FFFBFFE40037000F0033,
0004001F002300050011FFEDFFF3FFE4002BFFF5FFEE0019,
FFF4000A0003000EFFF6001D00030003000C0019FFFA002E,
FFEA0003002F000AFFF5001BFFCFFFE0001B0036FFF40030,
FFE3FFDDFFEA000BFFE90002FFF2FFF2FFDE0007FFEE0007,
000000180001FFEF0017FFE1FFDD00000013FFE3FFDEFFEF,
003BFFE8FFEAFFEE000FFFF20018000DFFF1FFF1002DFFD7,
FFE500190009FFE7FFFF0005FFF6FFF1001FFFFC00030005,
FFFCFFE5FFE5FFF9FFF1FFFB0005000DFFF90004001F0008,
FFEB0018FFE2FFEF00040013FFE8FFFCFFEDFFFDFFF0001A,
FFFC000F0002FFF70003FFE9FFF2001E00110016FFE5FFF6,
FFD80036001C0019FFEF0007FFE30013000D002FFFF9001A,
FFF0000E0016FFF2FFF5FFF8FFFFFFE4FFEE001700060007,
FFF5FFF6FFE00003FFF90014001C001EFFE3FFE70014FFEA,
FFED0009000500200006FFF8FFF5FFCE00120001FFEEFFF7,
000FFFF60015FFF20014FFEF0000000E001B00020002FFF2,
0007FFD3FFFBFFE1FFF8FFE5FFF3001DFFFEFFECFFEAFFE2,
FFEEFFE20015001AFFF30011FFE0FFEFFFF40011000E000B,
001E0003FFEB0031FFF50017000B0014FFE7FFF7001CFFF6,
0011FFF6001D0003FFF000030004FFF4FFE2FFFF0012FFE3,
FFF4FFF1FFEDFFE40027000FFFFCFFEC00060008FFEE002B,
FFD3FFEA00110014FFFAFFFF0017FFF1FFFFFFF5FFF7FFFF,
0017FFD8FFEC0009FFF7FFF5001CFFF1FFDCFFEC0018FFE3,
FFEFFFFD000E0012FFF40009FFECFFE20012001BFFFB000A,
000E000E001600040017FFF0000700100016000B00090002,
FFFC001300310005001EFFF7FFE2000E001F001E00080013,
001BFFE70006FFF4FFE700020014FFEE00050018001EFFF9,
FFF0FFFF0022001B0001000C000AFFE80019001D001A001D,
000FFFFBFFFAFFF0000BFFF2000B00130001001E00070011,
FFFB0004FFEAFFE50022FFF2FFE7000F0007000DFFDD0000,
00000000FFED00000005000CFFFF00030018FFFB00090009,
FFFBFFE4FFEC000DFFEA00070017FFEEFFE3FFF700100007,
FFED00150002FFEF000BFFFAFFF20011FFFFFFF8FFFC0017,
0022FFE9FFF0000AFFFAFFFB000C0006FFF000000000FFEC,
FFF0000B0007001DFFFA000CFFFFFFFEFFFDFFFF00100014,
FFF300120020002300080001001CFFD7001F00230011001C,
FFF3000A0003FFEB00130004FFD3FFF60019FFFEFFDC0009,
FFF90008FFFF0009FFEB00130009000DFFF6FFF00008FFF2,
0002002E002100120006000DFFDCFFF8000E0005FFF50014,
0014000EFFF50008FFF7FFFC00000006FFF8001600040018,
00050010FFF3FFD90008FFEEFFF30010FFEC00160003FFFB,
0003FFF9FFFE0009000500040018000FFFFC0010FFF7FFF9,
FFFA00110004FFF8FFF5FFF9FFF200100009FFF3FFEBFFFC,
0004FFF3000000160007FFEF0012FFF4FFEE0004FFFF0015,
000C0026FFEFFFFAFFDFFFE5000C0004FFF100140024FFF3,
FFEBFFF4FFFDFFE80029FFF5002AFFDD0004000B0020FFF7,
FFF6FFDD0003FFFCFFFDFFEEFFF6FFD8FFDA0011FFF30006,
FFEF000100020007001FFFF70006FFECFFE70007FFF30019,
0027001B0024001BFFE8FFF8FFF80012003CFFE6FFE6FFFD,
001B000500200012FFFCFFFC0025FFFA0024FFE800020016,
FFF9FFF8002D0011FFF7000BFFD800030008FFD6FFC50009,
0009FFE400100015FFF30008FFF2FFF90008FFF2FFE30018,
FFFD0018FFF2000BFFE0FFEEFFE000270015FFE20003FFFB,
FFFBFFFB0005FFD30014FFE100290000FFEE001D000CFFF3,
00090030001100020003FFFA0013000C000C00090005FFF9,
00200015FFFA0016FFE00014FFDF000C0020FFD1FFE4001D,
0015000D000000110015FFEE00080005000D0001FFFFFFF4,
0006FFF8FFE6FFFCFFFEFFD20008FFF6FFE60019FFF5000F,
0019002AFFF80009FFD5FFE4FFE4003E0005FFFEFFE7FFFA,
0002FFE7FFE7001000040002FFFBFFE8000A0008FFE10010,
0003FFF800020007FFEEFFF4FFE7001E0004FFEEFFE1001C,
0019FFFFFFF7FFFB0011FFEC0001FFF3FFE50000000DFFF7,
001B001D0010001500100003002400100009FFE1FFFD0029,
FFFB000C0006FFF0001B000E0017FFFD001DFFEFFFE60018,
FFFA000AFFE6FFEBFFF1FFE4FFF8FFECFFFB001B000FFFE6,
FFC6FFEAFFF3FFF9000A0011FFF3FFC7FFDDFFF4000EFFFF,
FFF20016000DFFF6FFFA0017000A0011FFEA0020000EFFCA,
FFFBFFF7FFD6FFD8FFF8FFEEFFF6FFF3FFF700290018FFD6,
000B0007FFEBFFFBFFF4FFDFFFE40016FFFC00140019000A,
000FFFFD0002000EFFE80010FFE8000A001CFFEBFFEB0006,
0017FFFE002EFFF6002E000E00300023002CFFF4000A0004,
FFD7FFDC000AFFE8FFEF0026FFF1FFF90005FFEFFFFA0011,
FFF7000F0016000900070001FFF7FFFA001A00090000000C,
FFFF0011FFF00008FFF4FFEDFFDF000EFFF4FFF2FFE30007,
FFE2FFD8FFECFFF6FFFB0026FFE8FFEAFFFD00100004FFE6,
000D002FFFFC001EFFD7FFF3FFEF0010001500100020FFF8,
FFE70022FFFEFFFD000F0013FFFE0004000D00080007FFF6,
0021FFF2001DFFF2001AFFED0005000EFFFDFFE7001DFFFF,
FFE7FFEDFFEDFFDDFFF00004001AFFEFFFDC000C000B000B,
FFF8FFE5001F000F000B00170005FFED0021FFF60017000A,
FFFC000F00090009000A0000FFF9FFFCFFFBFFFDFFFAFFF8,
FFEA000FFFFF000DFFE10007FFEC000C0019000E0014FFE7,
001C002C000C0002FFFFFFF0001E0014001B00070024000F,
00140006001000180025FFF2000900230011FFF800110017,
FFF0FFEDFFE3FFEF0006000B000AFFF90009FFECFFDB000A,
FFDAFFF5FFD0FFF0FFF60000FFED0000FFEFFFEB0007FFFD,
FFFE0005000BFFE70022FFE20009FFF900190002FFF4001C,
FFFD000DFFFEFFE3FFEE0008FFDCFFEBFFE80028FFF1FFFA,
FFFBFFE40017001D000CFFFA001FFFE5000E0000FFF20009,
FFF0FFF7FFEB00060012002AFFF1FFE10009002FFFE2FFF8,
0000002B000CFFF40014FFE20012000800170017FFF6FFEC,
FFF3FFEE0005000300030003001A0008FFDEFFEF000C0011,
0002FFF00012001F000D0011FFFCFFF5001BFFF8FFF8001F,
FFEDFFF100050004FFEE0010FFDAFFF2FFFA0001FFE8FFDA,
FFEA001300270012FFF1FFF3FFF40006001DFFF3FFF90015,
FFFD000F001500000015FFE30006FFEEFFFFFFFB0014001A,
0004FFF8FFE9000C000C000BFFF2FFEAFFED0014FFFC000F,
0001001E001C0010000EFFFD0002000300160014FFFA0011,
0000FFF5FFE4FFDBFFFBFFF1FFFBFFE7FFE6000F0017FFDA,
FFBDFFE3FFD2FFD1FFEEFFFC000BFFD4FFDD00030026FFF4,
FFF0FFF8FFFE000DFFE40006FFF5FFEFFFF4000D0001FFFA,
FFFE000EFFFFFFFAFFFEFFF1FFFA0021FFF1FFF2FFF70002,
FFF7FFF50015000A000F0001FFE7000A0011000F00090005,
FFF9FFFCFFE7001300060001FFF20013FFEE000B000E002A,
0011FFEA00150004000C0002FFF2FFFFFFE3FFE8000A002A,
000B000BFFE4FFEA0023000F000AFFF6FFFCFFFCFFFDFFFE,
FFFB00110023FFF6FFFEFFF6FFF80008FFF3FFF5FFFC0016,
000D002300120014FFE70011FFF00010FFFFFFF3FFDAFFD6,
FFD9FFF00011FFF1FFEE001000030027FFFA000D00210014,
0015FFEEFFDEFFF50029000D00010012FFF1FFE10017FFFC,
000BFFFEFFF300130002000CFFFEFFFDFFECFFDFFFEEFFF6,
00270021FFEFFFF30011FFF70001FFE2000F0007FFF1FFC6,
FFFBFFE80011FFF1000AFFF0FFF7FFE6FFFE001CFFE90006,
0008000A0010FFF10017FFF8FFDE000F0000000B001EFFFD,
001E0016000600120003FFDF000FFFE500340025FFF1FFDF,
FFFEFFECFFE0FFEA0007FFE30016FFEBFFFF0006FFD2FFFC,
FFF5FFF70016FFF4FFCCFFF9FFF5FFF1FFEC0015FFEF000B,
FFF1FFF10000FFEE001E0004FFE50018FFE3FFE70018000D,
000D000C0020000FFFFF0009FFFD0002FFEC000700040026,
FFEEFFED0005FFEDFFFCFFDE001C00090015000AFFD70007,
FFF8FFEA002300030006FFF0FFE2FFEE0006FFF400210007,
000600170022001500070011FFDA001EFFE2FFE0FFF60005,
FFE700280039000CFFD10014FFE9FFF6FFEE001EFFFB000A,
FFE00006000CFFF8FFE2FFF20006000B0010000F0004FFE7,
0005FFF8FFEDFFF8FFE5FFDFFFFCFFF400060016FFCFFFE9,
0006FFFEFFF90004001CFFF5FFEB0004FFF3FFE6FFEB000B,
000C00040005FFFCFFFCFFEF001C0006FFFE0013FFEFFFFC,
000AFFF5FFF7FFFA001BFFFE000E001A001000010000FFF7,
FFDDFFF80019001DFFE60033FFDBFFFDFFEFFFFD0005001F,
FFFE0014FFED002FFFF300030022FFF50011FFF70004FFE9,
FFD7FFE20002FFEEFFF700230008001BFFF0FFF00006001B,
FFF8001900020026FFF0001900010010FFE2FFE20009001D,
0015FFEF0012000D0019001BFFDDFFFDFFE9FFF20002000E,
FFFA0014FFF4FFFB0004FFD50024000D0026000BFFEA000E,
0021FFE8FFF1FFC6002DFFF5001C00140016000CFFF80003,
FFFC000FFFFE00140004FFFB0022FFEA001C0012FFFEFFFB,
002A000F002300040014FFFDFFEAFFF500080013FFF70018,
FFFD000F001F0001FFF7000BFFE300010000FFFEFFEA000E,
FFF7FFF7FFF90003FFF20011FFFFFFEDFFED0015FFF1FFF8,
FFFDFFE2FFFEFFF4FFF30029FFE70015FFEE001C001D0048,
0006FFDA00070009001E00170013000DFFFC0005FFF60016,
00060008FFF000160020FFEEFFE6FFE8FFED001CFFFF000F,
FFD30000FFE00008FFFC0009000DFFEAFFE9FFEE000CFFEE,
FFFDFFF2FFE7FFF5FFF2FFE8000FFFE800230004FFDCFFD5,
FFFB0008002A0022FFEB0000FFFAFFDD00090025FFF50013,
FFF400190006FFFDFFF90024FFEE0016FFF7000100060007,
000100000007FFF70013FFFAFFFA0013FFFC000F002A0019,
001A0004FFF8FFF2001FFFEDFFFC001BFFE30009FFF5FFF9,
FFF8000B0009FFFC0003FFE80004FFFF0001FFF2FFED000A,
FFFA0027000A000DFFFAFFE8000E001CFFF1FFFA00110011,
00380017001AFFFB0022FFFEFFE500160005FFFE0005FFFE,
FFE6000B000D0003FFEA0022FFFD0002000DFFF8001B0028,
000F000D0003FFF00008FFDF0006FFFB001B0002FFF1FFE6,
FFEEFFF4001DFFFBFFE20003002D0027001B000E0003FFE8,
FFF7FFDFFFF9FFEB0005001BFFE9000EFFF3000D0011FFF9,
FFFDFFF5FFD6FFE3000E000D000A001EFFDEFFEE0018FFE7,
FFFB00130006001D000800030004FFDC000C0022FFD2FFFA,
FFF5FFDCFFFCFFEEFFDC00150001000E00230002FFF50007,
001600070019FFFFFFFB0003FFEC00060008001C000AFFFA,
001A000800070019001CFFFDFFEFFFEA00020004FFFA0011,
FFF600070000000AFFF4FFEFFFECFFFD00040003FFFB000F,
001C000F00270008FFF90009FFFA00190013000E00030000,
FFEDFFFD00180003FFF90009FFE6001FFFF3FFE1001EFFFB,
FFDBFFFEFFFFFFE4FFE20006000E0005FFEEFFE80000FFEF,
00000005FFFCFFF9FFD0FFF7000CFFE90019000B0004FFF3,
0007FFEEFFFAFFEF000EFFF9FFF10021FFEBFFFA001B000B,
000FFFD6FFF5FFEC0012FFFA0006002E0003000D00050014,
0016FFF6000AFFE6FFFC000D000B00050008001A0011FFEF,
0011FFEC0022FFD1FFEE000400000010000C001E00140000,
FFF5FFF70019002E0009FFED001A0004FFF4FFD9001B000D,
0013FFF5000DFFF30003FFEEFFEF00000002FFF200010002,
FFFB0013FFFE0007001400040007FFFC0003000C000B0020,
FFF20016FFE80012FFEEFFE5FFF6FFE3FFF5FFF3000A002C,
FFD7FFF70012FFEFFFF1FFF0FFF6FFE7FFF7000D000E0002,
FFE0FFFEFFFEFFFBFFFD000BFFE7FFF9001700080011FFE0,
0018FFFCFFFB00040029FFEDFFFD002E0016FFE7FFF0FFEF,
FFEFFFEAFFF8FFFFFFEFFFD1001EFFF6FFD2001CFFF30017,
000DFFEF0000FFFDFFFD00040006FFF9FFED0014000BFFFB,
00230003FFFB00320024FFEB003B001B0008FFFBFFD6FFF2,
FFE5000FFFFC00130014FFD10000FFF0FFF8000CFFF20008,
0012FFE900050003FFF6FFDCFFF90011000C0005FFE4FFEE,
FFD6FFEBFFFBFFFCFFE20003FFECFFD7FFE200160020001D,
0001FFDCFFFFFFF5FFFE0008FFFAFFF9000AFFE80026FFE7,
000BFFF8FFDF00260005FFDF00010000FFF5FFEAFFDAFFE9,
001500110000FFD30008FFF3FFF60006FFE6FFE3FFEA0009,
0011FFFA000DFFF3FFFCFFFEFFDD001D001700060000FFFD,
002FFFD2FFC4FFCCFFFFFFFEFFD800210013FFFEFFF3001D,
FFFA000DFFF7FFF3000E001500040006FFFCFFF9FFF5FFF7,
00030002FFEA0023FFFDFFEA00170002FFFAFFF5FFDAFFE1,
FFF20002FFFAFFFAFFF9FFF8FFE10015FFE0FFFEFFEC0028,
FFFBFFE80007FFF5FFD9FFDDFFDB0003FFE0000BFFF2FFF6,
0007FFEC0008FFF2FFF1000B0005FFFF0003000FFFE2FFF5,
FFF30009000AFFDCFFF70017000AFFEC000BFFF800190001,
0002002E0020FFF0003B001A001A000C0006FFD20001000A,
FFFF0008FFD00029FFD6FFFD00150001FFEAFFF1FFFDFFF9,
FFFF0017FFF5FFFF00260020FFD4FFFF0014FFFF0033FFFA,
001BFFCB0009FFD6FFE8FFFEFFDC0008001CFFFDFFFBFFF2,
FFF40022FFDF000FFFF0000C0029FFFB0003000FFFF50016,
FFE2FFFFFFFC0008FFDC0000000DFFE9FFDA001A0002FFEF,
001D00070019001FFFF70018000500220002FFE8FFF8FFE8,
0010FFED0009FFF5FFE8000F0008000700200003FFFF0014,
000D0002000BFFD90007FFFEFFF600030005FFF2FFF4FFF6,
0017FFFD0011FFED000F0015000300220012000200110009,
00070023FFDDFFFD002100010001FFF0001000030014002B,
FFF9FFECFFEC000BFFFE00180009FFEBFFE0FFEF0001001E,
FFFEFFE20025FFF8FFEFFFF6FFEA0007FFEA000CFFEBFFE2,
FFF20006FFF5000E000F0002FFE2FFE0FFFDFFFAFFF9FFF0,
FFFD0018FFE8001DFFFDFFEC000E0005FFEA0004FFFE0009,
002FFFFDFFF2FFF90015FFE300180027FFFEFFE3FFDEFFDA,
0012FFE3FFDC0007000A000AFFF10004FFF3FFE6000AFFD7,
0000FFEE00030006FFDCFFFF0006FFF8FFFF002300120016,
FFFBFFF0001600080018000A0006FFFDFFF800060002FFF8,
FFFA0000FFFBFFFCFFF4000A000AFFF4FFFDFFDCFFF20002,
002600170019FFF50026000DFFFD0011002FFFDBFFEC0003,
0025FFD7FFF7FFF1FFEE0006FFFC001D0016001B0003FFF1,
0004FFF30005FFD900210026FFEAFFFE0017FFE100280002,
0002000E00150021FFF90009FFF7001700030013FFE80002,
FFEF0007FFEAFFFAFFF7FFEF00020009000C000C0018000C,
FFE2FFE0000EFFEEFFE2FFE6FFECFFDFFFD70003FFF4FFF7,
FFF90018FFF60004FFFDFFFFFFE5FFF4FFFD0008FFFF0017,
0006FFF1000AFFE90009001AFFFC00030007FFF300020013,
FFED0009FFF600000012FFEB0010FFDBFFEF0015FFF60004,
00190008FFFFFFF00011FFEFFFF7000DFFF70006FFF3FFD6,
00020007002AFFEA0008FFFB00060010FFFFFFECFFF1FFCE,
0008FFFD0009FFF5FFEF001400000006000A00060020001B,
0010FFEEFFFFFFFC001D0013001600060029000800110000,
FFF6000A000F000A00080018FFF90003001300130018FFFE,
FFCE0028000AFFEFFFFC001E0008FFDC000EFFEB0011FFF5,
FFF50024FFDB0009FFFD0016001CFFFDFFFFFFE40009FFFD,
FFF8FFF8000FFFF2FFE0FFEFFFF9FFFCFFE6000BFFF0000C,
FFEC0004FFF8000B0005FFF1FFFDFFE8FFDAFFFB00150000,
0004FFF6001600090004FFFBFFFD000E0009000D000F0024,
FFE3FFF4002300100018000A00050027FFF0FFF8FFF20029,
FFF30008000900070000000A0006000C0019FFF0FFEBFFFE,
0004FFF8FFF8FFFBFFF3FFFD0009FFF90001000100030007,
000AFFF40004FFFAFFF700020019FFEFFFE9000B0022FFEF,
0016FFEF002A0006FFD6FFD9FFF1002C001CFFFBFFF40033,
FFF5FFFE0009FFEE000CFFFAFFFBFFFAFFD9FFE9FFF2FFE3,
FFDCFFF80005FFE1FFEEFFF8FFF70014FFDFFFEA0001FFDD,
FFFF0003FFF7FFF5001A001F001DFFFDFFF5FFDF0026FFD4,
FFF1FFFBFFF00021FFDAFFE5FFD5FFF2000F000E0004001B,
FFFCFFF5FFE2000D00250015001EFFEF001900020017FFF4,
FFF4000EFFD40006FFFD0003FFFCFFEC000B002800010002,
00100016FFFD0007FFDBFFF7FFEDFFF90002FFF2FFFF0001,
0007FFFCFFF5001A00150001FFEEFFDA000B001500140020,
FFF0FFF50016FFF20012FFF5FFF7001CFFFD0003FFE70022,
FFD7FFF70005FFFAFFF6FFF1FFEAFFF80000000B000C0016,
00280009FFD5002CFFF4FFF8FFEEFFF80000002300020004,
0008FFFDFFEC0002000FFFF60008FFFC001AFFFCFFFA0020,
0005FFDB001EFFFD000200150028001BFFFA000D001D0014,
FFF9FFE3000E002FFFE90013FFFF000D00340035000B0013,
0011FFF9000C000100160014001600060008FFEB0015000F,
00070009FFE70029FFF70008FFF2FFED00030025FFF90001,
FFFCFFFEFFEA0001000A0015FFFAFFDEFFDE00100001FFFE,
FFFCFFF5FFE00010002000240028FFE000030020FFFE000A,
FFF3FFFCFFF9FFF000060016000FFFF9000D00060007FFE9,
FFF7FFEBFFFFFFF0FFFBFFE3FFE500190000FFFD00070015,
00030022FFFDFFC9001A00020016FFE8FFEDFFCC0009FFE3,
FFF800140011FFFFFFDCFFEBFFE300220015FFFAFFDB000C,
0003FFDF0015FFF10015FFF0FFF60029FFD0FFDC0009000E,
000BFFE0000D0011000F0008FFFD00210000FFFF00040011,
001A0015FFDF0005FFD8FFF0FFE5FFDB00220003FFFF0009,
FFEE001400070003001600040012FFF20010001BFFD00014,
FFF1FFFB000CFFE20014001700130008FFE4FFE90016FFF7,
FFF700000012FFEB0006FFFA000DFFFA001EFFF9FFFBFFFE,
000CFFFDFFEFFFE90015000DFFF9000200160002001C0006,
FFF200050001FFFDFFE00001FFFD0001FFFEFFFB0020FFF5,
0032FFDD001F001BFFF9FFE3FFEC0003FFF2001FFFE7001D,
FFE300050023FFF3FFF1FFE6FFF30002FFEDFFF8FFDB000E,
FFECFFF7FFFB0021FFF600250002FFFFFFF3001700030002,
000E000AFFFFFFF40000FFF3FFE4FFF0FFE9FFE7FFE7FFE4,
00030013000DFFFCFFFBFFF0FFE8FFEF000B0008FFF9FFF7,
FFE4000AFFE2FFFC0018000A0011FFE8001200140013000E,
FFE6FFE1000B0005FFFDFFED00130007FFE20014FFF70018,
FFF1FFFB001800270013FFFF0013000D00070021FFE80019,
FFF5000B00060019FFF40011001100010003000BFFF30010,
001500270013FFE7000AFFF6FFF1FFF1FFE20002FFFA0004,
0001FFF10008FFE3000AFFF6FFF500100000FFEC00150009,
FFEFFFEE0004000B0022001D001700090015FFFD0017FFF9,
FFE8FFF40009FFCDFFF60003FFFF0027FFE2FFDA0019000D,
0009FFFAFFE1FFF4000B0013002BFFE7000DFFFD0007FFDB,
000D001F0028FFFEFFF8FFF800000016FFF4FFC60012FFFD,
FFDBFFE80020000B0012000000070009FFF50015FFD80004,
0028FFF7FFFF000700060004FFF7FFFEFFF2FFF7FFEAFFE2,
0003000EFFEAFFF7000B000E0005FFE3000000280008FFF1,
001B001CFFFFFFF4FFE7FFE0FFDBFFFF000C0008FFF10002,
FFF1000AFFFE0003FFE8FFFFFFF9FFE8000CFFFF001EFFF5,
FFF6FFE60009FFE80022001A000E0018FFF7FFFEFFF90006,
000C0013000F0017000F00120010000A000E00000007FFEB,
FFD7000D0007FFFBFFFD000C000F00030022002A00230015,
FFF4FFF40003FFEF001C0001000F0023FFF1FFE6FFF2FFFD,
00200003001EFFDA0007FFEFFFF00015FFCAFFEBFFF0FFED,
0015000C0008FFF0FFFDFFF2FFF40000FFECFFFBFFF4FFF1,
0000FFEDFFFA0003000F00070004000B000A000000000009,
0011FFE90005000F000AFFF3FFE7000DFFF80012FFE20008,
001AFFF00013000A001BFFFAFFDC0017FFF5FFF00011FFF7,
0006FFE0FFF9FFF60020000E0008000DFFF4FFF1000BFFF4,
0007FFF400070003FFF000000020FFF3FFF80008FFF0000C,
FFF0FFF4FFF8FFFDFFFBFFFFFFF200180003FFF5FFF70006,
FFE6FFE7001BFFF9FFF9000BFFDFFFE7000A000300040006,
002AFFF7FFF00009FFF0FFE3FFFB0023000E000EFFF0FFFD,
001E000AFFF40000FFFCFFF50010000BFFF20016FFF30003,
00070003FFF5000BFFFC00040003FFEEFFF60005FFEAFFEE,
FFE8FFF1000AFFFDFFD90012FFF6FFE70014FFF9000D000B,
0005FFF1FFF7FFFE002BFFDFFFFD00070005FFFDFFF10008,
0016FFE40008FFFD00150009001AFFFA00090016FFF4FFF9,
001000020018FFEDFFEB0010FFD8FFEE001BFFF8000D0035,
000700130009000EFFFBFFDCFFFCFFEE001DFFFFFFE70015,
FFC600020012FFEBFFF2000BFFC6FFFE0001FFDA0005FFF2,
0024FFDBFFE0000E000BFFEB000DFFF9FFEC001CFFD8FFE0,
000AFFFFFFF0FFDF000FFFFF00000007FFE3000200160003,
FFEA0010FFF80003FFF7FFEAFFDF00000029FFE1FFDD001C,
0003FFF5000D0005FFF3FFF7000C000000110006FFF2FFF9,
0019FFCF0019FFF7001E000CFFFB0011FFE30015001BFFFC,
FFE8FFD40023FFE7FFF7FFFCFFCE000DFFEFFFDB0017FFD3,
FFF2000F00140020FFE50004FFE8FFEA0019FFD30019FFF8,
FFF80008000900170000FFF6FFF9FFFC000CFFDE0011FFF8,
001B00090015001000030019FFECFFFD0013FFF80001FFF9,
FFF6FFE1002EFFDB0019000C0006FFEA0005FFF0FFDDFFF4,
001A00070010FFF3000FFFFA001D000E0006000D00050001,
00150002FFD60021FFED00270006001DFFECFFE4000DFFE6,
FFE2002F001C0012FFC7001FFFEBFFED001FFFF50016000E,
00050001FFDB0014000B0004FFF5000EFFF4FFEDFFE7000B,
00200007FFEF0005FFE8001FFFE0001BFFF7FFE4001FFFDA,
002BFFD70005FFD2FFF0001D000B001FFFF50018001AFFD2,
00060021001500190009FFE8FFE7FFFC0018000DFFF50028,
00100013FFEFFFF5002CFFDE0046FFEC00200032FFE1000F,
FFF40010000C0009FFD6001A0008FFE2FFFFFFE300270003,
0002FFEC0019FFEB0004000700030012FFEF000100070011,
FFF5FFF9000CFFFBFFF90013FFEC00030006FFE40019FFF5,
0000FFF9FFFC0007FFF20019FFED0007FFF8FFEDFFFF0005,
FFFDFFF7FFE2000400000005FFE60025FFF1000A000FFFF3,
0024FFFFFFFC0014FFE1FFEFFFFFFFFFFFFA001B000A0006,
0016FFF90015FFEF0024FFF2001A000F0017FFF40000FFD4,
FFE200090002FFF3FFDFFFF1FFF8FFE70004FFF7FFF8FFDA,
FFFE0016FFFBFFEE0016FFF10004FFF2FFFD001AFFDB0018,
FFEEFFF30013FFE60002000CFFF0000D0002FFFF0007000D,
FFF8FFFCFFE400150007FFE800000012FFF4000CFFEAFFF1,
0031FFEC000AFFFB001E00100019001EFFEB000A00110005,
FFF1FFEE0005000D0016FFE600200011FFF40001FFEA0001,
FFEF001BFFF0000BFFE30014FFE0FFF0FFF50002000E0023,
FFEA0000001B0005FFEEFFFAFFFDFFFF0011FFEDFFF9FFF8,
002DFFE00006FFD500010025001AFFE2FFD500250026FFE5,
FFFCFFFDFFF80007FFD8000DFFFC0000FFF3FFE5000EFFFE,
00100006000B001700060019FFF1FFF7FFF2FFF800020009,
00010014FFF0000FFFE7FFEFFFDD0019001AFFE1FFF80006,
FFF7FFF5FFDBFFF6FFF5FFFD00050020FFE60029FFFEFFED,
FFF1001300060005000EFFF0000BFFFCFFFA0000FFE9FFEF,
FFEA00190008000B0016001900130008000DFFF500180001,
FFEE0013FFF3FFEDFFF10006FFE0000C001FFFE500040014,
FFDDFFF40018FFDEFFEC0005FFE2FFF0FFF8FFF9000A000E,
FFF6FFEC0020FFFCFFF7001700070014FFFE000AFFFF0002,
FFF00013FFFC0007FFDE001E0013FFF20003FFF3FFFAFFF5,
001AFFEA0016FFD10017000A00090001FFE2000600190009,
0002FFEEFFE1000BFFFD0015FFEEFFF3FFEF000BFFFBFFEB,
FFF10011FFEE000EFFEE001D0013000D000AFFFDFFEEFFEA,
FFEA0006FFF7001CFFF30001FFF000030012FFE9FFFA001C,
FFF3FFF0FFFEFFEE0010FFE9FFF4002400050017FFF3FFFA,
0024FFFDFFFD001DFFF6FFE3FFF10004001D0001FFE20001,
FFEA00040013FFEE00030003FFFEFFFF00070010FFFA000D,
FFF1FFFC000A0003FFEBFFE5FFFDFFE2000A000FFFEB0020,
0004000AFFFC0010FFECFFF200050001FFE2FFF3000CFFFE,
FFF500270010FFE8FFFB0001FFF1FFEE0014001100000009,
FFF6FFECFFFEFFFFFFF0FFECFFEC00030015000F000EFFE9,
FFF4000500270003000E00210010FFEAFFEFFFFCFFEF0023,
FFFEFFF6FFDF0027FFE4FFDF000AFFFAFFE1FFDEFFFE0000,
0016FFD8FFD7000AFFE4FFEC0001FFF8FFEDFFF6000C0005,
0009FFEFFFF20013000BFFE7FFE7FFFDFFFB0018FFF2FFF8,
FFDB001B001BFFF5000D000EFFF5FFF2FFF8FFF10005FFEC,
FFF1FFF0FFEB0018FFEFFFF3FFE4FFDE000A000D0017FFED,
0007FFEC0021FFDB0006FFEF001400090016000B0031FFC7,
0016FFF0FFE4FFFF0007FFF9000FFFFFFFE2FFF90007FFF0,
FFE7002F0029FFED001B00290000FFDE0005FFFCFFE0FFEE,
FFEAFFEEFFEA0028FFECFFF4FFF3FFF1FFF6FFEF000C0015,
FFFF000B000FFFF4FFE3FFFAFFE6FFED0027000100170023,
FFF0002AFFF8FFF600160020FFF7FFFCFFF10008001DFFEA,
000B000E0018FFFBFFEAFFF70015FFFF0001000CFFF30005,
FFD4000B00060002FFE0FFF4FFFCFFD40011FFF9FFE90000,
FFDE0021003EFFCEFFF3FFFBFFC2FFE1001E001AFFF40005,
0012FFFFFFE4FFF3FFF4000F001BFFFAFFFB001AFFF0FFEC,
00120005000FFFEC000100140008FFF3FFEDFFEF00150008,
FFEBFFF300130019FFF200170003FFFBFFF0FFE8FFFDFFFA,
FFE2FFF9FFFB000E0013000FFFD700010005000BFFF0FFED,
FFFEFFF4FFF1000EFFF9FFF400000010FFFAFFE90008000F,
FFF40006000FFFFCFFEF00100018FFDF000E0006FFEA000A,
002FFFD9FFEFFFEC000D00090020001100120017FFFDFFFA,
001A0014000CFFFB00020007FFF5000CFFEDFFE100170029,
0005FFF50006FFF1FFDA0002000BFFEC00240030FFF20035,
FFE2000800100002FFF3000AFFCDFFD8001D000FFFED0012,
000B0017FFFBFFD100190016001E0024FFE9FFF3001DFFE8,
FFFAFFEE0009002F0000FFF0FFF2000CFFC7FFE3000BFFE8,
0007FFDCFFE5FFEB00140005001A000B00270014FFF1000A,
FFEF0002001AFFEE00040002FFEE0002001700180019FFF4,
FFF00021001BFFF8FFF4FFF10005000200120018FFF70001,
FFF30002FFF50003000C000500090008FFF6FFF7FFF2FFF4,
0004002D0025FFE5FFED003A000DFFDC0014FFFFFFE90027,
000E0012FFF1FFFDFFF000130012000FFFEDFFEC0017FFFE,
FFD4FFF9FFF50026FFDD0000FFF3FFF40000FFFD0004000D,
0007FFF9FFDCFFFEFFF6FFFF0014000E00010006FFF2000D,
001FFFECFFF4FFFD000B00110006000FFFF2FFD70013FFFB,
FFF4001E001DFFF00011FFF2FFE80008002B001300090008,
FFFCFFFDFFF8FFF4FFFAFFE70016FFEEFFFD000DFFFC0004,
FFE8000C0015000A0002FFF4FFE6FFE6FFFB0003000E000D,
0005FFFA00000023FFF0FFF600050004FFEFFFFC0001FFF9,
FFF1FFF8FFF6FFF00008000D0017002100120026FFFFFFF6,
00190000FFF3FFF8FFFEFFEB001DFFF0002D000AFFEEFFFF,
FFE6FFFA00030018FFDDFFD8FFFDFFE60017001E0016000B,
00080007FFF7FFD6FFF8FFDCFFF8FFFB00150019FFF8000C,
FFF6FFF4FFEA0001FFFA002000160013FFF5FFE10015FFEE,
002AFFE9FFEAFFF9000E001200200023FFF70003FFFD0012,
FFD700150002FFF700070015FFECFFEBFFECFFE5FFE60024,
00070002FFF1000E000000100013000CFFF4FFE4FFE90007,
0002FFF7000600030012FFFCFFFD00070010000D0005FFF3,
FFF70011000CFFDA0029FFFF00180024FFEEFFF20014FFF3,
FFFB000E0000FFFF000DFFDEFFFD0004001A001B0005FFF3,
FFF9FFE2FFF9000AFFE2FFE0FFD6FFDF0013000600090005,
0018FFF7FFED000500110002FFFD00090014000F0003001A,
00130000000BFFFCFFF6FFD6FFFFFFFB00130009001AFFF5,
FFF4FFEAFFFA000EFFD9FFFF0001FFF30001FFF2FFF6FFFE,
002BFFFAFFE7000CFFE50006FFFEFFFBFFF5FFF5FFD40001,
001DFFFAFFFCFFDBFFF300120021001600080004000C000F,
FFDF002200050009FFFB0002FFD1FFF5FFEDFFF3FFF30012,
00150016FFEC0010FFEF001CFFEE0003FFF9FFF600110006,
00020004FFFDFFFE000F000A0003001A0003001C0007FFEC,
FFE50008FFF3002800050020FFF8FFD2FFEBFFE9FFFD0013,
000E0006000CFFEA0001001000140020FFF8FFF00003FFFB,
FFF0FFFF00060004FFEF0008FFF1FFED0017FFF9FFEE0019,
001B0015FFFEFFF9FFF3FFFAFFFF00020018FFF4000A001E,
000CFFDF00140030FFFB0011FFF70019001DFFF20005FFEB,
0000001AFFE40001FFF3FFFA0004FFEF0003FFDC00030008,
0011FFF8FFEDFFEBFFF9FFEE000AFFE1FFF50002FFF30010,
00090011000400060004FFDA001B000C000CFFFDFFFD003C,
FFDBFFEB001F00140022002000000015FFF9001E0025FFF8,
FFF2001E00210004FFFD000DFFF3000100180013FFF10004,
0000000E0001FFE20017000D003B0026000A001C0001002D,
0006FFEC0011FFE2FFFAFFF500040022FFFE00070005FFF8,
FFDAFFEB001FFFFB0011FFFDFFF60001FFE30000001A0011,
000BFFFAFFFF002AFFEE000FFFDB0009000BFFF80003FFE8,
FFE9FFF500020020000B001F0009FFDFFFFE0008FFF0FFFB,
0005FFE60025FFE90025FFDD000A0024FFFE003100150007,
0022FFFAFFFB0011FFFFFFF3FFF70003FFF0FFFE0000001F,
FFE3000CFFFD0007FFF10018FFDFFFEAFFF8FFEBFFEF001E,
FFF1FFEE001E000D001C000BFFEAFFE8FFDF000F001DFFFA,
00110000FFF4000D0002000E0011FFF7FFFDFFF800110026,
FFF9FFF90018FFD7001E0005FFEE0003FFE10019000C0000,
FFF900100001000CFFF4000DFFDF00060015FFE80016000D,
FFFE0022001FFFF4000CFFE800050016FFF7FFF800260014,
FFEE000CFFFCFFF100090010FFFAFFF0FFF9FFF800180008,
00050009FFF30015FFEEFFFAFFDCFFF3001BFFE6FFE10000,
0015FFF7FFD1FFD9FFF2FFEC002100130020FFFFFFD9002F,
FFFCFFD2000C000B00080015FFF70017FFF00009FFEEFFF0,
0022FFF4FFCF000AFFDC001FFFF2FFFD002AFFCCFFDAFFFA,
FFD300090012000DFFF30004FFD1FFEBFFC2FFFB000BFFFC,
000CFFF40008FFF500180001001A001EFFFB0013FFF8FFED,
FFF80000000BFFF0001B00240001FFFDFFEEFFFB000BFFF9,
0000000AFFF7FFFD000AFFED000D00160000000CFFE3FFF9,
FFFCFFFB000CFFF2000E0011FFFB000EFFE7000200070007,
FFF400020009000100080011FFE5FFE50008FFEF00050024,
002B0004FFE00009000DFFE8000A00090029FFFEFFF6FFE4,
0023FFDB0026000E00010027FFFA001D0012FFFBFFFBFFE2,
FFFEFFEFFFF70008FFF30017FFFA0000FFF3FFF8FFFB0004,
FFFD0006002100020002000AFFECFFE9FFD9001500190005,
FFFBFFF8FFCD0000FFE9FFDEFFE90005FFF6FFE0FFF0FFE9,
FFECFFEBFFFCFFF2FFF10007001C000000070007FFFEFFF5,
FFDC00120016FFFB0007FFE7000FFFEEFFE4FFFAFFFA0010,
001CFFF10012FFFC0000FFF2FFF100070013FFE7FFF5FFF7,
FFF0000C00220009001B0024FFF50003FFD9FFFA001DFFFE,
FFFAFFFF000CFFF3000E00000018FFFC000500140019000F,
0001FFF3FFDC0013FFFBFFF7000E000A00120006FFE30011,
00040008FFFDFFEBFFEBFFE90009FFFDFFF70000FFE5000C,
FFE6001D0010FFF2000F0012FFE7FFDF0001FFE200020021,
FFFCFFF7FFEA001AFFE5FFF6000EFFE5FFEEFFEBFFF0FFFC,
001D0026FFF8FFE5FFFBFFFD00030023000F000B00270024,
003100040000FFEB000C00010021FFF800170018FFD8FFEF,
0009000E001C001000020018FFF900030000FFE9001FFFD2,
000B0011FFFC0013FFDAFFF2FFF3001B002FFFE7FFF6FFF1,
FFFD000BFFEFFFE00017FFFE00150018FFF7001500130012,
FFFAFFDBFFEC0005FFFCFFF5FFFA0013001F0000FFFBFFEB,
0008FFFD000D00010016FFEB0005FFFD00090014001D0013,
FFE60007000A000BFFED00140007FFCDFFE0000EFFF80010,
0007000B000FFFECFFFBFFE5FFFBFFEF000AFFFDFFE2FFEA,
FFEA000EFFFD000F001C000E0003FFE9FFF1000E00180015,
0024FFFDFFEFFFF9FFED0009FFEAFFF8000FFFE8FFF80012,
00040007FFE4FFDDFFC7FFFEFFF9000C001EFFDEFFE5FFF4,
0018FFEA000BFFEF0003FFF500140007FFFE0007FFE80002,
FFEB000900110026FFFC0010FFE60009000CFFF40012FFE9,
FFF1FFED0013FFF6FFF6FFFE0001FFE1001A000A0015FFE1;
