memory_initialization_radix=16;
memory_initialization_vector=
A0086430,
39ECF7F7,
D85FA915,
C3CAD6E0,
10C0D999,
B74549E2,
241AADD4,
E138A714,
E23929F7,
3002392D,
D95A0E1E,
F1811606,
E9B61BF7,
DC053AE7,
FBC8D2E0,
F5CEC8C3,
CC4A59F6,
53454081,
C7FDB53F,
0C4381B8,
DFB42258,
99FE00F2,
96551C1E,
08133FEC,
0BAD40C2,
B0B40DF2,
D9CF243C,
9E76231F,
4A25B34F,
6B3D13E5,
2EC01762,
CFD4AC19,
55F7B5FF,
7F3B1FF2,
00102712,
61E113EE,
E21CBA22,
9EE40319,
EB504BF4,
7CF7D5CB,
21DD2AD2,
DC31160B,
F2ED1DA6,
78F6430C,
94EAFAF2,
1712E4F6,
FD02A0C6,
2BC7FEF7,
AF05147F,
D7201715,
DDE849CA,
7F3466A7,
090D4C3A,
88C0814F,
2DA413AD,
2BB921C1,
E8F11D2A,
CB1DF2DB,
E27038B5,
727FCF44,
962130D6,
D40839F6,
E1CEDECD,
5620C74A,
E5E08C14,
1B0BEC42,
0C0E2EEB,
F1E22F6F,
3CBDE61F,
0DFC16DF,
1FBD3B3B,
03C29648,
49A5679D,
44FE7FD6,
5085DF81,
19CE2AE6,
CA04CABC,
CC3BE6B3,
C4DE8446,
3B49CECC,
D76D08F2,
D6154CE7,
D2E344CD,
19221A35,
0A55EBDD,
E8FD6730,
16A864D0,
163BC374,
81A1AAEA,
219BDD55,
737CF052,
BB0BB353,
0C43ED14,
17D5F57C,
382DAA1C,
23C47A16,
E5A25F17,
ED7F40DB,
583C160D,
EE1AB9AD,
B7DFDA35,
93D8098F,
98132B9E,
2439B3FA,
2D1A1A39,
1A1A3DDA,
137B06E8,
050F1C03,
4DFCC61A,
15C47F16,
D468B4BC,
404A0D4D,
E9CE095E,
B89901B1,
45EA923E,
33E0F3BC,
04EDFBCE,
B9623902,
5AFEF1FE,
F1395B5F,
CA392C05,
AC4B902D,
C93BA4CF,
74AF43BE,
6BB10AF2,
050D0623,
42AF5FF3,
763A45A4,
47C9D6AF,
ED5AED01,
594D5054,
EFB511EA,
FC810A81,
0AD3B712,
D3C64653,
75B6EBEA,
C6333EF9,
01251E40,
8105E80D,
A405951C,
B5991846,
81217F61,
12D6BE91,
F506C3B9,
D4CB2B26,
112FDAEF,
F3BB05A5,
EC4A91FE,
0ED729BC,
08F4E7F5,
0065E116,
FF4026F7,
EAC3E5F2,
57E2FE6D,
58473481,
4EA8343D,
56E3EE3E,
06374B44,
1CDB42B4,
D848C80E,
D7DDEEA0,
05E93546,
ED25FEE1,
9EBCAF2A,
9AF6BC28,
0C5BBAED,
1C104DE5,
1FD31A03,
2B7FC353,
2EC136CB,
2B097FC1,
4DCEC1D0,
EBE1CAFD,
EB0D3A2F,
F73EC8E3,
81E8F023,
A0449D06,
BAB452B7,
BA60E08E,
49CD1EA5,
2E39D1F8,
29DAF24D,
0B53F6F2,
2CDCD4F3,
1DFBCFEA,
81CB2A4C,
BD43D941,
089863EA,
D13434E7,
E9092C1F,
27DD088D,
1DF5BC22,
DFDDD3F0,
5EC3BDB1,
EDCA4647,
F3D571BD,
FA082E5C,
9E1CED6D,
66FB0040,
D045F849,
CE01600E,
537B8135,
144A91EB,
B8811981,
3F150FC0,
10F0F30E,
A726F54D,
D682AEDF,
05EC0307,
86A5C0FD,
4B139528,
194B1B24,
C3DC8236,
35D1B119,
E7C86AB7,
D1810513,
3DB0420D,
7F38FCEA,
593307B6,
FDE9F02B,
B09A5B7F,
4C2EC2E1,
0C4CA1FB,
306ACB08,
F7131CE9,
3AEEC92F,
FB3115FE,
50F6FCD2,
2F16ACA7,
ED1A7FC3,
4A45B1F8,
670E2E09,
9BC11EED,
34F6D117,
3319D64D,
54925C12,
180F24EB,
C7BFD20B,
0084B3FB,
E0BE94C1,
97684933,
146BD942,
495E6017,
F15E4ED6,
380C76E2,
EC0A1CD7,
3BDD9320,
D7D5AB37,
2A914BF5,
E99AA5C0,
31FDC9BC,
FBB8D13D,
DD02DDA3,
F93370E6,
A74EFB21,
E8A4D3DD,
ECD8621D,
EC7F7CC4,
7F084318,
3D982642,
1FB43AEA,
21FC52F3,
B8DD63DD,
CD342DF8,
EDA7A34E,
E305A426,
EAF9EB1F,
34E3F9E2,
D7E97DF5,
1553AA16,
2748D96A,
DE7123E3,
180B000B,
DE49CDD2,
05D4E22B,
1E0D81F2,
0F95B4BD,
E891CA81,
DE87C9B8,
22D65CBB;
