1111111111010111000000000000100100000000001011110000000000010101
0000000000010110111111111111100000000000000000011111111111111010
1111111111110101000000000001100011111111110111000000000000001111
1111111111101010111111111101011111111111111011000000000000000000
0000000000001000111111111110001111111111111011111111111111101000
1111111111101100000000000010100100000000000110010000000000000001
0000000000011100000000000001000011111111111000101111111111100101
0000000000000100000000000000101011111111110101010000000000000100
0000000000000000000000000001110100000000000011001111111111101110
0000000000010110000000000000100000000000000101010000000000001100
1111111111101100000000000010111000000000000011100000000000010000
1111111111110100111111111101110000000000000011100000000000001001
1111111111110111111111111111111000000000000001101111111111110011
1111111111110100000000000000111100000000000100111111111111100000
0000000000000101111111111110010111111111111011111111111111011100
0000000000000111111111111101111111111111111010001111111111010111
1111111111110110000000000001000000000000001001001111111111111100
0000000000100101000000000010000100000000000110101111111111001110
1111111111101010000000000000101111111111111000010000000000101010
0000000000000110000000000001100111111111110010001111111111101001
1111111111101010111111111100011000000000000000000000000000110010
1111111111001100111111111110011100000000000000101111111111110100
1111111111010001000000000000011000000000000000010000000000001101
0000000000000100111111111111011000000000000010101111111111111100
0000000000000101111111111110011100000000000101101111111111101010
1111111111011100111111111111011000000000000011101111111111111010
1111111111110011111111111110111000000000000110010000000000011010
1111111111011110000000000001110100000000000100110000000000001001
0000000000010000000000000001001011111111110111000000000000100110
0000000000100011000000000001101100000000000000011111111111110010
0000000000001111111111111101111000000000000011100000000000101111
1111111111100011111111111101110011111111111001010000000000010011
0000000000010000111111111111011111111111111001010000000000000110
0000000000101000000000000001101100000000000010111111111111111110
0000000000000000000000000000101000000000000011010000000000001010
0000000000101000111111111110100100000000000010111111111111110011
1111111111110101000000000000101111111111110111010000000000010000
1111111111100000111111111111000011111111111110100000000000001111
1111111111111110000000000010011100000000001000101111111111111111
0000000000110001111111111111101011111111111101011111111111100000
0000000000001110111111111110100100000000000100111111111111101110
1111111111110101000000000001010011111111111111110000000000001000
1111111111101110111111111111110000000000000000111111111111011110
0000000000101010000000000000010100000000000110100000000000001110
1111111111010011111111111111101011111111111111100000000000000001
0000000000000101000000000000100011111111111111000000000000000001
1111111111110110111111111111011011111111111000111111111111101011
0000000000001011111111111101110000000000000001101111111111111011
1111111111100000000000000000001000000000000000100000000000110101
1111111111101011000000000000111000000000000001110000000000010000
1111111111111000111111111111000000000000001000111111111111101000
0000000000111100000000000001011000000000001011011111111111010110
0000000000001001000000000000000000000000000110010000000000011010
1111111111010110111111111101011111111111101100110000000000101000
0000000000011100111111111101001000000000000000101111111111011011
0000000000011010111111111110000000000000000111011111111111100100
1111111111101101000000000000000100000000000010110000000000010011
1111111111100010000000000001011111111111111101001111111111101101
1111111111101001000000000011010100000000000101001111111111011010
0000000000101011000000000011111111111111111010110000000000011011
1111111111010001000000000001000000000000000110101111111111100101
1111111111101011000000000000001000000000000101111111111111110110
1111111111110100111111111110000011111111111010111111111111100111
0000000000100000000000000001101011111111111101000000000000100100
1111111111110111111111111111001011111111110001010000000000001010
0000000000000110111111111111111011111111111001110000000000100000
1111111111110111111111111111111000000000000010101111111111110100
1111111111101011111111111110110100000000000100110000000000110110
0000000000010010111111111101111011111111111100100000000000011000
0000000000000101000000000000001100000000000010001111111111111010
0000000000010000111111111110001100000000001000010000000000100011
1111111111111100111111111110011011111111110101100000000000101001
0000000000011101111111111101100000000000001001101111111111100000
0000000000011010111111111111111000000000001010001111111111101110
0000000000010111111111111101100011111111111011101111111111000101
1111111111110111111111111111001000000000000100011111111111111000
1111111111011010000000000000001011111111111110001111111111101000
1111111111101111000000000010000100000000000011011111111111011100
1111111111101111111111111111110011111111110111010000000000011000
0000000000100010000000000001110011111111111011001111111111101000
1111111111110011000000000010010111111111111011111111111111111010
1111111111101101000000000000011100000000000010101111111111111100
1111111111100111111111111111010000000000000101011111111111110011
0000000000001001000000000000101000000000000101000000000000011100
0000000000000000000000000001101111111111110111001111111111110110
1111111111110000000000000000000000000000000110010000000000010110
0000000000010010111111111101111000000000001000111111111111100011
0000000000010001000000000001000111111111110110110000000000100010
1111111111000111111111111101110111111111110100001111111111100110
0000000000001100111111111101101111111111111110000000000000010010
0000000000110101000000000010110000000000000110010000000000010100
1111111111011101111111111111111111111111111001010000000000011110
0000000000010010000000000001101100000000000000110000000000001000
0000000000100010111111111111010100000000000010110000000000110001
0000000000101100000000000001011111111111111000100000000000000110
0000000000001100111111111110101000000000001000010000000000000110
1111111111100100111111111101011000000000000110100000000000001010
1111111111101011000000000010101100000000001001001111111111110100
0000000000011010000000000000111011111111111011101111111111111011
1111111111111010000000000000110011111111110011101111111111010011
1111111111101110111111111111001011111111111101100000000000001000
1111111111101000111111111111000100000000000100001111111110111101
1111111111011100000000000000100000000000000100111111111111001010
0000000000001110000000000001001111111111111000111111111111111000
0000000000001110000000000000100000000000000101000000000000010101
0000000000000010111111111111011100000000001000011111111111101101
0000000000000000000000000010010011111111111110001111111111110110
1111111111111100000000000000000000000000000010100000000000000011
0000000000011110111111111111110111111111111010000000000000001111
0000000000001011111111111110010000000000001110100000000000001110
1111111111110110000000000010100111111111111000001111111111100001
0000000000100101000000000001111100000000000010000000000000100100
1111111111110010111111111111101100000000000001100000000000101001
1111111111011110111111111101100111111111111010111111111111011111
0000000000010111111111111111001011111111110010100000000000100100
0000000000010010111111111111010000000000000011101111111111011111
0000000000000100111111111111101000000000000011001111111111100110
1111111111101000000000000011000000000000000110010000000000000000
0000000000101001000000000000111111111111111100011111111111111110
0000000000000000000000000001111100000000000110000000000000101110
1111111111101111000000000001100000000000001000001111111111111110
1111111111100010000000000010000111111111110101100000000000001101
1111111111101110000000000001100011111111110010101111111111100100
0000000000110100111111111101010000000000000011111111111111011110
0000000000101001111111111101000100000000000000101111111111111001
0000000000000000000000000000000000000000000110100000000000001111
0000000000100001111111111101110100000000001001101111111111111100
0000000000101100000000000001110100000000001000111111111111010111
0000000000011011111111111110100011111111111011111111111111011100
0000000000000001000000000010110011111111111100100000000000000000
0000000000101110000000000010011000000000000110010000000000101010
0000000000000110111111111110001111111111111110011111111111111111
0000000000000110111111111100101100000000000001101111111111010000
0000000000000100111111111111000011111111111000010000000000001010
1111111111110001111111111110001100000000000110000000000000101001
0000000000110110111111111101101111111111111101001111111111110110
1111111111101100000000000001000000000000001000101111111111111010
0000000000000101000000000000100000000000000111010000000000100000
1111111111010101000000000000001111111111111110110000000000001111
1111111111100110000000000000100011111111110010100000000000010001
1111111111100011111111111100101000000000000101110000000000011110
1111111111001011000000000000011100000000001101010000000000101110
0000000000001011111111111110001111111111110110111111111111011000
0000000000000000111111111111110011111111111001101111111111100111
1111111111110001111111111110000100000000000100100000000000011010
0000000000001010000000000001100011111111111010010000000000001000
1111111111111010111111111110001100000000000001011111111111100101
1111111111110111000000000010000011111111110010000000000000001111
0000000000000011111111111110110100000000000011011111111111101111
1111111111111111111111111111101111111111111101111111111111110100
0000000000000001000000000010110011111111111110101111111111111101
0000000000000001000000000001010100000000000010101111111111111001
1111111111110000111111111110000111111111111001110000000000000001
0000000000011010111111111111011100000000000000110000000000101100
0000000000011111000000000000111000000000000001111111111111001100
0000000000011011111111111100111100000000000101100000000000001010
0000000000100000111111111111101000000000000000000000000000001111
0000000000000000000000000010011000000000000111110000000000010010
0000000000001100111111111111000100000000000101101111111111011011
1111111111101010000000000001110111111111111000010000000000000000
1111111111101010111111111110000011111111111110001111111111101011
1111111111111110111111111110111100000000000111100000000000010101
1111111111110011000000000001011100000000000000101111111111101111
1111111111010001111111111110100111111111110110110000000000010000
1111111111010011000000000000000011111111110110000000000000001100
0000000000001011000000000010111011111111111001001111111111110101
0000000000010110000000000000101100000000001010101111111111110110
0000000000010110111111111110110000000000000011000000000000000011
0000000000010010000000000011111011111111111000110000000000100110
0000000000010111111111111110010100000000000110001111111111111011
0000000000011001000000000000011100000000001101011111111111101111
0000000000101000111111111110000111111111111001101111111111101010
1111111111110100111111111110011111111111111100011111111111110100
1111111111110011111111111111111000000000000110100000000000010011
1111111111111001000000000001011011111111110110010000000000000100
1111111111101110111111111111110111111111111111110000000000000111
1111111111110001000000000001010011111111110111001111111111111111
1111111111101100111111111101001100000000001100011111111111100010
1111111111101010000000000001101111111111111101111111111111001110
0000000000100111111111111110110000000000000100101111111111010101
0000000000011000000000000001111011111111111011101111111111111000
0000000000000011111111111111000111111111111111100000000000011110
0000000000010011000000000001111011111111111110101111111111111101
0000000000011111111111111111000011111111111001000000000000000001
0000000000011111111111111111110011111111110111001111111111111101
1111111111100000111111111110001100000000000011110000000000011111
1111111111101011000000000001011011111111111010100000000000010110
0000000000000000111111111101100000000000001011111111111111101110
1111111111011111000000000001010000000000000111011111111111110111
1111111111111010000000000001000000000000000101110000000000010011
0000000000010110111111111111100000000000000010101111111111010001
0000000000010001111111111111110011111111111000100000000000001111
1111111111111000111111111111010011111111111010111111111111111011
0000000000110000111111111110011111111111111000111111111111100001
0000000000000010111111111110101000000000001001000000000000100010
1111111111110001111111111111001100000000001100011111111111100010
0000000000001100000000000000010100000000000100000000000000100111
1111111111011111000000000001001111111111111011100000000000101011
0000000000100111000000000000011111111111111110000000000000011010
1111111111100101000000000010001011111111111110100000000000100011
1111111111101000000000000000001100000000001011110000000000001101
0000000000101001000000000010101111111111110011000000000000100001
0000000000010011000000000001001011111111110100011111111111111101
1111111111011100111111111100010100000000000010011111111111001011
0000000000010111111111111111110000000000000001011111111111100110
0000000000000010111111111110111111111111111110010000000000000011
1111111111011001000000000000110111111111111100110000000000011101
1111111111110101111111111101010011111111110011101111111111101111
0000000000010010000000000000000100000000000000000000000000000010
1111111111011010111111111110001111111111111001111111111111111111
0000000000011101000000000000110111111111110010100000000000011001
0000000000000001000000000010101100000000000001010000000000011011
1111111111011100111111111110111111111111110101100000000000011101
0000000000010101111111111110001011111111111001110000000000001100
1111111111111110111111111101111100000000001010101111111111100001
1111111111110011111111111100110000000000000000000000000000001111
0000000000011000111111111110101100000000000100010000000000000110
0000000000100110000000000001001111111111111110011111111111110001
0000000000010100000000000001010100000000000010001111111111011100
1111111111101100111111111111010000000000000000010000000000011011
1111111111010011111111111101001100000000001010000000000001000101
0000000000100001000000000001010011111111111100011111111111110010
0000000000001010000000000010001111111111111000111111111111111011
0000000000001110000000000010111011111111111011010000000000000100
0000000000001011000000000000011000000000000100011111111111101010
0000000000011100111111111111010011111111111110100000000000010010
1111111111110010000000000001010100000000000110001111111111111000
0000000000010110111111111111101100000000000100001111111111100100
0000000000010111000000000000110011111111111100011111111111010101
0000000000000010000000000000100100000000010000001111111111101101
0000000000100011000000000000101111111111111010110000000000010001
0000000000111000000000000000110100000000000011101111111111110110
1111111111011110111111111110110000000000000100101111111111101111
0000000000010010111111111111111111111111111100010000000000000001
0000000000010001000000000000110011111111111011110000000000100010
0000000000100110111111111101011000000000000111010000000000001110
0000000000010101000000000001001100000000000100011111111111111110
1111111111110011111111111110100011111111111011110000000000000101
0000000000011011111111111100001011111111111000100000000000000111
0000000000001011111111111101110111111111110101111111111111101000
1111111111100000000000000010100000000000000101000000000000010101
0000000000010010000000000011001011111111111000110000000000011100
0000000000110000000000000010111100000000000101000000000000001010
0000000000001001000000000010101100000000000101011111111111100101
0000000000100011111111111111110000000000001010001111111111100100
1111111111111001111111111111111000000000000011011111111111111010
0000000000101110111111111110111011111111110010010000000000011100
1111111111101111111111111110110111111111110101010000000000101000
0000000000011010111111111101110100000000000111010000000000000100
1111111111101010111111111110111111111111110110101111111111101110
0000000000010100000000000000110111111111111101011111111111110100
1111111111110100111111111110000111111111111100110000000000110110
1111111111101001111111111111111111111111111101011111111111010101
1111111111111101000000000001000100000000001011001111111111110101
1111111111001011000000000001100111111111111110100000000000010001
1111111111101110111111111101110011111111111011101111111111101101
1111111111110001111111111111010100000000001011000000000000011001
1111111111101110000000000011001000000000001101001111111111101101
0000000000110110000000000000001000000000000100110000000000001100
0000000000010001111111111101100000000000000001100000000000100101
0000000000011100111111111110001000000000000011001111111111110100
0000000000101001000000000000001000000000000011101111111111111001
1111111111100000111111111111101000000000001000001111111111101011
1111111111100010000000000001100000000000000101111111111111111010
1111111111110010111111111110001011111111111000000000000000101010
1111111111110100000000000000010111111111110101100000000000011001
1111111111101000000000000000000100000000000000000000000000000101
0000000000011100111111111111011000000000000001001111111111101100
1111111111101101111111111111011100000000001110110000000000000010
0000000000011011000000000001111111111111111001000000000000011001
0000000000100011000000000001111000000000000000010000000001000011
1111111111101110000000000010100100000000000110011111111111110110
0000000000001000111111111111100111111111111111100000000000001011
1111111111100111000000000001011111111111110111001111111111101001
0000000000000100111111111110101111111111111001100000000000010011
0000000000011001000000000000000111111111110000101111111111110100
0000000000001101111111111101110111111111110111101111111111011100
1111111111110010111111111110001011111111111001001111111110111110
1111111111101101111111111101101111111111111000001111111111011011
0000000000011000111111111110101000000000000101101111111111011011
