10100000000010000110010000110000
00111001111011001111011111110111
11011000010111111010100100010101
11000011110010101101011011100000
00010000110000001101100110011001
10110111010001010100100111100010
00100100000110101010110111010100
11100001001110001010011100010100
11100010001110010010100111110111
00110000000000100011100100101101
11011001010110100000111000011110
11110001100000010001011000000110
11101001101101100001101111110111
11011100000001010011101011100111
11111011110010001101001011100000
11110101110011101100100011000011
11001100010010100101100111110110
01010011010001010100000010000001
11000111111111011011010100111111
00001100010000111000000110111000
11011111101101000010001001011000
10011001111111100000000011110010
10010110010101010001110000011110
00001000000100110011111111101100
00001011101011010100000011000010
10110000101101000000110111110010
11011001110011110010010000111100
10011110011101100010001100011111
01001010001001011011001101001111
01101011001111010001001111100101
00101110110000000001011101100010
11001111110101001010110000011001
01010101111101111011010111111111
01111111001110110001111111110010
00000000000100000010011100010010
01100001111000010001001111101110
11100010000111001011101000100010
10011110111001000000001100011001
11101011010100000100101111110100
01111100111101111101010111001011
00100001110111010010101011010010
11011100001100010001011000001011
11110010111011010001110110100110
01111000111101100100001100001100
10010100111010101111101011110010
00010111000100101110010011110110
11111101000000101010000011000110
00101011110001111111111011110111
10101111000001010001010001111111
11010111001000000001011100010101
11011101111010000100100111001010
01111111001101000110011010100111
00001001000011010100110000111010
10001000110000001000000101001111
00101101101001000001001110101101
00101011101110010010000111000001
11101000111100010001110100101010
11001011000111011111001011011011
11100010011100000011100010110101
01110010011111111100111101000100
10010110001000010011000011010110
11010100000010000011100111110110
11100001110011101101111011001101
01010110001000001100011101001010
11100101111000001000110000010100
00011011000010111110110001000010
00001100000011100010111011101011
11110001111000100010111101101111
00111100101111011110011000011111
00001101111111000001011011011111
00011111101111010011101100111011
00000011110000101001011001001000
01001001101001010110011110011101
01000100111111100111111111010110
01010000100001011101111110000001
00011001110011100010101011100110
11001010000001001100101010111100
11001100001110111110011010110011
11000100110111101000010001000110
00111011010010011100111011001100
11010111011011010000100011110010
11010110000101010100110011100111
11010010111000110100010011001101
00011001001000100001101000110101
00001010010101011110101111011101
11101000111111010110011100110000
00010110101010000110010011010000
00010110001110111100001101110100
10000001101000011010101011101010
00100001100110111101110101010101
01110011011111001111000001010010
10111011000010111011001101010011
00001100010000111110110100010100
00010111110101011111010101111100
00111000001011011010101000011100
00100011110001000111101000010110
11100101101000100101111100010111
11101101011111110100000011011011
01011000001111000001011000001101
11101110000110101011100110101101
10110111110111111101101000110101
10010011110110000000100110001111
10011000000100110010101110011110
00100100001110011011001111111010
00101101000110100001101000111001
00011010000110100011110111011010
00010011011110110000011011101000
00000101000011110001110000000011
01001101111111001100011000011010
00010101110001000111111100010110
11010100011010001011010010111100
01000000010010100000110101001101
11101001110011100000100101011110
10111000100110010000000110110001
01000101111010101001001000111110
00110011111000001111001110111100
00000100111011011111101111001110
10111001011000100011100100000010
01011010111111101111000111111110
11110001001110010101101101011111
11001010001110010010110000000101
10101100010010111001000000101101
11001001001110111010010011001111
01110100101011110100001110111110
01101011101100010000101011110010
00000101000011010000011000100011
01000010101011110101111111110011
01110110001110100100010110100100
01000111110010011101011010101111
11101101010110101110110100000001
01011001010011010101000001010100
11101111101101010001000111101010
11111100100000010000101010000001
00001010110100111011011100010010
11010011110001100100011001010011
01110101101101101110101111101010
11000110001100110011111011111001
00000001001001010001111001000000
10000001000001011110100000001101
10100100000001011001010100011100
10110101100110010001100001000110
10000001001000010111111101100001
00010010110101101011111010010001
11110101000001101100001110111001
11010100110010110010101100100110
00010001001011111101101011101111
11110011101110110000010110100101
11101100010010101001000111111110
00001110110101110010100110111100
00001000111101001110011111110101
00000000011001011110000100010110
11111111010000000010011011110111
11101010110000111110010111110010
01010111111000101111111001101101
01011000010001110011010010000001
01001110101010000011010000111101
01010110111000111110111000111110
00000110001101110100101101000100
00011100110110110100001010110100
11011000010010001100100000001110
11010111110111011110111010100000
00000101111010010011010101000110
11101101001001011111111011100001
10011110101111001010111100101010
10011010111101101011110000101000
00001100010110111011101011101101
00011100000100000100110111100101
00011111110100110001101000000011
00101011011111111100001101010011
00101110110000010011011011001011
00101011000010010111111111000001
01001101110011101100000111010000
11101011111000011100101011111101
11101011000011010011101000101111
11110111001111101100100011100011
10000001111010001111000000100011
10100000010001001001110100000110
10111010101101000101001010110111
10111010011000001110000010001110
01001001110011010001111010100101
00101110001110011101000111111000
00101001110110101111001001001101
00001011010100111111011011110010
00101100110111001101010011110011
00011101111110111100111111101010
10000001110010110010101001001100
10111101010000111101100101000001
00001000100110000110001111101010
11010001001101000011010011100111
11101001000010010010110000011111
00100111110111010000100010001101
00011101111101011011110000100010
11011111110111011101001111110000
01011110110000111011110110110001
11101101110010100100011001000111
11110011110101010111000110111101
11111010000010000010111001011100
10011110000111001110110101101101
01100110111110110000000001000000
11010000010001011111100001001001
11001110000000010110000000001110
01010011011110111000000100110101
00010100010010101001000111101011
10111000100000010001100110000001
00111111000101010000111111000000
00010000111100001111001100001110
10100111001001101111010101001101
11010110100000101010111011011111
00000101111011000000001100000111
10000110101001011100000011111101
01001011000100111001010100101000
00011001010010110001101100100100
11000011110111001000001000110110
00110101110100011011000100011001
11100111110010000110101010110111
11010001100000010000010100010011
00111101101100000100001000001101
01111111001110001111110011101010
01011001001100110000011110110110
11111101111010011111000000101011
10110000100110100101101101111111
01001100001011101100001011100001
00001100010011001010000111111011
00110000011010101100101100001000
11110111000100110001110011101001
00111010111011101100100100101111
11111011001100010001010111111110
01010000111101101111110011010010
00101111000101101010110010100111
11101101000110100111111111000011
01001010010001011011000111111000
01100111000011100010111000001001
10011011110000010001111011101101
00110100111101101101000100010111
00110011000110011101011001001101
01010100100100100101110000010010
00011000000011110010010011101011
11000111101111111101001000001011
00000000100001001011001111111011
11100000101111101001010011000001
10010111011010000100100100110011
00010100011010111101100101000010
01001001010111100110000000010111
11110001010111100100111011010110
00111000000011000111011011100010
11101100000010100001110011010111
00111011110111011001001100100000
11010111110101011010101100110111
00101010100100010100101111110101
11101001100110101010010111000000
00110001111111011100100110111100
11111011101110001101000100111101
11011101000000101101110110100011
11111001001100110111000011100110
10100111010011101111101100100001
11101000101001001101001111011101
11101100110110000110001000011101
11101100011111110111110011000100
01111111000010000100001100011000
00111101100110000010011001000010
00011111101101000011101011101010
00100001111111000101001011110011
10111000110111010110001111011101
11001101001101000010110111111000
11101101101001111010001101001110
11100011000001011010010000100110
11101010111110011110101100011111
00110100111000111111100111100010
11010111111010010111110111110101
00010101010100111010101000010110
00100111010010001101100101101010
11011110011100010010001111100011
00011000000010110000000000001011
11011110010010011100110111010010
00000101110101001110001000101011
00011110000011011000000111110010
00001111100101011011010010111101
11101000100100011100101010000001
11011110100001111100100110111000
00100010110101100101110010111011
