F5
7A
D6
E8
7F
E8
BF
FB
E0
81
53
73
09
81
D7
3E
FE
7F
F5
EE
4D
11
51
B4
7F
F4
2C
7F
54
DF
7F
09
72
DF
36
01
6C
72
32
7F
20
84
A4
EB
81
2F
7F
C6
D3
92
0C
F8
35
B6
81
6E
7F
CC
E5
F4
E3
B3
7F
5F
4F
81
F7
70
5B
C5
1A
4F
7C
7F
7B
69
C8
7F
19
01
7F
ED
FB
D9
84
87
70
7F
DE
94
7F
39
5E
BD
4A
25
7F
64
47
26
33
2E
7F
5E
1A
2E
E2
73
CB
7F
43
97
81
DC
10
52
81
BD
FE
C1
9F
4B
68
1A
7F
1D
7F
30
30
F1
EC
49
7F
43
CE
54
7F
0D
C1
00
7F
75
FE
0E
F4
81
47
E1
8D
0E
3B
82
E5
81
0F
25
4E
FE
7F
B2
