004E
FFEB
006A
FFF3
FFD6
FFFE
FFFF
0012
0044
FFD8
0060
FF98
FFBB
FFC8
FFCD
0056
FFDA
0013
0050
0034
FFB2
FF90
0028
FF96
004B
006E
FFBE
FFA9
FFC4
004C
FF98
FFED
0043
0028
0023
FFAF
FFB3
FFF5
FFEC
FFEF
002F
0064
0048
FFBC
0045
0025
0034
0051
FFCA
FFCE
FFFB
FFC5
0027
FFBB
FFFA
FFE9
0053
FFDE
FFF0
0007
006B
0012
0050
0059
0066
0036
FFF2
FFAB
FFE7
FFF8
FFB2
002E
FF90
005F
0057
FFED
005D
006B
0053
FFE4
FFC8
0017
FFAC
0055
0032
006A
0048
FFE5
0054
FF9F
002C
0017
FFAD
FF93
FFAB
FFC5
FFAD
FF91
0049
004F
0064
FF97
FFC5
0063
002A
FF91
0047
FFCF
0044
FFE9
005B
004E
0018
FFD4
0026
FFE5
FFDB
FFB4
0026
FFE2
FFA2
004A
0009
0055
006B
004D
FFB8
FFF3
001B
0053
FF9F
FFFE
FFB4
FFEC
FFAD
005B
FFA1
0046
FFF9
0010
0070
FFB3
FF91
FFBF
FFD6
FFF8
FFBE
FFAC
0026
FF9E
005C
FFE4
0021
FFCB
FFD6
FFA2
FFD4
0060
FFDB
0014
