FFF5
007B
FFD4
FFE8
0084
FFF1
FFD4
0003
FFDF
FF81
0032
0049
FFF2
FF9B
FFD1
002C
FFEE
006E
FFFD
FFFB
0041
000A
0038
FFBE
0068
FFFB
0023
0052
0040
0000
0045
0002
0038
FFF0
0017
FFEF
004A
0058
0028
0066
0013
FFA5
FFC6
FFF7
FF9F
0017
005C
FFC8
FFD5
FFA5
0001
FFF4
0037
FFC3
FF8E
0072
0074
FFBA
FFC3
FFDE
FFD6
FFB2
0066
0054
003F
FF9D
FFE8
0058
004D
FFE4
0020
0044
0062
005B
005F
0062
FFC9
006A
0004
FFF1
0053
FFFD
FFFC
FFD7
FFA0
FFAD
0071
006A
FFEE
FFB3
0076
002D
0052
FFBF
0039
001C
0062
004F
003C
0021
0028
0028
0067
0045
000F
0021
FFE8
005D
FFDF
0062
0041
FF9D
FF88
FFDF
0014
0043
FF91
FFC6
FFFC
FFC3
FFC6
0039
0049
0017
004D
001F
0060
0027
0016
FFDF
FFE8
0048
007C
003F
FFC3
004F
0071
0010
FFD4
0003
0062
0059
0004
0003
FFF8
FF8D
003E
FFE2
FF99
0007
002D
FF94
FFE8
FF99
0011
001D
004C
0002
007B
FFB1
