1110010111101001110100011111011011100111110011000100011011110101
1111010101101101000110010010111100111111010001000011011011011111
1001000001010010000010011111111111010101011111110100000011000010
1100101111010100110110011110001100111110110010001111011000110101
1011111100000000010100111101100111100001110100000000111100000100
1110001011010110010111101000000110111001101011101010001111011100
1110100000011101111110100000111011101011101000100011001000010000
1101111111000001101110010101010111011100100101101101000111011101
1110110011111001111011111010110011000011010011011110111011101100
1110000011010010010011101100101100010110010011111011101010101001
0001100100100001000100111110111010111111000010100000001001011111
0100001111000111101011000101000011010000001001110011011011111011
0000001100110111000010001101101011000101110010100100011111110101
1110111000011000111101110111111100101100000000110110011100011010
0001101111111111000110111110100110010011010110101101100111011011
0110111000100101000101000100011001111111000010111100100010001111
0011100001001101100111100000110011010010001100000000011100010110
1101101000001110111100000011011010011100110101100010110100100010
1001111111000001001110001000101000011010000100000011101000001000
0001100100000000101100000000101111101001110001010011001010000001
0000111011110111100000011011110101001100111001011111111100100110
1110100100110001000000110011110011000110001000000010110000010001
0111111110111111001101100101001001000101000010100100110111011110
0100000100000111001100001101110001011011111100001000000111110001
0010011100011010000011111100000011011100111101011000111011001111
0010110101111111001110001101011111000001111100101010111111100110
0011101101010001100101101001011001011001110111010001001010000001
1101111000001101010010011000111001000001001001011001011010111101
1100000110011101001000000000010100000000011001111010111000111110
0001000111011100100010010001001000110101110111010001010000101000
0000110011111100100111100110011011100000101011110011111100010010
1110001001000110111010110001001100011010110010100011101111110111
1101100100101110111101110001011111100010011010011111000111001100
1010101111101001000111000000001000001100010110111000101101000110
0110110110111001100110110000100111110111010011111110010111010110
0110011000110110101110000100001011001111111110111111011011000000
0100111111101110000011100111111110111010110100110001101101010011
0110100000010101110100110110000010000001001001000011011101001000
0100010111110000111100001110010000000110001110010101011100000011
0111111111101110100000010111001011110010000001010101111111000000
0011101001001010111101110010000111110111110100001101100100010101
0000001100011010111110001011000111111101001000100100001100011101
1101011011001011110000100100100000000000000111111101110011011100
0010111111110011110011110011111000110011110100100010100011111100
0001011110110001110011010000001100010001100010011111100111001011
1111011011010010000000000010001000101010110011010111101100101000
0100100100100000110101001110011111101010010111101110110100101111
0011101011011111010101010100001011111110001010110000100000000001
1101100100011001111000110001100100100001001001100111111110001100
1101111010000001111101000000111000110010000011101101010011011110
1010010001011110001100001110010011011101000100110011101100100110
1110110100000010000001101100010110111110001011110000010111000011
0100010100011000100000010011011111110011000000111110000110000001
1100111001000110001000011001010011100000100011100010010011011110
0010000100001010111010100100010100111100001111010100110011110100
1011100011101100001101010100000100001011101100000001011100101100
0010001111110100001001001100101100000101111010100000101110111011
0100110100010100010001100000100110011010011101111110111111101001
0010010100001110000010110000010010011100111001010001110101100010
0101010000010100111000011101110111010010000100001100110100010001
0011110110111101000011010111000111011011000101111110111011001101
0001110011011001010011001111010100011000100000010001011000000010
1010110011011001000111001011111001011000000111010000101110101010
1110110011100101000011101110001111000111111000000100101011101111
0001101111001000110111001101111011111000111001011110101000010000
0001000011111011111100001111011100011000111110000011001101111010
1100011001010111100110111110010001111111010111001010101001010011
1110010100000111111111101111101010101101000010010011011110001011
0000001011001001000000110000001011101011000010101111100000001011
1101001100001110110101000010101100011101111111001010100100000011
0011010011101011001000110011100011010001000011110100110110110000
1110011000000100000011101011011111010101100000100000011110111001
0001100001111111111011000011111100110101000001011011110010111000
1111101000100111001110001110000011100111111110001111001000010110
1011111100011001000110000000100011110100100000101110000101011000
0001101000100001000010111101111000011111001011011011111111101100
1101101011000101110000111110010001001110001001010010110100111010
0001010010011101000001110010110100110101011111110011111101000100
1100110111010110110000100111111100000000001011100110110111110000
0001000100000110001000011011101100010010000011011100001001110111
1001110111101001101001001111001100110001111001100010101001001001
1110111111100110001001010000001100101001010111100000010000001101
1011010000011010000000101100101011100110101101101100110110110100
1001100011110000111011010011111100100101000000010111111100111101
1000000100011100111101000110010011111010101111010101010011111110
1001011010000110101100101101111100101000010000111111100111110010
1110110001000101111000011001100011100011000000001011010110000001
1111110010000101001100000001100111101110001011100000100101010001
0010101101111110000111010111010100001000000100101110000100110101
0001100100101010001001111111001000101100001111011101001111000001
0000110011010101000111101101000001000101111101011110001111000101
1010101000001010100000010011010111110100101011011111010000000100
1101101100010010000100001101111110100000100000010000010100110010
1110101111100101111100011110000100111001101110100010101011011111
1010010101001000110100101110001011100001111110010000110111100100
1010001111010000101001100000001011100101011111101110101111010101
1101011100010010111100110001111101010001110011111111101011011100
0000000000100001101101001110111001100010111011101110011001010010
0000100011011110000001000000010111000010000001010001100011110001
0000111100010000010000010000000100000000000010111010110010011110
0000101010110100011111111101000011001001011111111110101010110011
0011000010011001001011101101101100110101001011011101000111010000
0010000000111101100101000001010001000011000110110010111100101001
1000000100010011001100010001110111000111100101001100010000101010
1111101000001110010011010010001110110111001000000010000100001111
1010001100011110000000100011111000101100110000100100010011100000
1101010111111000001100110011001001001010111010111011001011001100
0000011111111000001110001101100011110101010001010111111111001101
0001111100100101000110000010001111001100111011100010101001111111
0001101001111111001101001100000011110100000111010101101011001011
1010011011000110101000000011101011011011111101100010010011110111
1111100111101010000111111010100100011000001110010011001001000101
1111100100011101111101100001110100100011111101100000100011000000
1110101100110000000011100100101000110001110000010100011000101011
0001001000011000010000110001010100110101111110000010010100001000
1001100110110101101100111101101011110111101010101110001100111100
1011001111110000001101011110101110010011111111010010001000110011
0110010100011110111011010011010111001011010011100011110010111001
0010000100100111110011100010100100100100000110000000111111100101
1111111111001010010000010011101000101111000111111101110111100011
1010010011110011001000111101111000110101110100000101111111110000
0001000010110001010011010101001100101110110001010001010100001000
0000110011110110000110011000100011001010010000010010100100010010
1111100111001110001001001111111111010100000100110000100111011101
0010001100100101000100111110111011101000110110101100011111001111
0011011100000100111110011000000110110010111101010010100101000000
0101001111110100111001110010001110100100111000110011000100011100
0011110101001101110111101110011001111111111001111010101000010011
1101010001000010000011110010101011100011101110111101101000001011
1101110100101011001100001101101110110011011110111011000000000101
0101101010101110001001011000000111100011111111001111100111110001
1001111011100101110100110110111000010111110101101101111111011100
1101011011010010000100101011111111110110110001010000101010111010
1110110110110000100000011100001010000001111110101110110011011111
0101000111010011100110010000111010111000011100101111101011011100
1110001100001011110001001111110010111000011010111100000011100100
1101100110111101101000110000001000000011100000010111111100010011
0100100011110010000100111010111011110110111001110101001011010110
0101110101010101001111101111100000100011011101110011011001001110
1010111000010001110101100101110011011010010001111111000000010101
1101100100001100101011100101010111000111011101001111010101001100
1100011100010111010001011010110011101001110110101110010101010011
1110100111010010111010011101101111101100100111101011101000110110
1110011000000101001111111101111011010011111011110011101101010001
1111101111101000110001000000001001001001000011110000100011110100
0011111000000000110110101101010000001101111110101100000001110010
1110111110000001110100111101110111110001111101101110000110000001
1011011110111011101101000010100100110000010010010001110100011101
1001010010110100100110010001101111011000111100000001100001001001
0001011000101011000111001110000101010110111010000000101000010111
0000001100000011111000011010110110111101001111011111010111000100
0011101000001101001001110001111100001011111101010010100111101001
1001000100011101000011001100111110000100110101000010000000000101
1000111000101010101111111110010011100111101011001100001111111110
1001000111110011001100101111000101010110000111010000011100100100
1110110011101110000110101101001000110100111101001110010000010101
0010101011110000000010010001100000110100111011101010011100100101
1110011000001000111001011110011011001111000010011110111011110011
0101000010101001111100101100111100101100110010101111001110000111
1000000101000110001100111101001111101100010000011011000011101100
1101001001110011000100101010001011001010110010000100011110111000
1011011100101000001101100000001110110111011000111000011100110010
0000100100001111011001101110010100001000000001010011111001011101
0101000011001001101101101111110111011001101100100100111101000000
1100111100000100101100001010011101110000011101111110100010111010
0000110110111011110001010101110100101111011001111101101000001011
1100101111011101110101001001001100000101001111000011010000010001
0101101001000000001000000001011111010111010001111011111011010110
1111100100000010000100110111111111111111100110110001000000100001
0111001110111110001100000011000011010111000010100101100111101001
0100011000110011011111110110011011110001001010101011101000000001
0001100010010111110100001111100010100010101100000111010100001000
0101111000001101110110001001000010111100001111110001100111101000
1111100101001100010011011101010111010010111001100001101001001101
1111100000110111010110011111000110101001011010010101000000000101
0110100110101000101111101100111000000001110110110101101100001101
1101001001011011011111000001010110000001001111110110001111011101
0000101111001010001010010000110000111110111001011111011100011001
1011011111110100000011000000011100111110000101110110100000101010
0010011010000001111001101100000011101001010111001111011000100000
1111101001000111010100110011001111101111000010000111001111101000
1110100010100100110110111001010111100011100100101100001011001010
0001010001010000001010111111011110111000000011011000000111101111
0100001000110010111000101111011000010110111001010110101000111010
1111010000110100010110101100011100010000101111110110111101001110
1100111110101011000000010101101100001010011010001010101011101010
0001100011000011101110110001010100101101110000110011111100110101
1111100111000100111001000101010010111101011111110010100011011011
1000000111111010001010011100101000110010110100010001100110100100
0111001000111011000000011111000010110110110101111111110100010100
0010111100010101100100001101010100100011011011011110011101010000
1100011011010101001010010011110010110010000011110011110101111111
0100110111100000111101100001001111111101111000000011111101101011
0111111101000101001001010101011100011000010010000100011001111111
1100001111001010010110011111010111000010101100010010111100001110
0100001000100110111010101011101001011100111000111111110011101110
0011101000000110110010101111001111100111110110010101101011101011
0000101001111100001001001011101111100111100000010001111111000100
0010100000110101101011110000011101001100110010101100000110110001
0001111011011000110110111011001111011101111110001111100011100110
0111100111101100110100110010000101000011101000111111010110111010
0010001011110110111010101001100100000101111001001111110100010000
0001001100000101010000000001010010111001110101110011011111101111
0100001010111011100000010001100110111111100110000101001111000011
1111010011001101001100011110111110000001000000101001111111111100
1000001110001010000100110001001111010000111110010000001100111000
0000111100010100010100010011000001011010110000111100101100000010
1010100011001000100100010001111011010001000010110011110011101000
0000000011110000010011010000010100011000101111001000000100111111
1100001111011100001000010100111110001101000111100100001011011001
1111101000011000111101011100100000100110101111111111110010011100
0101001110111110111000101001101001011011100001111100001000110101
0100100100000010000111110001101100110001110000001101001110110000
0101001000100001110000101011111111110000111000001000101110100110
0010100100110010110000000111111111011100001101010100000000010110
0001010100000011000001100010111011110100111100000101100101001011
0100110001111111111010111111000000010000001010101011011101001010
1010001100100100001000010001011011110001010001101100001111101010
0000011010110111110000111001110001000010100001011110101011100001
1011110100011111110010100001010000001011111111010001111001010011
1110110110011001000000101011111111011111100100001111101110110110
1111110011001111001110000111110010111111001001001100111011010111
1101011111110001110110110100111101001011001001011000010100110110
0010010011001010110011001010110100000111111111111110001111110010
0110001111001010111011011100001011101100100100011101111100000111
0010111100001011101000101111011011011001110001101100011000100010
1111011011001101110101111111101111111110001010111110011100001111
0111001001000010101100010101011000111100011110001010111101010011
0100111100001111100001100110100000101001000100111011011000100000
0000011100010010111101001100000110110011011111111110111100010001
1011011000000110100000011010011100101100110101101101000011110110
1001101111001000111111100101110100011011001001101111001111111110
0101000011110111111000010100000111011010000111110110101000011101
0110100111011011010100111010001100010010101100011101101010010001
0001101100001010000010110101000001111111111001100010001100101010
0001000100001110010110001000000100101010110101001001010111110111
1110000111101000101100010100001100001001000110110010000001111111
0100011111111011000011011111011111111100110111011000000100001101
0110110100110000101101110001010000101101010010100000010011011110
0110101011011111010100111010001110111010101000100001111101110111
1100011111111101111111111100001011101001111001011011010100000000
0100010100011100111011010111000000001001010010001110110011000110
0001000011111011001001011011110111110111010010110001001011010100
0001110000101010110100101011101010110010111110100100111111001100
0111111100011010010010011011111000111011001101100011100000100111
0111010011000110101010001111011111110111000000011110000101010001
0011001000111011101000110011101111000100000010001111010101101000
0100100110000001011000001111010000110001101101011111101011000100
1010111101011101111111010000000111010011011000010000101010010111
0100001111110001000111100010110001011010101100110001011100101100
1111101000000110001111001101111111000011010110000011101111111101
0110010111101101000011001110101010000010010110110001101000110001
0000101111110110001001100010000000000001010100010011110010101110
0100110000000001101111000010011110011001111010001111000100110101
1110101100000011000110110001000111001100110001110010111111011000
0000000111100100000001010001000011100110010010001101000011010100
