memory_initialization_radix=16;
memory_initialization_vector=
0EC004BF1204DF38DEC803FE,
0698F202B340EBF9950AF3AD,
42B4D2F78F1213D2D5064ABF,
ACDFD0DCD71AF21912D6D159,
5DBAFDFBC6B82BF1A800F1EF,
E70B32630065E236D8F108C9,
562E08290C1A2E922B144039,
2A0CDD0714C915DA27EB2A41,
1F09B58528DF53CC439C22BF,
1AE10009E931D461CAE9FDEC,
E9190058D04D3B3B25DD0538,
3288D6E0EAC72478D3A9F4C5,
CA0DB6C40FAF1A4604CA1523,
BE65E8BE1AAFC37C0023C2ED,
71ECF526814FF2DDBFDC4FFD,
5221195FF532EDF5294049D1,
AF12BCFA51B1EE200BC5CA18,
0110D4F54B3608F92CF72907,
F3B916C099003DE38616E2DF,
CD8BA912A3F88110B407918E,
C95708E01ED2112F06FBC0E8,
0018D9BE1681E232F5D9E210,
213925F220D6F93DAD572428,
1C2CC3E344CB0E731683B9E1,
0F0FD1BC152C39E61DEB44D5,
CEE8450FF86911F4B47F2F41,
267044043CFFF0B370EBBC3D,
F04A3637EC38FC124B43E67F,
D1D262D40413A529213DB315,
B3810D32C50403B9BBFCE4AA,
2335E7CB3DA6D80856BDB9E6,
7FA5C6E40B1406F3D7EA71C9,
D035FBDFF12101E245E91503,
07858FC9B9F91201D9E958E5,
D479D8EE591CB2E704FEA942,
FC2E0DAC0FC8FF484A3AC703,
B2653619B7E4DF181D372021,
F22C3CF0E0D8DAD1D936DF05,
DAEBB1D7F7302839BABF43DC,
BA4B10562AC4E1814504D701,
50393EB255B004FB7F080935,
1891DAB1E0B2F04201BEC2AA,
E0A83375E212D0CACD1828F4,
110CCE7EF82DF238CEEA32B3,
1BC637FCE3E5F60084E620B1,
ECDAC6CE6147F3D3181FCE6B,
8F92174DDB0935FCECEED4BD,
4A8AC6F918FF44BAB0D2529C,
FF1B4030DC20E5AA323BE403,
1E1D0EEA4DDA09311B061213,
240D3CE43B03E153331E091F,
45970ACAC91724CE15295DCA,
91F869710B0EE5B7334F3A26,
1EF3CD2122DF012CE40A030F,
1411B08C5DC3D2422B0BB516,
0017BDE30F09290053F13C1D,
FBADB2FECE042AD3C7CE3BDF,
D05F1ED01F13F225FE00D445,
360CF60FF1F0FCF7E406E9C7,
C50A167F0827F319E802290F,
01667F343DCC29B977464D64,
C80419992FECB2014BFD813F,
FC214540E05A10070C0B420D,
1368473C2B39C0F32D0DE527,
30F2F3F3D2E439E0E10D032E,
1B4A17BBF5CDE663DE33E5CB,
2E01EE18EDCA04670826EBBB,
1107D905AD1BD9180BE88CFA,
1AEFFC024BB452F7C6081927,
2A69F3F6AAAF241BEB3550BB,
ABC40BB36F075781E02657A1,
03D2311428CECFB3BB16CB2B,
EBF605FE3EF800ADB90CD22A,
60413F47B1DCE73D7FDEBE22,
23084230EE297FCE4BD74542,
F3F16731FBFCB3E1228C9166,
0CBD0557FD0CC5D03DADB97F,
E7F7CE46A6159B29419EFF31,
09F7438169A67027C55136A8,
1F7F540D29054136261FF7FA,
5E38EE45B528D6136DACFA59,
20110D2F39D814FA28F703D0,
FCE9E2F4F48F11DBB348E52E,
F25CB1F58192CD7116E981FD,
14D4BD31F007D6D2200A8D3B,
FBECF52BE1DA9F361B9BAF5C,
2D1D06EAF5C415F2D82548EB,
3B051055080F46031091F87B,
DBFA05C9523E53DE34D7C620,
EC17CFB4D4CDFACBF46619A4,
81EECEDF0F41C786A8E61202,
CF3216EE015F151FCA6C1F82,
3A09E62AB9C3E31E3859F7ED,
270BFEFAC297D549E83E3A43,
1DEAF117E430C7FB4CBBB628,
17E47FC2790B683E4AE74AD2,
92D20DB0D44DD2F7FBDBF23F,
F6201DE015E221DE150EF607,
0905C434BFF2CF26E4D7E034,
A28CC8F41A7FC5AAFC1D1FCF,
0F411A7DC3F9F6F457F14919,
C97902FC2E2BD72A272214E5,
66B74DEB42D1180AFFA852FE,
CABFCAA0DB1F3EDEA3201B43,
CFC231FC645715A627D42903,
0026060914FFE9F3F9DEF613,
D815FC16C7FFD02A351A25B7,
47681402C0BE41533B0D4C21,
49E54D3F55B4E84943EC152B,
E7D7B5C8130D20F02CECA628,
BEF7A2F0B2EDC71507D8EF41,
012941A172CE36FD30FCD85B,
0A39FC95BC17CCF5D573C006,
F3A6327319E23C9F3CE4DB3B,
E822D830596BD5BB3B7F98F7,
016341E546B941183F39F5B2,
CCC4F8EDB3FC243989EF14F4,
E5E90B26F52DDFDC11C8DC29,
D7D30C26DD3D97C021F8A6AC,
CA124D29ECE10CF830CDD04A,
E7FB40FA3EBE0AC0E7C61829,
0DD8CDF6DA12D2C7C756BF17,
F42EF9FD06F1DB060855DA08,
1909C7A9D5CEE4DFCA2E33A8,
99C9B3C2EFF72AB6E1E066F4,
D0F0D226AB21C5B4FB0FC3F4,
F70C22FEE8E40843D0FA1FE2,
F0EA451C3518CE153337251A,
F3B4D5FC3AB4D30EAF07001A,
15BD370C1409DDC9D2D9177F,
220DE3D45228F200A7FA0B0F,
C7FC2FF8F3B23B0CEED70934,
1645151DFF17A51BE2CCB2A5,
D5FB19C8C81B111FFB2F412E,
2C0EC6ED4224022901900EDC,
3CD8D7272D06F4F1FFC5C2C6,
0EDDE1EE0BC102E93704DB85,
18B134140DFEDFC9F15CE02B,
0E0FFFE841F4D63FD41954F7,
46F1F4231AA31DE5697FEAA7,
15E9E4FB358254E3F12EA2F9,
C2C7140181FA2EDAEB5ABCE8,
FBE0FBC656048122C9BB1E23,
31FE270DDE2EFACF0A01005E,
ECA11CEF2ED26A320B20C43B,
F5C12F0205D5BBE01DF339EB,
E5123B330728A03DD3B2ED08,
BB157F29AC3EF3D39E4F0139,
ACF813DFADE10E153328FEC5,
04C3EEE2E091190DE34CA8BD,
0429EE094A05BA14D6F8F143,
00DA0CFA03C7793BD142D9C1,
08C801E97EFE2C2213DD0FDE,
AB312C22B27F92E3F4001861,
DD1EEA5EBFFA442169D321D8,
CD0EF2D5CD691644FBD50126,
04FA020EEF212F00BE40E955,
3381071D4B3AA99DC9F7EF1E,
F748ECF3FC89664C6212D411,
64EFDC815EE64E3B2907F60E,
EDFBEA220AFE45D34526080B,
2EDE1A0334DAB9D0EA1FE238,
C72F2424CB10C4E6422FEF04,
F803DBECD31202EBC932EAD2,
31E0E2CF0F19E41DD4682874,
1BCD05FB244B1EE41924D71E,
15E6E34176BCD4D5A255FB13,
CB1FE320171D19DED4C106E1,
0C0BA7C5E2CA21ED4FE68183,
EDAE3561C0F7E3A02662E624,
F34E05EBFD589F17E9FE0508,
FCDFFEFB04FB09F5D3494D57,
1DEBE4D341AEF73BB245BDC6,
DB010CEF07DFF50E07D8F52D,
CE4BFD3CBFCB2423D6253326,
7FF608E15CE7CA2605FB1DE3,
A6360CFBBD5AD3EE28E02840,
20F60BED249420045218E0B6,
FAEA38E49BEE6C637F3D08D8,
0FB8E8D2182EC8FFE92A25E9,
E5F2D9C42743110EA2BC40EB,
DB220F2A13EA1BB40B45BDDC,
0CB4F9BE9C180C3F7B12E309,
18041E1025F8C901EC3D01D8,
32FF063850C8D1920F09E6FA,
E63CEF0ECAFACA0B04FFEB24,
00FD2D1B9C36EA271AFAE5F4,
DCE933FCE232B839E5C24414,
E81F029AFC00161E10E6D2B2,
EA2EF7D982D33CDB2A26F2E0,
2CC9EADD2B07F655D9E05D12,
4BD2F0C82AEC0B7F13281630,
F4CE10F5040517D10848E5B4,
34C13EC4DC1C072408383D22,
EDF5533DE6E01927E9B724FC,
400B3CE307C304061ED703D4,
0F12FA092BD801110A140F4F,
A909C5199BDCEC8FCCD82079,
C00EFF9DD9F9FCCF011E1B05,
D016FA06F9E6BC02252E0ACA,
53E2E6FE7181FB7F4ADCCDBF,
CCBFFA0E14B438F4CF30FC30,
1AF2F31923F523F0DA2036E0,
43F8067F6583384E2BE58C9B,
FD34182245990717230CB3C1,
280D0D322ED8003A2606DBCC,
8ECBF60395F7C38BB0203D33,
E4BF12F700D6EFCBFBBF4DFA,
E5E3B26E03D709E9EAD9C8BD,
1C2DE7B51305FE11C9D4C6EC,
410711F90BFBB74B31FEF716,
369281FC123B812B39CEEA7C,
D616F1DE0C100CFEF2F2E300,
EF1EC275FFC5570FEFE481A3,
F208DF111006CA26C21DFE62,
18FADB260692A3F8E249C3F4,
0FCF07DF1221F8F3FC32AEE3,
E91925AED50F29CEF7DA591B,
2B5650985B1A692001960320,
F21E9C44811A3505CDBE15FC,
EA059D29102BABFCE212692F,
3D8612E1193DA90A4103FC34,
EE3AB9F6D11069152418DAFD,
AD0FD4E7A9F4F6B0B22CFBB5,
76034B1AFE3AFA6419D1F3E1,
19CE0DE9D8E1F51529EEE318,
0F1CF2F93A0212022AB5ECF5,
29FE43C5EC280A5B1F001A22,
F54CE92830FF28F1170AF44C,
EFE0B7FAF433F8D9C1D42252,
FACF4C3F19DEBD23D34EB4B6,
E111DC092E2EDEBF0F0BF30B,
C44EC30BCAAD3AEACA0100F9,
5EEBE70557B22F5C0BA98C99,
39A6C906FB20C80EDABC0FBF,
EFE1E92CD72CEDD8F14C2638,
EAEBEF3933C2F1EEF712E59A,
ECE3FCD2C922FDD0FDBAEF2A,
730649F77974FB4A7F81E60D,
3BB7F50011FAF6352A57E5F1,
F6F61EA91D44C20026B06015,
4D270D690BFDF3520F16A6E4,
C2F1E3E1CC9AFE32210A2BE5,
A9B51DE2CCC6D5B1A802D7D4,
122AB7D3053CF2E9FF08277F,
FBCE09EC1210FE32151BE80C,
A702EBF703CE3397D32BD2E8,
4C1318EA3DADE01EF306D2A2,
0D146AED4BF1083306DE97AF,
00170CEEFD42221308315F51,
29DFEFE646EF14ED46F4513A,
E4FD1B191048F10027333D2A,
817FECCDC71A4B91D5002BF2,
D656B40CC13B56F1EFBD2A15,
CC2228F0B818F9CCE02A0435,
C800E80C08D8FDD9B5E92FD3,
01B108EEFFDECBD62E1D1A01,
A8E062302A07FD45F3F7D56D,
E1E20D41FD0CFF2642E9F448,
FA07ED13EDEF26FB19EFEDF5,
EBD40AEFD5143CD1EC103DE8,
10BA74128181CB5A4DE7BC7F,
F51918A2F2F1F1F281BDFF86,
EBF4E5C2DAFF021CC3E311AE,
F80BE4E7493353FFF1C17FA0,
E3E5F257B1CD9CFD061E1F6E,
0D24CD11483851DD18F632D5,
F0FA81190D251FD90540FD18,
763FD62AE509F4EE11ED1D0D,
1B23C52D43FEB68115264130,
BEC72AECFDD4DA15F112C761,
A1E209EFFCE2C7E6F70E1919,
410FB474EBDAC9070E50F024,
F612C9F2F6E30BE527E2003F,
179C51ECEE215B39F5064B25,
CEA01159F825DB0F6722F211,
27D9080B38293D1313E03A29,
25359D78FA10D6B92267D314,
C3F7FB140524CAD0DF480800,
11D89F29372622A7F6632230,
F0F1F0CC243439FBF812FFB8,
D1C612BFECC9B7450AE70E2F,
E77524813E0548FBDC8622CC,
F74042E1ABD8B94227E1A7F6,
2A9B143105E5AC3A1303D92D,
2195282C2F0CE13204090A24,
623BA917C5DFE1B736F30A1A,
D42329ED26FB1BF2F124872B,
ABD02AAF34384432CCCE500B,
E1E820B715EF1DFA3DD2C4E6,
3A1FC8C9180FF6E01C1D3CFD,
CC1F0CECBF1924F6EAD659AC,
7FAB191D17D90BD0F025A2FE,
C2F055ECAFC5C2FBD7E4980F,
CFE8ED4EFA56FFFBF251F81B,
FE27FEE0F8EF97E5D7F1D8C7,
083C08D3E9E6CEBAE9ECD6E5,
AD0A87064E1838C910313018,
B28105100FD842FFB538D935,
F9F93D6824E8161A1C56B154,
F0EAFB56AE1F18F1212BE84A,
29585EDD29E4DF03C9FED10E,
D8B638E530F9F74328DF57ED,
E9E10B236636431010F815E4,
D1E610A1DF0EF94ACFA51BFB,
24E4A2F52E227FBF0D2423BA,
325F621DFF0B192B07812C02,
9CBB4E1D1702170AEB349A02,
41E01906EAD5AF28E4F5DACA,
1A2DD3EDEE1B23E7E0362ACB,
666AF8E7CBBBA8F11F0AD804,
E621DF08E91A13BE08025DDD,
D9A802BC58301622DAFFF0F5,
2A2E552D0113242A0ADF33A6,
BF2E0FFADD051E01202A4D3B,
E6D217FF3E08275607EEF321,
6E2D15B4E3DB9201C801C1B4,
3F3203E81EE2D3F9F6F7C4C2,
0AD61AEC27F4F22C0CEB04ED,
2CCE292818E5C721FC24BD19,
64B725FA41BED702D91C0FCA,
01B4C6E741F81EF6DDD106EC,
08BCFDE0F9FE15D7FA1AEDFB,
0637D7F00BF9FA3C360EEF18,
CD892CE1E71904D1EB33EB03,
4ED9AFFADD81FA28201A8EFE,
1A33E1020D021D37D040F912,
F609FE2BF521F3E6F712C5F1,
DDBA1FC99767E7BD23F15926,
0EB604E136C5DF453AD7F62B,
3DE40F1E441F3B2D2028E1E1,
05C9628F9E6DB4FF4DE65172,
111B3919D8ECFDDB7104F432,
926E5CEEC9278B9E19880BDC,
48AC90FB04D304B39447969A,
FD08D4D425D506D9D3131829,
3718D103EFD0E22069EF9C3A,
05DF2B06E4EE0D112518D8FD,
198531E44613F1249C2D46F8,
B79E2FC3BEBFAFF0EAAC2281,
CC1A325EB304C2AB4F833CF6,
14240C46F1EADCD938D22EEE,
46234C321528D1092DF2D8DE,
2BBE7FB8280CF5BC21FB81CE,
450E28F4321549072441340B,
2538965BEA2A1A20B9C0FCC1,
856C4911814EBDA241BD472F,
DC1AA75C17F3DE28E4A89F20,
14E6EEDEDADCBD262DAFEDD8,
72810F81E517403AF05D2094,
FF2B3632D4ECC71C56060164,
320FB5D94CD57F0C4A7FB808,
E0192301AA491EF1FAAB7AFE,
188E1E9903FC2E27C829FC10,
E2F842ECE828B42D0FA76306,
D5110816D451DBE6D2A9FA13,
F2FCD0E1D702E2FCD4333610,
03F9F62DADCBCE09EEFB0004,
7F0747EE5EE2561057060CA0,
ED4F35DCD9B9FCAC0518ECA3,
FB65DE09FAF00BFAF64D9D35,
ECBB3DB2EE27DB4315ED0C27,
D1F4C04306BB0709EC2CA5DB,
64D802F75000233BF7F622F3,
01C51A2424E53E45D603C5EA,
D734C7FBBB1DBBD7D60A244C,
A1D27BD7EAFADDCB34B900DE,
63A11D98075543B99E7E54C8,
A007E12FBA03EEFED9A320E5,
5BE8433AE66ED3E4E0FD3D1A,
BCFBF1E2BDF1B26A5497F42A,
EDEB98BCEB0B1A5BA47800D0,
0055F8243EC5F4DDE2FDAAD0,
EF33FC0E39222C3923CA3516,
CC1AE1C4D9F6BE307FB3ED4F,
D6E940B0CC1DD9AEF4032A17,
F59D5FF7E4351CFB2015FA11,
DB62FE22CC3016DB0ADAD7C8,
0CD01CAF0115F244B8CB3AF4,
FDC7A8023015DBDFDB1FD5BC,
EC5ABF3A0B1E62432119A5D1,
B616D85CEAE8D9D03E97D44C,
04FDD0F740BFF97F1C68CEF2,
3E071F3EE5BBE4324909AD1B,
93EFF7E9C9ECDDFFCA0406DA,
D3EF3C04BF1733B62132E241,
E6532330CAC3FCEBA9D7F8F7,
D65B25CBE9DBD1EC363BE4D9,
F2CE1A21B7E8D3F42F1C20CF,
C5F06B1F10654EBDCDEFF044,
15B7AC61D9B71F15DCDCF9F4,
2E81BE22B6F7E7F3D2DE4208,
1CE3FC20189C87FAE92BD7CB,
BF3E55D4FD3CE2E50DF917EA,
FDE5C24901DDE5C1F91C24DE,
F4A529BDE381EE2DFF067F81,
080ED0024EA2F2E4E81C17D3,
FC5D29BB785830CCFCFEA9D8,
D9BDF964AFE8E1DEE3CB1031,
1809F1F2AC27B7FE34EB3447,
D779E5FF311CD3DAC5024BE3,
300F12F4BDD23217FE14DFEC,
C2150303BA0221AF2704BEFE,
BB5D7F81BD19CFC72132F4F9,
1EEFC6C8CA2327F3CA08D8D7,
11502ABD290EFBD892BD3CEF,
D8E94C40DB2009DCDCC6FB00,
BD0EE4075807A7030409D9D9,
F6C9BD36F0E01232EDBA0C30,
EE0E3E01E0437FB81806CA10,
57B8E6BC3C1B2237342C03F3,
4D0A0AF7FC26FD28E8C73A5B,
BC2F57B3C07AEBA5372F1F39,
D7DF2425DD5CDAA43317E319,
1958DE983AF9177FC6EC33BD,
08B7F574059BE7168BE409DB,
0294C6D91BFF1B084F1FD029,
BBD84518F308E6EF1D231CC8,
130105C1E3FAEE45453D08FC,
02FEC3080F0D2321DCDDD8D0,
015220D0D5512DCD11DBDD29,
2029FDDABC401314B7E137F6,
9305E159B402FBE713080E1A,
180FC1E4EB032DFB3010E125,
6CB3C6FF1114DA30B88138DD,
EC2D2FE60BCC9E204C1E210D,
E7D3EEEAC5EA27C5FE0E0613,
B7254CE9FD1908B8F8140F2D,
F2C60236A9B7EAD7BCCCF9F4,
C6E8E9DDE82F23432C41020A,
20E9E3D0E4C50ED87F2BF600,
E2F7095796C318E40826430C,
29F1EEB3D6CEF5193636F0FF,
B9F9C2DF1F2C1225FAC541E0,
4FE6F8FF1904056BD4050D0C,
AA2104F50F35E1D4D5D1CB3F,
003DF1F00C416EE7F5D2AA29,
F3F4F8173BEFEC11E0170FF7,
E04107B37FC81C7FC2D14CD1,
F50CE71830B6F1033F3002EA,
F985DA29B6AEA0BF260C10E8,
3FE8CE06401113F6231AFD33,
3CDE13E2D5FCFFF7330D1DF8,
D3F31B14952832CC04ECF41D,
7F0DE045ECFEEEDBCBC09CDC,
241E029A03215A3907071A0D,
D245EB3B030CE704CAE7DD33,
3642D62DD014EA1FEEEB3D0B,
D0FFEDC7172ABD6CE35B079B,
CCF3E86F125AEFA8ECC9F131,
F24F20063626105ECCDC45D6,
E8D723EDD113F50114E9E034,
1747FCD8CDF109C022C2FD4E,
09813473EA2BE63944C712C2,
2033A6C7CEF6189208A3EC16,
31FDE7B702D722B0DF1B062F,
F12206D5039724F805DFFA78,
9BC2426457601A56FF594B0D,
F65C4E07EB4000124B37D505,
D53EE1AE45FA7054EC491046,
190822981CD41447CE54FDF5,
E5C52EDF39D80330DF135141,
FEF2FB66DD28811104D013A2,
D0E61D7F07463DBE190BF5D7,
F5D76CD57EE30563FB7F501D,
4FCFF81EF0C1E214D5F70C49,
BC14DE1BCC32A9EA0FB7CC48,
A9D10D4D3BC0A74F030B31D7,
21F6E62F012B27E3E9EB2E48,
E01545B27F08D63FAC6038EB,
F52D1A600967A5F040D37200,
0C4263DA56D3027F03187F24,
E244EFC11339F2BBF1E83EED,
061BCA40C1DAB1D553A4A60B,
0EC981AFC18162E826F1877F,
1783061A0B030C3BFB10B4FB,
06AADA31044A086757F6E0D0,
811B3228E3208711B80521F5,
10EEFDDA1ED24023DA18CDDB,
F6E50BE52E5FF2BCE3BC0FD7,
F224EA1609D81010F420A5FB,
DAE621D5EA3ED948E3DE00F9,
EFD50CE90A11F2B003FFF05A,
541191F60985100948F1D3CE,
2DC659020F5E1D660F04F3C6,
16A7CF1DE2FFF3E0DCE1F80B,
061A64F02175C007CB556CF4,
14FFA7E6CBD9DF0C00BAD7C8,
08DED0D8C2122ED3FEF0D5BF,
A33933E413B128CEC0DAE023,
2CDB32EAF1BFB20023BFD0E2,
D8FD663E5F6AD952EA054EEE,
F20D0B91621B0BF2074F77EB,
F5D7A838DADF1FF4290BB823,
D40FFADBDD8812DBD913D451,
C23E42DF1D5AC2C311A91B47,
0CC9C555ADC10B9BD99AF4F7,
2A7BF6942E161F4A02456954,
431809BE3EE37DC6FF52A2C9,
0E265007FE52050DFCBF5697,
32FBFC359AE4DE317FC0D2E9,
F318C9BC1E261B12E60D243E,
F88FBC0605B62427301CEDD1,
14321BEA1DC4EA0C042B4C30,
B71614C2B62D2A9DBA1AE90B,
331A3DD5E1ABE3CA31E0C204,
DC0DCA2823F1F4EAF7143645,
38F7FC1BD115BDF931C50925,
2B0C0D9AAF29D31348D1E6C7,
33D915DB18BE381CFE18CC16,
E6132C68FC35C91E5CDA49A8,
DDCB35E2F8F9259A2F223AE0;
