FFD70009002F0015
0016FFF80001FFFA
FFF50018FFDC000F
FFEAFFD7FFEC0000
0008FFE3FFEFFFE8
FFEC002900190001
001C0010FFE2FFE5
0004000AFFD50004
0000001D000CFFEE
001600080015000C
FFEC002E000E0010
FFF4FFDC000E0009
FFF7FFFE0006FFF3
FFF4000F0013FFE0
0005FFE5FFEFFFDC
0007FFDFFFE8FFD7
FFF600100024FFFC
00250021001AFFCE
FFEA000BFFE1002A
00060019FFC8FFE9
FFEAFFC600000032
FFCCFFE70002FFF4
FFD100060001000D
0004FFF6000AFFFC
0005FFE70016FFEA
FFDCFFF6000EFFFA
FFF3FFEE0019001A
FFDE001D00130009
00100012FFDC0026
0023001B0001FFF2
000FFFDE000E002F
FFE3FFDCFFE50013
0010FFF7FFE50006
0028001B000BFFFE
0000000A000D000A
0028FFE9000BFFF3
FFF5000BFFDD0010
FFE0FFF0FFFA000F
FFFE00270022FFFF
0031FFFAFFF5FFE0
000EFFE90013FFEE
FFF50014FFFF0008
FFEEFFFC0003FFDE
002A0005001A000E
FFD3FFFAFFFE0001
00050008FFFC0001
FFF6FFF6FFE3FFEB
000BFFDC0006FFFB
FFE0000200020035
FFEB000E00070010
FFF8FFF00023FFE8
003C0016002DFFD6
000900000019001A
FFD6FFD7FFB30028
001CFFD20002FFDB
001AFFE0001DFFE4
FFED0001000B0013
FFE20017FFF4FFED
FFE900350014FFDA
002B003FFFEB001B
FFD10010001AFFE5
FFEB00020017FFF6
FFF4FFE0FFEBFFE7
0020001AFFF40024
FFF7FFF2FFC5000A
0006FFFEFFE70020
FFF7FFFE000AFFF4
FFEBFFED00130036
0012FFDEFFF20018
000500030008FFFA
0010FFE300210023
FFFCFFE6FFD60029
001DFFD80026FFE0
001AFFFE0028FFEE
0017FFD8FFEEFFC5
FFF7FFF20011FFF8
FFDA0002FFF8FFE8
FFEF0021000DFFDC
FFEFFFFCFFDD0018
0022001CFFECFFE8
FFF30025FFEFFFFA
FFED0007000AFFFC
FFE7FFF40015FFF3
0009000A0014001C
0000001BFFDCFFF6
FFF0000000190016
0012FFDE0023FFE3
00110011FFDB0022
FFC7FFDDFFD0FFE6
000CFFDBFFF80012
0035002C00190014
FFDDFFFFFFE5001E
0012001B00030008
0022FFF5000B0031
002C0017FFE20006
000CFFEA00210006
FFE4FFD6001A000A
FFEB002B0024FFF4
001A000EFFEEFFFB
FFFA000CFFCEFFD3
FFEEFFF2FFF60008
FFE8FFF10010FFBD
FFDC00080013FFCA
000E0013FFE3FFF8
000E000800140015
0002FFF70021FFED
00000024FFF8FFF6
FFFC0000000A0003
001EFFFDFFE8000F
000BFFE4003A000E
FFF60029FFE0FFE1
0025001F00080024
FFF2FFFB00060029
FFDEFFD9FFEBFFDF
0017FFF2FFCA0024
0012FFF4000EFFDF
0004FFFA000CFFE6
FFE8003000190000
0029000FFFF1FFFE
0000001F0018002E
FFEF00180020FFFE
FFE20021FFD6000D
FFEE0018FFCAFFE4
0034FFD4000FFFDE
0029FFD10002FFF9
00000000001A000F
0021FFDD0026FFFC
002C001D0023FFD7
001BFFE8FFEFFFDC
0001002CFFF20000
002E00260019002A
0006FFE3FFF9FFFF
0006FFCB0006FFD0
0004FFF0FFE1000A
FFF1FFE300180029
0036FFDBFFF4FFF6
FFEC00100022FFFA
00050008001D0020
FFD50003FFFB000F
FFE60008FFCA0011
FFE3FFCA0017001E
FFCB00070035002E
000BFFE3FFDBFFD8
0000FFFCFFE6FFE7
FFF1FFE10012001A
000A0018FFE90008
FFFAFFE30005FFE5
FFF70020FFC8000F
0003FFED000DFFEF
FFFFFFFBFFF7FFF4
0001002CFFFAFFFD
00010015000AFFF9
FFF0FFE1FFE70001
001AFFF70003002C
001F000E0007FFCC
001BFFCF0016000A
0020FFFA0000000F
00000026001F0012
000CFFF10016FFDB
FFEA001DFFE10000
FFEAFFE0FFF8FFEB
FFFEFFEF001E0015
FFF300170002FFEF
FFD1FFE9FFDB0010
FFD30000FFD8000C
000B002EFFE4FFF5
0016000B002AFFF6
0016FFEC000C0003
0012003EFFE30026
0017FFE50018FFFB
001900070035FFEF
0028FFE1FFE6FFEA
FFF4FFE7FFF1FFF4
FFF3FFFE001A0013
FFF90016FFD90004
FFEEFFFDFFFF0007
FFF10014FFDCFFFF
FFECFFD30031FFE2
FFEA001BFFF7FFCE
0027FFEC0012FFD5
0018001EFFEEFFF8
0003FFF1FFFE001E
0013001EFFFAFFFD
001FFFF0FFE40001
001FFFFCFFDCFFFD
FFE0FFE3000F001F
FFEB0016FFEA0016
0000FFD8002FFFEE
FFDF0014001DFFF7
FFFA001000170013
0016FFF8000AFFD1
0011FFFCFFE2000F
FFF8FFF4FFEBFFFB
0030FFE7FFE3FFE1
0002FFEA00240022
FFF1FFF30031FFE2
000C000500100027
FFDF0013FFEE002B
00270007FFF8001A
FFE50022FFFA0023
FFE80003002F000D
0029002BFFCC0021
00130012FFD1FFFD
FFDCFFC50009FFCB
0017FFFC0005FFE6
0002FFEFFFF90003
FFD9000DFFF3001D
FFF5FFD4FFCEFFEF
0012000100000002
FFDAFFE3FFE7FFFF
001D000DFFCA0019
0001002B0005001B
FFDCFFEFFFD6001D
0015FFE2FFE7000C
FFFEFFDF002AFFE1
FFF3FFCC0000000F
0018FFEB00110006
00260013FFF9FFF1
001400150008FFDC
FFECFFF40001001B
FFD3FFD300280045
00210014FFF1FFF2
000A0023FFE3FFFB
000E002EFFED0004
000B00060011FFEA
001CFFF4FFFA0012
FFF200150018FFF8
0016FFFB0010FFE4
0017000CFFF1FFD5
000200090040FFED
0023000BFFEB0011
0038000D000EFFF6
FFDEFFEC0012FFEF
0012FFFFFFF10001
0011000CFFEF0022
0026FFD6001D000E
001500130011FFFE
FFF3FFE8FFEF0005
001BFFC2FFE20007
000BFFDDFFD7FFE8
FFE0002800140015
00120032FFE3001C
0030002F0014000A
0009002B0015FFE5
0023FFFC0028FFE4
FFF9FFFE000DFFFA
002EFFEEFFC9001C
FFEFFFEDFFD50028
001AFFDD001D0004
FFEAFFEFFFDAFFEE
0014000DFFF5FFF4
FFF4FFE1FFF30036
FFE9FFFFFFF5FFD5
FFFD0011002CFFF5
FFCB0019FFFA0011
FFEEFFDCFFEEFFED
FFF1FFF5002C0019
FFEE00320034FFED
003600020013000C
0011FFD800060025
001CFFE2000CFFF4
00290002000EFFF9
FFE0FFFA0020FFEB
FFE200180017FFFA
FFF2FFE2FFE0002A
FFF40005FFD60019
FFE8000100000005
001CFFF60004FFEC
FFEDFFF7003B0002
001B001FFFE40019
0023001E00010043
FFEE00290019FFF6
0008FFF9FFFE000B
FFE70017FFDCFFE9
0004FFEBFFE60013
00190001FFC2FFF4
000DFFDDFFDEFFDC
FFF2FFE2FFE4FFBE
FFEDFFDBFFE0FFDB
0018FFEA0016FFDB
