FFE6
FF7B
FFFE
0053
FFE0
FFDF
FFA6
FF9C
002A
FF7D
FF97
0030
FFB2
005C
005C
0089
000F
006B
FFB8
FFD6
004F
FFD5
FFB4
FFED
FF63
0021
FFB3
0090
0056
0049
FF93
FF79
FFDF
0085
0026
FFE7
FF96
FF84
0046
0008
004C
FFDF
FFCD
0005
FFCE
0038
FFD5
007B
FFD9
FFDF
0067
0057
FF62
0043
FFCA
FFE7
FFBD
FF86
FFC4
FF7E
0053
FF8D
0033
FFF4
FFAE
001E
FF6E
FFC7
FFDF
FFF6
FFD4
FFF4
FFD0
FFA6
0009
006A
0069
FF84
006E
FFFB
0002
FFCF
0094
FFB5
FF81
009C
FFB8
FFBF
0008
FFAC
0007
FFF6
FFD7
0042
0082
FFFC
