FFC5
FFDA
000F
FFC6
FFB1
0006
0018
001C
FFC5
FFB6
FFED
0035
FFCB
0032
FFB1
004F
FFE4
000B
FFD7
FFBC
FFFC
0012
FFDE
FFF9
0019
FFEA
0015
001E
0014
0014
0013
FFDC
FFC7
FFEF
0013
FFC4
FFF0
FFB4
FFE0
FFEA
0014
FFFD
002D
002E
FFF2
0050
0027
FFBB
0045
FFD5
FFD9
002E
FFD2
FFE3
0041
000D
FFF1
0049
0024
FFBC
FFD1
001F
FFB0
FFC7
FFE9
FFCF
0009
003D
0047
002B
004F
0006
0009
000E
FFF9
FFEC
FFCA
004A
FFF7
0045
FFE7
FFB5
FFF5
0013
0035
002D
0006
0038
0050
004C
FFC2
0012
000D
FFC6
0040
0011
001E
FFBA
FFEA
FFF9
003F
FFC0
002E
FFF9
FFC4
0011
0027
FFBD
FFF0
0045
001F
FFC0
0032
0008
0044
0012
003D
0001
FFCE
0045
0027
0039
001C
FFC3
0042
FFE8
FFCC
001F
FFFF
0015
FFB8
0039
0049
0027
000F
FFEB
FFE1
FFFA
0019
0032
FFD1
FFD1
FFD8
FFBA
004D
FFE5
FFC9
0023
0038
0028
0050
0000
FFE5
0028
FFBC
FFB6
0035
0039
0005
0001
0011
FFDD
FFE0
0033
0017
FFB6
FFC6
FFE8
FFF4
0007
FFD1
FFBA
FFF7
0045
FFF4
0046
FFDC
0033
004F
FFC7
FFF2
0013
FFF0
FFDD
0045
FFE8
FFE5
000D
FFE1
FFE2
0007
0037
FFD8
FFBB
FFB0
0041
FFD1
FFB3
0011
0031
002C
FFB3
0048
0018
FFE2
003F
FFDB
FFB2
FFED
0013
FFED
003A
0050
0034
002E
FFBF
FFF8
FFED
0028
FFB9
FFC9
003D
002D
0039
002E
0045
FFD9
FFCF
001B
0035
FFEE
FFB8
FFCE
FFBB
FFF2
FFD6
002A
0030
FFB6
004F
0001
FFD1
0044
FFED
FFE9
FFDD
FFD5
FFE2
FFD9
FFC2
FFBA
FFDE
FFC8
FFB5
FFD1
FFC0
0035
003C
0022
0000
FFC4
FFCE
FFE1
0023
FFDB
FFD8
004E
002E
004A
002A
0045
FFD3
FFF2
FFB0
001A
FFBA
0002
0025
0018
0047
0003
002A
004F
FFD9
FFF0
0021
FFF7
FFFB
004A
FFDD
0043
FFC6
FFC0
003B
0045
FFD0
002B
FFFF
FFFD
0019
004A
004A
0046
FFCB
0010
FFBA
FFD2
FFB2
0009
0038
0008
FFC3
003B
FFFF
0044
FFCF
FFE2
001E
0012
FFCD
FFF0
002A
FFEE
0047
0006
0046
0006
003A
FFDF
FFDD
FFCD
004B
002A
003B
FFE1
FFC8
FFB0
0016
FFCC
003F
FFDB
FFFA
FFC7
FFDF
0026
0012
FFE3
FFB0
FFF0
0000
002B
FFEE
FFF3
FFFA
FFED
FFE8
004F
0033
FFB9
FFBC
FFCA
0030
0021
FFD7
0005
0008
FFD0
FFE7
001E
001E
0048
FFF0
0034
0033
FFD8
0043
FFCD
0007
FFFC
FFEB
FFD8
FFE5
FFDE
0022
FFC5
FFD2
FFDF
FFB9
FFBD
FFBC
FFEF
FFDA
004A
0000
FFF5
003C
0016
FFC8
FFE8
FFCD
004B
0033
002D
FFEF
0000
0036
000A
FFEE
FFF6
0016
004E
FFD9
0003
0007
0003
0006
0034
FFF9
0009
0026
FFC1
FFFC
FFF4
FFBF
FFB1
0027
FFE5
001F
FFCE
FFEC
FFB9
0023
FFFD
FFF7
0045
FFF2
FFF3
FFD3
0025
0004
FFDF
000B
0015
0001
FFD3
0013
FFC0
0006
FFC6
FFCF
0022
FFEB
002B
0041
0035
0047
FFE9
FFD8
FFC4
FFB8
0011
FFB3
0022
003B
FFB6
FFF8
FFDB
FFDD
0050
0045
FFE0
FFCC
FFC5
004C
FFCE
FFB8
0022
FFD2
0045
FFF2
003A
0021
0017
FFEE
FFEF
FFDB
0013
0019
004A
FFF6
FFFD
0013
FFEF
0021
FFC2
FFC2
0033
FFDA
FFC8
0037
FFE5
FFC7
0010
FFEA
FFF4
0006
FFE6
0046
FFC0
FFDB
002A
0018
0044
FFD7
003B
001B
003B
FFF1
FFB6
0016
FFEF
0048
FFD2
FFC2
FFE4
FFF5
0042
0036
001E
003E
FFD5
0017
003C
FFD3
0020
004A
FFF6
FFB5
FFDC
0037
FFEE
0030
FFE4
0035
0019
FFFB
004F
FFC0
003B
FFE9
0001
004E
FFB1
0032
002B
002C
FFBE
FFE0
0036
FFF5
FFC7
FFCE
FFB4
FFF5
0016
0026
0031
FFDB
FFF9
0042
FFB9
FFBD
FFBE
004A
FFBE
0024
001A
0010
000A
0027
0003
001D
FFCE
FFD4
001B
FFC1
004C
FFDC
001E
0014
FFF0
FFCA
002B
FFDB
004B
003E
0012
FFCC
001F
003B
FFBF
0013
FFEC
000E
FFFD
0027
FFFF
0046
FFDA
001A
004D
FFE0
FFD0
FFFE
FFEC
0043
FFCD
FFDE
004F
FFEF
004F
FFC0
003F
FFE0
FFFC
0018
FFF2
0037
FFCE
0047
FFC7
FFFC
FFDF
FFCC
FFE1
0018
FFF0
0014
0048
000F
FFC2
0026
001A
0010
0042
FFE2
0033
0015
FFF7
0018
003F
004E
FFD6
0011
FFFE
0020
0044
0040
004A
FFB5
0038
FFDC
FFB5
001E
0017
001F
004F
FFD3
FFCB
FFBC
FFF6
0035
0020
FFD0
FFC8
0027
FFCB
0000
0004
FFC7
002A
FFEA
FFFE
0033
FFEC
FFED
0049
FFDA
FFF1
FFF2
0044
004F
002C
003A
0026
FFC1
FFDF
FFD4
FFE2
0039
FFE4
0035
FFF0
003B
FFEB
FFEB
0008
FFBE
0048
003A
0044
001D
0043
FFCA
0038
003D
FFC1
0034
0001
FFC0
0021
FFDA
000B
FFC7
004A
000F
FFBD
FFBF
FFDD
004B
0037
FFF9
0034
FFEA
FFDC
0018
000E
FFCC
0023
FFDE
0026
0037
000B
FFBB
FFC4
0024
FFE7
004D
0007
FFCC
001A
0027
003F
FFDF
FFC3
0020
0004
FFEB
FFB6
002D
FFF7
FFBF
FFD1
0040
FFF4
0008
0003
FFCD
FFC1
0032
0038
FFD8
FFD5
0008
0044
000C
0009
FFBF
FFBA
0030
FFB0
FFC7
FFD4
FFC4
FFCA
000C
001C
004F
002B
FFDC
0011
003F
002C
0042
0027
FFDB
001E
FFC7
FFC6
004D
FFB9
FFC9
FFD6
FFB3
001C
FFDA
FFE5
FFB2
FFEA
FFDD
FFFA
003E
000D
001F
FFED
FFFF
000C
FFDC
0037
FFCB
003F
000F
0033
0010
FFE9
0032
0017
FFFC
FFB8
0028
0018
FFE6
0006
000C
002E
003C
0009
0029
0040
FFB2
0028
FFE5
FFD2
FFE6
004A
FFCE
003C
004B
0039
FFDE
0035
000A
FFC9
000C
FFB0
FFF0
FFBE
FFB2
0041
0010
000B
003A
0015
FFE2
0019
FFF1
FFCA
FFC9
0011
FFBC
000A
FFD0
0007
FFE9
FFFD
FFC0
0008
0033
0042
FFEF
003A
FFCC
FFCD
FFF4
0016
FFE0
001B
000E
FFF5
000E
001C
FFE9
FFC7
FFF7
0011
FFDF
001A
FFFA
FFE8
FFCC
004E
FFB0
FFB1
FFE9
FFCF
FFC9
FFF7
FFEC
0014
FFF1
0031
FFF8
FFCE
FFB5
0020
FFDC
FFDB
FFBA
0015
FFE7
FFEB
FFBE
001F
003F
0045
FFDE
FFEC
FFD0
FFDC
0013
0012
0007
FFBC
FFC5
FFC8
0048
FFCF
004E
004F
FFF9
FFD1
0040
002E
FFFA
FFBA
FFC6
FFD0
FFB4
FFFF
FFF1
FFCD
FFE4
003B
FFDC
FFC5
004A
FFFD
0017
FFF0
001F
0004
0050
0040
FFDF
001F
FFD1
FFFC
000F
0023
004D
FFD4
FFCF
001C
0013
0008
0036
003F
002F
0009
FFE1
FFD8
FFDB
0048
FFE1
0011
FFDD
FFF4
0017
002C
FFE0
FFFD
FFB0
FFB9
FFBB
002E
0002
0028
FFD6
FFF1
004C
FFC4
FFEE
0035
0013
0030
003F
0027
FFDD
FFE3
FFC9
004A
FFD6
FFC4
0034
0028
0041
FFB4
FFDA
000D
FFD4
FFBD
FFF5
FFB0
0006
FFEA
004B
004A
FFDB
0047
FFC1
004E
003F
0028
003A
0039
0038
FFBB
004A
FFB6
FFB4
0032
0004
0038
FFBD
FFB4
0003
004C
0002
FFF8
001E
0015
FFED
FFCB
0048
FFD8
0023
0019
001B
FFC9
0023
FFB0
0008
0038
FFCD
0017
0047
FFE1
FFC7
FFCD
0002
FFF7
0042
FFF8
0034
FFCB
003A
003E
FFE3
FFF2
FFF4
004C
0030
FFD6
0047
0009
FFC9
FFD5
004D
FFEC
002F
003E
FFF7
003B
FFF4
FFCD
002C
FFBD
0012
0023
FFD8
0034
0005
FFF7
0033
FFC6
0009
001F
0041
004F
FFED
FFD8
0021
FFE2
FFD3
0018
FFDC
004E
FFDA
FFBA
FFDF
003A
FFF9
FFEF
FFDB
FFC1
FFD2
FFEE
0041
0026
0025
0005
0021
004E
003B
0011
000C
FFCE
FFCF
FFE3
FFC8
002B
0001
0022
0016
004E
FFBE
0018
FFCA
FFDD
003E
FFB0
FFF3
0005
FFC0
FFF0
0036
FFC2
FFF3
FFC4
001E
002D
FFF0
004C
003C
001F
0024
FFE9
FFD7
FFD3
FFF3
FFF7
000A
0034
0044
FFC3
0020
FFCF
FFFF
FFF4
FFC0
0046
0050
0045
000D
004A
FFF3
FFF1
0016
FFF3
FFDF
0050
FFF3
004B
001B
FFBC
FFD1
0029
0027
0028
FFFE
0022
003A
002F
0033
FFB7
000E
0003
000D
002D
FFFA
0027
FFB6
FFC7
FFC2
FFB4
004B
FFB2
FFE7
FFC8
001A
FFE9
0037
FFCA
FFF1
FFEB
FFD5
0010
FFB5
0041
FFC1
001E
FFD2
0037
FFBE
FFCC
FFCB
FFC3
FFB6
002B
001C
000A
FFED
0033
004A
FFB6
FFDD
FFCD
0016
0011
0044
0039
FFFF
FFE6
FFE6
0016
FFFE
FFB1
004A
0041
0020
002A
FFFE
0016
002E
FFB8
000C
FFB4
000B
0032
FFF5
001D
000E
0021
FFDC
FFD1
FFE2
0045
0035
FFBE
FFBA
FFB9
FFF8
003D
FFF1
003A
001F
FFDD
0022
FFE4
FFFA
0017
0027
FFD2
FFCD
FFB6
FFC9
FFFD
FFBD
0005
FFCD
FFE9
FFD4
FFCC
FFB5
0016
FFCF
0025
FFCF
FFEA
FFCD
FFBD
FFC6
0007
FFCC
0030
FFE5
0045
0026
FFDC
FFBA
FFD3
FFF6
FFDD
004E
FFD9
0043
0022
FFD2
FFC0
0032
001C
0004
000F
0027
FFE6
FFEA
FFE6
FFC3
FFC6
0006
FFF4
FFBA
FFE0
002D
0037
FFDD
FFE7
FFEC
0012
0047
FFD4
001F
0027
FFCE
000F
FFC6
0009
FFE1
FFED
0029
001A
0001
0036
FFF8
0030
FFDC
0047
FFD4
FFD5
FFCC
FFED
0033
0028
004F
FFD4
001B
FFBE
FFDE
FFD1
FFE7
0016
FFE6
0003
FFEA
000E
0001
FFE6
0046
FFCB
FFF6
0025
004D
FFE8
001F
0019
002F
0032
FFBB
FFED
FFBF
0002
0046
004E
FFE2
004F
0027
FFB9
004D
FFF3
0027
FFC3
FFE8
FFEA
FFFB
FFD7
FFD2
0047
FFCB
0020
0013
0008
000C
0020
0036
FFE7
FFF5
FFEE
003E
FFE3
0021
FFFB
FFC1
0043
FFC1
0030
003E
FFB0
0001
001C
FFFB
FFB9
0050
0049
004D
001C
002B
FFD4
0035
002A
FFD3
001A
FFD2
0011
0027
FFC7
0043
FFCA
001D
FFC3
0028
FFB5
004B
0038
FFD9
000E
FFD7
FFF1
FFFE
FFE3
0021
FFB3
0045
FFF1
FFB0
FFE2
004A
FFCE
0041
0039
FFF7
FFEC
0044
0018
0012
FFC0
000C
FFEC
0047
0049
FFB2
0050
0012
001E
0036
FFD1
FFF5
FFCE
FFD6
0027
FFD5
0012
0038
0014
0028
FFD5
000F
FFCD
FFF2
001C
0038
FFE9
FFEA
0048
000C
FFC5
FFD6
FFF0
FFFA
0008
FFED
000A
004B
FFCA
FFF9
002F
FFC1
001D
0012
0031
FFDD
0032
FFB7
0037
FFE1
0019
0018
0021
FFD9
0008
FFF3
000A
FFBF
FFE3
0018
FFB8
FFE4
0043
FFF4
0025
FFFB
FFBD
FFF7
FFD3
FFCD
0019
FFDD
FFE6
FFB6
FFEC
0011
FFDA
FFCB
FFCA
0027
FFC0
FFF7
FFCD
0021
FFBE
0020
0030
0041
FFC5
FFD2
FFC0
0014
FFF5
FFBB
002B
FFBB
FFB7
0048
0034
FFC5
004C
FFC4
004D
0010
0022
FFB5
004C
FFE5
0041
0017
FFDD
FFF8
003B
FFFC
FFE3
0046
FFD1
FFB3
0045
0040
FFD2
FFE9
FFF8
0019
000A
0000
FFB3
FFE8
004D
FFD2
0045
FFB7
0032
FFD9
0042
FFBE
FFBB
002E
004B
FFFA
001A
FFBB
003A
0025
FFFB
0021
001B
0048
000D
FFC4
FFB9
FFD4
0013
FFE1
0028
001C
FFD1
FFEC
003C
FFE9
000B
0032
0044
002C
003B
FFE0
FFCE
0007
000F
FFB1
FFED
0031
0010
0020
FFDB
0021
0026
0023
FFDD
FFB9
0035
FFB3
FFE2
002B
FFB4
FFB7
0032
FFF2
002F
0045
FFDF
FFF2
0039
FFB5
FFFD
0047
FFFF
FFCE
FFDA
FFCD
0025
001D
FFD8
FFD5
FFCA
FFBE
FFD3
FFFF
FFB7
FFFF
FFD8
0019
002A
0048
FFE3
FFF8
FFBC
0032
004A
FFFE
FFE2
FFB2
FFBD
0019
000C
0002
0043
FFC0
0037
FFCC
FFE8
003D
000D
FFEB
FFD4
FFC1
0017
FFCF
FFF2
FFCC
004B
FFE6
003D
FFBF
004A
FFF5
FFC8
002F
0018
FFCC
FFCB
FFC2
FFC0
FFEC
003F
FFF9
FFDC
FFE4
000F
FFC1
FFE3
FFDF
0007
004D
002B
003A
FFDF
0013
FFDA
FFF5
FFC3
0043
002F
0018
0004
0042
004D
FFB2
FFBD
0041
001B
0050
0010
FFB6
FFC4
003D
000D
0021
0042
0000
0002
FFB6
0007
FFB6
001C
002D
0004
FFEF
FFBF
FFDC
0006
FFC2
FFD7
002F
0025
FFB1
FFF4
FFBD
FFB8
FFB3
0020
FFD5
0030
001C
FFD4
FFF3
FFF1
002F
FFD0
FFDC
0002
003F
FFEC
FFDA
FFED
0023
FFBA
FFC3
FFBA
FFF9
004C
FFB8
0006
FFC9
0042
FFC6
FFE2
FFD0
002D
FFD5
FFE5
FFBA
FFC0
FFE5
FFED
FFF7
0036
FFCF
0050
FFD3
FFBD
0009
004D
FFB0
FFEC
0023
000A
FFD5
FFDF
004A
003B
003D
0036
0031
FFBD
FFC8
FFDE
0018
002F
0006
0022
FFB0
FFE7
FFD5
FFC3
FFBB
004F
0002
FFB8
FFBC
0030
000A
FFB2
002A
FFBE
FFEF
0005
FFFD
0044
FFCB
000A
000E
003C
FFDF
FFC9
FFBF
0046
FFBE
001D
FFCC
0019
FFC5
0043
FFD8
FFCA
FFDF
FFE9
FFFC
FFD3
FFFD
0010
002C
0032
003F
0042
000D
004F
FFE1
FFD2
0020
001E
0041
FFFB
FFC7
FFC2
FFE1
FFB4
003A
FFBB
0024
001B
0015
0030
0043
004F
FFD1
003B
0044
FFD4
003A
FFBA
0010
FFFC
000C
FFD9
FFB7
0016
0047
FFBA
004A
004F
002B
FFDC
FFCC
0028
FFBF
0014
FFCF
FFD0
0023
FFEF
0046
FFEF
003C
0006
0023
FFD2
FFC3
FFC2
FFE1
FFBD
FFE7
FFF3
0040
FFEE
0049
000E
0027
FFE0
FFB4
FFEC
FFBA
0032
FFCF
FFDE
FFE0
FFD7
FFD0
0044
FFFE
003E
0043
FFB0
FFE8
0026
FFB4
FFB2
0004
0016
FFF7
FFDF
FFB6
FFED
0022
0032
FFD6
FFD4
0029
FFFC
000B
0028
FFBB
FFE3
003C
FFB2
0019
0023
FFB3
0048
FFF1
FFED
FFFE
FFCF
0041
0002
FFD4
0003
0049
004C
FFEC
001C
FFBE
001E
FFB9
FFE9
0039
0007
FFC3
0050
0020
001C
FFD4
FFD6
FFD1
FFDC
FFE9
FFF0
001D
0046
FFB8
0017
FFF9
FFFC
002A
0044
FFF8
FFFA
000C
FFCB
0008
0002
FFCC
FFD2
000A
0041
FFDE
001D
0048
FFE7
0026
000A
004B
002B
FFCA
0042
0038
FFBE
FFC8
FFE8
0037
0020
0009
FFDF
0044
0048
000D
FFBD
FFF0
0036
000A
FFBF
000B
FFF7
FFFC
004B
FFB8
0016
FFF8
0005
FFB1
0037
FFEF
FFED
001A
FFEF
0027
FFEA
0048
FFC1
FFD0
0017
FFF3
0045
FFE9
FFB0
0025
FFD6
FFE0
002C
FFDC
FFD4
FFD4
002D
FFB7
FFBE
0038
0006
0012
FFFB
FFD2
0033
0032
FFF3
0025
FFE4
003D
0040
FFD1
004C
004A
FFBD
FFD8
0036
001C
FFD9
0024
FFE3
FFBE
FFEE
FFF6
FFC8
FFFC
0025
FFFB
FFD3
FFBF
FFDF
000A
0022
004F
0031
FFC6
FFE5
0034
0018
FFC6
FFCD
FFC0
FFED
0003
FFFB
FFE6
0009
FFC5
FFC8
0049
0049
FFF4
003E
0041
0019
0045
FFEF
FFD8
003D
FFF5
0045
FFCD
0037
000E
FFB6
002D
0021
0026
0034
FFD5
0047
FFF1
000A
FFFD
FFC8
004C
FFD0
0020
FFF9
001B
FFB5
0042
0047
0032
FFC0
0023
FFC5
FFDD
FFE1
FFC6
FFB8
FFE5
003E
FFE4
0033
0046
0035
0021
0038
001E
FFC5
000C
0045
FFDA
0041
FFE6
FFEC
0050
003D
0013
0001
0030
FFE2
FFEC
0010
001B
FFD6
FFFC
0019
0039
0012
002D
FFD0
FFEE
FFCD
000A
FFC4
001B
FFD4
0042
0007
FFB6
0050
FFC1
0049
FFB5
FFDE
FFDF
FFD0
FFB4
002D
004A
FFF9
FFD6
FFE3
0035
FFB1
FFFD
FFD5
0016
FFB7
0002
0011
FFF0
FFEC
FFB0
003D
FFFD
FFC2
0028
FFCA
FFF8
FFF3
000B
002B
0011
0006
0045
0010
000E
FFB5
000B
0002
0003
FFBB
0032
FFDD
001E
FFBB
002C
003F
0003
FFE3
0042
FFBA
FFB2
0041
FFD7
FFD8
FFD2
FFC6
FFF8
0006
FFF8
FFE5
0037
003D
FFE7
FFC2
0031
0020
0031
FFC7
0037
0018
FFCC
FFB3
0028
FFC7
FFED
002C
0000
0047
003D
FFF0
0034
004C
FFD3
FFBD
FFC2
FFCD
FFC9
FFDA
FFFA
FFE9
FFBE
0021
0000
0033
FFED
0026
003D
FFE4
001A
0000
FFCD
001E
FFCC
004E
004C
0025
003D
0033
0036
FFB6
003A
003E
0045
0017
FFC7
001F
0015
FFD6
003D
FFB6
FFC9
FFC8
FFF6
0009
0048
FFBE
FFD8
FFFD
002B
FFE1
0015
FFE5
FFBE
FFDB
002F
0002
0050
003C
FFC3
FFDB
FFF9
FFC9
FFE2
FFD1
FFDB
FFB7
0029
FFC4
FFEF
FFB1
FFF1
0001
0014
0034
FFD0
FFF2
FFFC
0014
FFB1
0010
0040
002D
FFB1
FFE1
FFFC
FFEC
FFB2
001A
0031
FFF1
0008
FFE0
0047
FFF4
0016
002C
FFBF
0021
FFF8
003E
0034
004B
FFE4
FFD6
0010
001A
FFCC
0028
0034
FFD4
FFB1
002A
FFB1
0002
FFCB
002D
000A
FFB6
004A
002E
0043
001D
002F
0037
FFC5
FFE0
FFE7
0030
003F
FFFE
003D
FFB7
FFDC
002F
FFB2
0013
FFD9
0043
FFE6
FFED
FFD2
FFC1
FFC8
FFB3
0001
FFBD
FFB5
0004
0047
FFFF
0006
FFF0
FFC3
FFEC
FFB8
FFB8
FFE8
FFE1
002B
003D
FFB0
0016
FFDD
0006
FFBD
001F
003F
FFB4
FFD2
FFFD
FFB2
FFB5
0028
0045
003F
FFC2
0011
FFD6
FFFA
0023
FFB0
FFD0
FFEB
FFC9
0002
FFDE
004B
001E
0010
002E
001B
000C
FFF4
0015
0048
FFB8
0027
FFB5
002A
0024
FFC8
0035
FFF6
0025
0012
004D
FFCE
FFB5
0002
FFE8
FFFE
002B
0010
FFF4
004B
0000
FFB8
0032
FFC5
FFF7
FFB6
FFEB
FFC8
FFDF
0004
FFBA
000B
0047
0043
0040
004F
FFFC
0005
0050
002F
FFF1
FFE0
FFB8
0039
0030
FFB7
FFFC
0015
001C
0007
001F
FFDA
FFCD
0018
FFF7
0050
0048
FFE0
0004
0049
FFE3
FFD7
FFD0
0017
0039
FFC9
0042
FFD9
000C
FFD7
0033
0041
004A
0016
001C
FFB1
FFFD
0015
FFCF
004A
0027
FFFF
FFFC
0019
0017
004F
FFBA
FFE7
002D
0031
0027
FFEE
FFFE
FFC0
FFDC
FFF8
001E
FFF1
FFDF
000B
FFC4
0026
FFEF
0046
FFD4
FFBD
001A
FFBE
FFF2
FFE0
0003
0027
FFF7
FFEC
FFB3
FFBB
004E
004D
FFF8
FFE5
FFE0
FFC2
FFC9
004D
FFF4
FFF4
0030
FFCF
FFB9
003F
0024
0034
001F
0013
FFB5
0041
0046
003D
FFE6
003D
FFF7
0036
0029
FFBE
FFCC
0048
002D
FFB3
0003
FFDD
004C
0032
FFB6
FFEE
002D
0027
FFE5
0049
FFBF
0030
FFCD
0048
FFCC
FFFE
0000
0039
FFD3
003F
0032
FFF2
FFDE
0004
FFEC
0017
0023
002D
001C
FFB7
001C
000E
0035
FFF1
0043
FFC8
FFB2
0045
002E
000A
FFEA
FFDF
FFC3
000C
FFD3
0021
002B
FFB7
FFEE
FFB6
FFD5
002B
0008
FFD6
FFD6
FFD7
0049
0006
FFEC
FFC4
FFC2
0006
FFCF
0031
FFB0
FFD8
0033
FFCB
FFFC
FFCE
0010
FFE2
FFFD
FFD8
003D
FFCF
FFEC
FFB9
0000
000E
0018
FFEC
FFC5
0028
0002
FFFF
0006
0022
FFE4
FFC8
FFFA
0036
0031
004E
0025
FFF9
0036
002A
004E
0010
0043
002C
001E
003C
0024
FFBD
FFD9
FFFC
FFFA
FFD1
0031
0028
FFCF
FFFF
0028
FFFE
001B
001F
0033
0040
FFDF
FFEA
FFC0
001F
FFD5
FFF9
FFBE
FFBD
FFCA
002B
FFD2
002C
FFBB
004C
FFED
FFDF
FFBC
FFF6
0036
FFCF
FFE0
001A
0020
002F
0010
0019
0014
FFCE
FFF1
FFE3
004C
0041
002C
FFF0
000D
FFFD
FFE5
0024
003A
FFD8
0040
0033
FFEE
FFF4
0031
FFF7
FFE6
0000
FFC2
FFF9
0021
FFD0
FFB6
004D
0040
0018
0002
FFF2
0044
0021
FFED
0011
002E
FFE6
003E
004B
FFCF
FFE9
FFD6
002A
0015
FFB0
FFD3
FFD8
FFD1
FFC1
0002
FFED
FFE2
004B
FFB8
FFC2
004B
0041
FFCB
003A
0041
000F
0017
FFB3
FFFE
FFFD
0028
002B
000A
004C
0025
0004
0039
000E
0015
FFF7
FFCF
0036
000A
FFB2
0006
FFB2
0010
0012
FFB3
FFB2
FFC2
FFE2
0050
FFD9
0048
002C
FFC2
002B
FFFD
FFB2
0031
0037
FFE6
0042
FFBB
003A
FFDC
FFC4
001B
0018
003F
FFB0
FFDC
FFDA
FFB3
FFD7
003F
FFC3
001C
FFFA
FFC1
FFE5
0016
0016
002C
FFDE
FFE3
FFC2
0006
000D
FFBE
0033
FFDA
FFE6
001B
0021
FFBF
0047
002E
003C
000F
0026
FFF2
FFBA
0007
FFE3
004C
FFB6
FFE7
0003
003B
003D
FFDE
002F
FFBA
0018
0011
FFC3
FFEA
002A
003F
FFBD
004A
FFFC
FFFA
000F
0048
FFBA
0043
004D
0024
FFB8
003A
0040
FFEC
0044
FFFF
FFC9
FFF9
FFB8
FFD1
FFCD
FFFF
0005
0003
FFDB
0035
003E
FFCB
0048
FFE1
FFD3
0026
0022
FFDC
0024
FFF7
0027
FFDD
002D
FFF1
000E
FFDA
FFF0
FFE8
FFF6
0004
0041
0012
FFBE
FFBD
0047
FFD5
004C
001E
FFB0
FFEE
0025
FFB9
FFFE
000E
FFFD
FFBE
002F
FFED
FFCB
FFBF
FFEE
FFDC
FFFA
001D
0001
FFEA
0000
FFE7
FFBC
0015
0025
FFCF
FFD2
FFB7
002E
FFFB
0015
001D
002B
0047
FFF4
001E
FFE2
FFC7
FFDF
0018
FFDB
FFB2
FFB8
004D
FFEC
0003
0009
FFF5
0009
FFF0
FFCF
FFCF
0016
0046
FFDB
0006
FFBE
FFF1
FFC3
FFEA
0035
001F
FFDD
0024
FFFB
003A
000C
0022
000C
0041
FFD3
0002
0022
0029
FFB9
FFD5
FFF9
FFF3
FFBF
0039
003D
FFB2
001A
0045
FFD3
FFC0
003E
0026
000A
FFC6
002C
FFB5
FFB2
FFDD
0003
FFFD
001F
001F
FFE5
0002
002C
FFEA
001C
FFF8
FFB9
FFD3
004D
FFBC
0027
FFFC
0011
FFE7
FFB7
FFDC
0031
002C
FFD3
0014
0015
FFC7
0050
FFF8
FFDC
003E
FFB4
0045
FFB2
0012
003F
FFBF
FFFE
FFF4
0004
FFD8
003A
FFB5
FFD2
0035
0042
0038
FFED
004E
0039
FFF0
004A
FFB7
FFC4
0017
FFD8
FFDF
FFDA
FFC4
FFE3
0033
FFF7
FFDF
FFE3
002B
0042
FFDE
0036
0014
FFC9
000B
0020
0003
FFD2
0025
0039
0025
0035
0002
0049
FFB1
0009
0017
FFC2
FFF6
0024
FFD4
FFBA
FFF2
FFBF
FFE7
0015
FFE7
FFCB
FFF4
001C
0042
FFFE
FFE9
FFC5
FFF2
FFBC
FFD1
FFD5
003D
0015
0033
0011
004D
FFD7
0006
FFBA
0023
FFFF
0021
FFB5
003B
002D
004B
FFE5
FFF2
FFFC
001F
FFED
002B
FFF2
FFCC
000A
FFDE
004A
0045
FFD2
001F
000F
004C
FFC7
FFF2
0042
FFC9
0030
FFB0
FFD9
FFC1
003C
FFBE
FFB0
FFE7
000A
0036
FFBF
000A
FFB4
FFE5
FFBB
0005
FFC1
0013
FFCF
FFC3
FFC2
0030
FFE5
FFE1
FFE2
FFD8
0008
FFF3
FFC0
FFDB
FFDC
FFC7
0014
003B
004D
0026
001F
0002
FFBF
003D
FFD6
FFCC
0040
0029
FFBD
FFB2
0012
FFF7
0002
003B
FFF0
FFC6
FFE9
0050
0003
FFBF
001B
FFC7
000A
FFC3
000A
0049
FFD6
FFF4
0011
FFD5
FFEA
FFDF
FFB3
FFFA
0027
0048
0009
0002
FFDE
0016
FFCF
000E
FFC1
FFB3
0050
0036
002E
002D
FFC5
FFE0
0009
002A
FFCC
0018
000F
FFD2
FFB2
FFC5
0016
FFB3
FFF8
0024
000F
003C
FFF2
0013
0012
FFCE
004A
FFE9
0042
FFBB
FFEF
0036
004D
0018
0014
0009
0017
FFEA
FFB5
0035
FFF7
FFF8
FFE8
FFCE
FFC4
0000
0000
0043
0028
0005
FFC6
0024
001E
0020
0046
FFFA
000A
FFF5
0049
FFF0
0045
001A
0032
0040
0044
FFB2
002C
0025
001F
004E
FFB1
0045
0034
004F
0040
0035
0023
FFCC
FFC4
FFD4
002E
0022
002F
FFC9
FFF1
0050
0029
FFD9
0001
FFBC
FFEE
FFF9
000C
0002
0041
0003
FFCD
FFB2
FFC2
004F
FFC8
0009
003A
001C
0031
FFF2
0040
0007
002F
FFBA
0013
0006
FFD2
FFF4
FFD5
001B
FFF2
0017
0030
FFBD
004C
0024
0007
FFD9
FFE9
0017
0029
004D
003D
FFCD
0018
0043
0028
0018
FFDB
FFCB
FFE3
0000
FFC2
FFD1
001C
0015
FFBE
0000
FFC3
0046
FFE5
FFEA
0024
0018
FFFA
0026
0032
0013
FFDA
003D
FFBF
FFED
FFEF
FFDA
FFEC
004E
003A
0035
001A
0033
001B
FFFB
0017
0017
FFEF
FFD9
0014
002B
002A
FFDB
FFEA
FFB1
0038
FFDA
FFBF
FFB0
003F
003A
003C
004F
FFD7
004C
FFC3
001E
FFD0
FFCD
FFFC
FFC2
FFB2
000F
FFCA
FFFD
004E
FFDE
001C
FFE9
FFC1
FFB5
0032
FFFC
0042
FFD2
FFFA
FFCE
FFBB
FFFB
FFCB
001F
003D
0042
0026
FFF3
001D
0010
0006
FFDB
FFDD
FFE2
FFD7
004B
FFC4
0031
0017
0012
0027
FFD4
000B
FFF1
0001
FFD9
0034
003C
002A
FFC4
FFF5
FFF9
0000
FFF4
001D
0013
0048
003F
001C
FFFB
002F
002D
0032
FFDC
FFF3
0036
0026
0010
0007
FFD5
FFCD
0012
FFEC
FFB2
FFD4
FFEE
004D
FFC0
003E
FFEB
FFFC
004C
FFE0
FFE0
FFE0
FFF6
0037
FFBE
002E
FFD6
FFE0
0024
FFBB
000E
001E
003B
FFB5
FFD6
000E
0048
FFCD
0005
0000
FFC5
001C
0042
0033
0021
FFB6
FFD2
0018
FFB9
FFF9
0010
FFE0
0016
FFC0
FFFC
0026
FFB9
FFF1
FFBD
FFC2
0008
FFF3
000E
FFDA
000B
FFDD
0006
0033
003B
FFFA
FFE2
FFDB
FFE4
FFC1
FFEC
0031
FFCE
0003
FFB7
0024
0034
0033
FFE9
FFCA
FFB7
FFDE
FFD0
FFE5
0045
0027
003C
FFB3
FFFD
001F
FFD4
002F
003B
000C
FFE9
FFC0
FFD7
002C
FFCB
0040
0038
FFD8
0020
FFE6
001D
0046
003D
FFFD
FFD6
FFEF
FFEC
0004
0022
000B
FFCA
FFE0
0017
FFCF
000B
FFBC
FFD5
0016
FFD8
004A
FFCE
004A
FFC6
FFE3
0007
0008
0000
002F
FFFC
FFEA
FFBC
FFB1
FFCA
FFF6
0035
000F
FFC0
001D
FFBC
FFBC
FFDF
FFF3
FFDE
FFE7
FFE4
003C
FFCE
FFB2
0036
FFE4
004F
FFDD
FFF3
003A
003F
0008
FFBC
0015
0016
FFE7
FFE8
0031
0043
FFF3
004A
FFDB
0047
FFB7
0042
000A
FFDE
000E
FFF9
004B
FFCF
FFD4
0041
FFD0
0045
0028
003E
002E
FFFC
FFCA
0045
0001
FFB7
000E
FFB0
0049
0042
FFD9
FFF6
FFE5
0045
000C
0037
FFCA
002C
FFCD
FFBD
FFB3
FFE0
FFF8
0004
FFE7
FFB5
FFE1
0011
000B
0020
FFD1
000C
FFBE
0041
FFCE
FFF7
FFBD
FFC0
003A
FFD7
0037
FFB1
000F
0013
0041
0023
FFFE
0001
FFE5
000B
FFCB
000A
0048
002A
0028
004A
001C
003B
FFB0
FFCD
004C
FFFE
FFC9
0015
0000
FFDC
FFF6
0025
FFB7
0007
FFF0
0008
FFDC
FFFD
FFDA
003C
003F
004B
FFFF
0001
001E
004A
FFB6
002F
001F
0032
FFD2
0031
FFBB
FFE9
0031
FFFB
FFD2
FFC3
0047
FFBC
0048
0019
FFC9
002A
FFB1
FFFC
000E
FFB6
0020
0025
FFC3
FFB9
FFF5
FFB3
0025
FFB4
003E
FFBD
FFF4
001B
FFE9
004A
FFE8
003B
FFB1
0004
FFF4
FFEA
0002
FFDB
0049
0043
0005
0002
0002
003F
FFBA
FFFA
FFCC
FFE8
003B
0025
0024
0048
004B
FFF6
003A
FFDA
FFCD
FFDC
0045
0029
FFC7
0009
0003
FFCC
0025
0046
FFFB
001C
003E
0011
FFF2
003C
000A
FFD3
0049
0007
0007
FFE0
0018
0015
0002
FFDD
0034
0024
FFE4
0036
0028
0000
0043
FFEB
0013
FFBB
FFBE
FFE0
FFB3
0038
FFB2
0025
FFC3
0018
002D
FFD8
FFE8
FFEF
FFF3
001A
0032
FFC6
002B
FFCE
FFB9
FFDB
FFF8
FFB3
002D
0029
0048
FFB8
003C
003A
FFE7
FFB8
FFF6
FFD9
004D
0018
0014
003A
FFD3
FFF7
FFE0
FFF3
FFF2
FFCE
004E
0027
0031
0008
FFD7
FFE5
FFCD
FFD1
FFB8
0042
FFB5
0026
0045
FFF3
FFDD
FFC0
0049
000D
0002
FFF9
001C
FFDC
003B
0016
FFCC
FFBF
003F
FFE0
FFB6
FFFC
001B
FFD8
0002
000E
003D
001D
0013
0030
0043
0011
FFDB
FFD3
004E
FFDE
003A
003B
FFC7
0032
FFB4
FFF7
FFF5
FFEA
0011
FFB8
FFB2
0033
FFDC
0020
0008
004B
FFDE
0011
0025
002A
0001
FFD7
0033
0003
FFE2
FFEE
000B
FFE3
FFDE
0045
FFD0
FFC3
004F
FFEC
FFBC
0032
FFF1
002C
0012
FFB5
FFE1
004D
0019
0025
FFDF
0042
0002
FFBA
FFDE
0000
FFF2
FFC2
0049
FFB3
FFF9
FFE8
FFC7
0045
002C
FFF5
FFCB
0011
0007
0026
004A
0011
FFEF
FFCB
FFD9
FFDC
FFDB
FFD3
0023
0022
003F
FFE2
0033
0044
FFC5
FFEB
FFB4
FFB3
002A
0039
0018
0040
FFC6
0003
FFF0
0033
002F
FFE0
FFD4
FFCE
0043
FFEF
FFE0
FFEC
FFD0
0000
FFB5
FFD3
FFE4
FFC7
000D
0002
004E
FFC1
0043
0013
FFFA
0019
0030
0019
002D
0026
FFF9
0042
FFCD
FFCB
002D
FFE3
0016
FFEC
003C
0049
0003
FFDB
FFCE
0033
0040
0018
FFF5
003D
003E
FFCF
FFD6
002F
004E
FFD7
0003
FFD1
FFCB
FFBD
001F
0041
FFE2
001B
0044
002A
0012
FFE5
0012
FFB7
0001
0006
0044
004B
001F
000F
0011
FFB1
0037
0003
FFCE
FFF0
002E
FFCD
FFED
FFEC
FFCD
003F
0025
FFB4
FFE4
0019
002E
FFE0
FFD6
0021
FFDF
0033
0006
FFF1
FFF5
FFEA
FFB7
FFFA
0049
001F
004D
0021
0043
004D
FFE5
FFC0
FFD6
FFC6
004F
FFED
FFE9
000E
FFC1
FFE7
FFD9
FFD2
0050
002F
0045
0030
FFBE
FFD9
FFF3
0032
003E
0018
0017
FFFA
0039
0000
FFE1
0036
FFB2
FFC7
000D
0000
000B
0034
FFE5
0014
FFB2
FFC1
FFDF
FFC9
FFD0
000F
FFD8
FFE1
001A
001D
FFEA
FFF6
0009
FFD3
FFB6
0020
FFB6
FFDE
002E
FFD5
FFF6
FFD4
FFEE
0029
0007
FFCF
FFF1
0031
0038
0003
0031
0015
FFDC
FFC7
FFE6
FFB9
0015
FFF8
0033
FFE6
001F
FFEE
0027
003B
003B
FFF4
003A
FFE5
FFDA
003D
FFB7
FFFF
FFCE
FFEE
0003
FFE0
FFFF
FFB6
0024
0044
0032
FFE0
0006
0024
0047
0024
003D
FFCB
FFC2
FFDF
FFE7
003A
001A
0041
001A
FFB7
FFB8
FFBF
FFF8
FFF1
FFF6
FFB7
FFFE
0006
FFC7
003A
0024
FFDA
001A
0019
FFEA
0010
FFE4
FFFD
002E
000B
FFD1
0033
0036
FFC5
FFE7
FFBF
FFBB
FFCB
000B
0032
FFC0
0046
FFE9
FFC4
0009
FFD4
FFC4
FFF5
0017
0008
0004
FFB3
0040
003F
000B
FFB3
FFE8
FFC1
003A
0042
FFDB
FFF5
FFD1
FFB5
FFB5
002D
FFF7
0007
0025
004A
FFC8
0005
FFB4
FFC3
0022
FFBA
0026
FFDD
004A
FFFD
FFD0
FFB6
0027
0042
FFDD
FFB4
000C
FFFE
FFC1
FFD3
FFEB
FFF4
0050
0011
FFDC
FFB5
FFD2
003F
002B
0006
000C
FFD3
FFEF
FFB4
0003
FFBB
FFEA
FFC8
FFC8
0018
FFFE
FFE1
FFCF
0025
FFB1
0003
FFD9
FFF8
FFCB
FFFF
FFCC
FFE1
FFE0
FFCB
FFF0
0009
FFE6
0033
004B
004A
FFF5
0050
0048
FFDA
000F
000C
FFC2
0042
0049
001D
FFC7
0009
000F
FFBC
FFF6
FFE0
000F
FFCE
FFF7
0001
FFC8
FFB8
0037
FFBD
0024
0042
001E
004A
FFCF
004D
0033
FFBE
0004
FFCD
FFB3
0022
0009
0026
0026
0043
0031
FFBC
0033
0036
0047
FFEC
0016
FFDF
0039
FFCB
0050
FFE7
FFFA
001A
FFD1
FFD5
0049
FFFC
FFF7
FFFD
0043
FFC0
FFF6
000D
FFCD
0017
0046
0046
002B
FFCE
FFE6
0025
FFE1
FFF4
0022
002E
FFCC
FFC8
001A
FFCF
0026
002E
FFF3
0010
FFE2
0008
FFF3
0050
003C
FFE7
FFB2
002F
FFB1
0049
FFDA
FFBF
0038
FFBF
FFBB
003B
0015
FFD9
FFE0
0036
FFD8
FFE7
FFFF
0036
001A
0040
FFBB
002B
0011
0005
0005
003E
FFC4
0004
FFE2
FFF7
0032
FFC3
0013
0025
FFD6
FFCA
0036
0014
003F
FFDD
0044
004D
0030
002E
FFC6
FFC7
FFB2
FFC7
FFF8
FFEC
FFC0
FFBD
0022
000D
FFED
FFC3
FFE8
001D
FFCF
0038
0032
0027
FFE6
FFEF
FFFB
FFE3
0031
FFE8
0012
FFC8
001E
FFD5
0032
FFCB
002D
004F
FFD2
FFC8
FFBD
0014
FFC7
0016
FFE6
FFCD
002C
FFB4
0040
FFB0
003E
FFF4
FFF6
FFDC
0038
FFD3
FFB8
0001
004D
FFCA
FFC5
004F
FFD9
000B
0035
003C
FFBC
0011
0020
000D
FFDB
0032
003D
004F
003C
FFBC
FFFE
0039
002F
FFBC
002F
0014
FFB8
003E
FFC8
0039
FFFE
FFF2
FFD6
FFD2
FFB7
FFB3
0030
FFB2
FFDE
0046
0000
0002
FFB6
FFCF
FFB8
000F
0017
FFFB
FFBD
001D
0017
FFCB
001B
0037
FFF7
0010
FFF0
0040
FFBC
FFEE
FFB1
0042
FFF9
0034
0036
0004
FFC3
0022
FFD5
FFF5
000B
FFBB
0023
FFB6
0023
0050
FFC0
0027
FFB7
FFB6
FFDE
0035
002C
FFB7
FFCC
FFF8
0022
FFC7
000F
002F
FFFD
FFD6
FFD8
FFB5
FFB8
0002
002F
000E
FFEF
FFBC
FFEC
FFB1
0025
0048
0042
FFE2
FFCF
FFB3
0016
FFCC
FFE8
0002
FFD3
001F
003B
FFB8
0045
FFFE
FFD8
0014
FFE7
FFF4
0022
0027
FFEE
0018
FFB4
0032
FFFA
FFE8
001F
0029
000D
FFFA
0020
FFF6
FFFB
FFC5
004C
FFE0
0008
0027
FFC9
FFB4
FFFD
FFDF
000A
FFBC
FFD0
002F
0019
001C
FFDE
0037
0023
0033
FFC6
0021
0032
001C
FFF0
000C
004D
FFBB
0033
FFF3
0025
0039
0035
FFF4
FFFC
000F
FFF7
0035
0002
0000
0002
FFEF
003B
0034
FFD4
FFF0
003B
0016
0021
FFB4
FFB7
000F
004C
002F
FFF2
003B
FFB6
FFB5
0021
0009
FFD1
001A
000B
0017
FFB5
0018
0042
0002
FFE2
004E
FFF0
0005
0039
FFCC
FFD3
002C
000B
0046
0017
001E
0037
FFF9
0023
0014
FFCF
0037
FFEB
0008
0013
0008
002F
004C
0008
0007
FFB9
003F
FFFD
003A
003F
FFD0
FFEE
FFC7
0032
000F
FFD8
FFB5
FFF2
FFBB
FFBA
FFB3
004F
004E
0014
0009
FFCE
FFCB
FFFA
FFE6
FFCC
FFCB
FFDE
FFCF
0032
0023
0041
FFEC
FFF0
0021
0026
FFC7
FFBB
0002
FFC3
FFC4
002B
000D
FFE9
002C
FFFF
FFC9
FFE4
FFE6
FFF2
FFD2
004C
FFD9
FFBC
0028
0004
0041
FFC6
FFEE
000B
FFF2
FFB5
FFB4
0040
0007
FFB6
0002
0023
0002
0031
FFBB
FFD1
FFB2
0004
004B
004C
0017
FFF1
FFFC
FFCB
0013
FFBE
0005
0025
0011
003B
FFD0
FFE8
0048
FFEF
FFCC
0045
FFCB
FFBF
FFF0
0049
FFF9
FFBA
FFEC
002B
FFEA
001C
0034
FFBF
FFF0
FFF2
FFE6
0044
FFF2
FFDF
FFCA
FFB5
003F
0000
FFDB
003D
FFD8
000A
0028
FFC9
000C
0018
FFD6
0039
0047
0003
FFBF
FFCC
0043
0009
0030
0014
0003
FFDB
FFBC
FFBE
FFBF
0042
FFBD
001E
FFC5
001D
004A
0032
FFB6
0007
0003
001A
FFE3
0049
0047
000D
FFEB
FFEE
0010
FFD5
FFFE
003D
0014
0025
FFDA
FFCC
0024
0023
0025
FFBA
FFB5
003A
FFD1
FFD3
FFE5
FFEF
FFF3
FFB4
0038
004B
0002
FFBB
0031
FFB1
FFEC
002D
FFB1
FFCB
FFB5
002D
002D
0036
0031
FFED
FFF2
0005
FFB4
FFDA
0029
FFD1
001B
000A
FFFD
0024
003C
001D
0032
003A
FFDF
FFCE
003E
FFD3
FFC8
0031
0040
0034
FFEB
0021
FFE4
0040
FFC3
FFBD
FFEC
FFD3
FFCE
001D
FFB3
FFF9
FFEF
FFE8
FFBE
FFFB
003B
002C
0027
0023
FFEA
001E
FFB4
0011
0005
001A
0004
FFCB
0012
0010
FFDE
0047
0007
003A
FFF7
FFFF
FFB4
FFFF
FFD4
004B
002D
FFBA
000C
0022
FFF1
FFF8
0046
FFFF
001B
004E
0010
FFFC
003B
FFC0
0045
0021
FFC6
FFC9
0038
FFFA
004A
FFBC
0005
FFBB
000D
FFFC
0013
FFE0
FFEB
004E
000C
002C
FFD4
0049
000E
0012
002A
FFC6
0036
0000
0050
FFD1
002B
FFDC
FFF0
0016
FFF2
FFC1
FFD0
0025
FFB9
0011
0011
FFBC
003E
FFEE
FFC8
FFCD
002D
0022
0044
FFDF
000A
FFE9
FFE7
FFDE
0049
001C
002F
0025
FFC0
FFCA
FFB2
003D
FFBC
FFF5
001E
0032
0047
FFD1
FFD4
FFF5
FFE3
0000
001B
0016
FFB6
FFE1
FFBC
001D
FFDC
0034
FFBE
FFD2
003F
FFFB
0000
FFD7
0041
0010
0050
0042
0011
FFF6
FFB1
FFD4
FFE0
0037
FFE2
FFDD
FFCC
FFC7
0016
FFB2
FFDB
FFB6
0033
001B
FFDD
0032
0027
0025
0049
0026
FFE9
002D
FFDB
FFC9
0050
0023
004B
FFCE
003A
0042
FFE0
FFD3
FFC0
FFF1
0046
FFC0
003C
0036
0035
FFFB
001B
FFDB
0021
FFCE
001D
FFD0
FFFA
0015
FFBF
FFD4
000C
0029
FFD3
0042
0039
002C
0010
FFC3
001C
FFB3
0005
FFE7
FFF6
FFF0
0027
0019
002A
0023
FFC5
002A
FFD9
0018
FFF7
FFC1
FFD4
0003
0003
0003
FFE1
001E
0036
FFD9
003E
FFBC
FFC8
FFEE
0010
FFFB
002C
FFE6
FFE0
0020
003C
0003
0031
FFBA
FFD7
0038
FFE1
FFC1
FFCB
FFB3
0024
FFD3
FFC0
002A
001A
0013
0035
0026
FFF0
0036
0005
FFDD
FFD3
FFB9
001E
003F
0024
FFDE
000E
0017
0021
002A
0018
0038
0029
FFED
004E
0020
0047
FFBA
004A
001D
FFDE
FFD3
0032
FFD7
001C
FFD0
004C
FFE2
FFF3
001E
0014
001F
FFD3
002D
FFDD
0026
FFF5
0006
FFCA
FFE5
FFB3
FFF8
FFD7
0038
FFE3
003B
FFF6
FFC6
FFF1
002C
0011
0012
0037
FFC1
0015
FFBA
0016
FFBE
FFE5
FFC5
FFFA
FFDA
FFED
FFF7
0044
FFC3
000F
001A
FFD9
FFE4
FFF6
004D
FFD5
FFE8
FFC1
0021
FFDC
001C
0008
0019
0018
0009
FFC4
FFF2
FFDE
001A
FFDC
FFB8
FFDF
0043
FFB2
FFD2
002E
FFEF
FFDB
0031
000B
FFFB
FFD0
FFC9
FFD3
0009
FFB3
FFDF
FFD3
FFB6
0039
0039
FFD8
FFCE
0008
FFB0
FFC6
FFF9
0009
000E
FFE1
003B
0042
FFC5
FFCA
0001
0028
002F
FFEE
FFE5
FFFE
0028
FFB5
0035
003D
0039
0003
FFEB
004F
0023
FFB2
FFC9
FFDA
0007
FFC0
0027
FFE4
004D
FFE2
0048
003B
FFDC
0014
FFD4
002A
FFD5
0010
FFE3
0005
0027
FFCC
001E
FFCA
FFD1
0038
0004
000F
FFDB
FFF6
000D
FFFE
0009
003E
FFE9
0004
FFB7
001D
0034
FFD9
004C
0043
FFEB
FFEC
FFD0
FFB2
0046
000C
FFC9
0005
FFF0
FFD5
FFF7
FFD7
0000
FFDE
000E
0036
FFF7
FFF3
000B
FFCC
004B
000B
0000
FFF3
FFF3
FFDB
0030
FFB4
004F
FFF2
FFDE
0007
FFD1
002F
FFF0
000A
0041
FFD6
000E
001C
000A
FFF8
FFC8
0016
FFF4
004D
002D
FFB7
FFF5
0027
FFF0
FFD7
004E
FFD8
003E
0027
002A
000D
FFE9
FFD0
FFF6
004F
003F
FFF0
0042
003B
003F
FFE7
FFDB
0029
0022
0004
0019
FFEE
FFB5
0025
0021
004C
002C
002E
0001
003F
FFF1
FFCB
FFE4
004B
0000
FFCE
FFDC
0012
004F
002B
001B
004B
0018
000F
0003
0009
FFE5
FFBD
FFB9
002B
FFE2
FFDF
0012
FFBD
0000
FFF7
FFBC
0016
0031
FFB4
003D
FFF7
004D
0021
0014
FFD8
FFCC
FFE0
0019
0005
FFC5
0010
003C
FFDA
FFCE
0001
FFFF
0044
0048
000C
002E
0028
FFD0
000A
FFEA
FFE7
FFDF
0045
000B
002E
FFB8
004A
FFEC
003A
004F
0046
FFB0
FFE1
003D
FFE9
FFFE
0028
0019
001F
FFE9
003C
002F
FFBC
FFF0
FFC1
FFD2
FFFD
FFC7
FFF8
003D
0000
0003
0035
004F
0017
0004
000E
0046
FFD9
FFE1
FFC1
FFFD
FFC9
004B
003D
FFDE
FFD2
FFCC
0032
0030
0029
0018
FFDD
003C
001B
FFB5
0020
0009
FFBC
FFC8
FFB6
0013
001E
FFD0
FFCA
FFCA
004E
0002
001B
003E
0048
001E
001A
FFF2
FFBD
FFB1
0002
004D
0020
FFD1
000B
FFF3
FFC4
FFF2
FFEC
0005
FFDD
002D
FFE4
004C
FFF4
0022
FFE8
FFB4
FFE9
FFB0
000B
0036
FFD3
FFFB
0020
000F
FFD7
FFCA
FFFE
FFC7
0026
001D
FFE8
FFC7
FFF7
FFFC
FFDB
0023
0034
0001
001E
FFE1
0048
0003
FFC6
0031
0014
FFC4
000A
FFF8
FFDB
FFC0
FFB3
FFB7
FFC1
0040
0047
0013
FFFA
002F
002A
FFFB
FFC6
FFD3
0031
0046
002A
FFD6
FFEB
001D
FFE6
0039
FFF8
0004
FFDE
0013
003D
FFD5
0026
FFC9
FFD1
FFD2
FFFC
0042
FFDB
004E
FFFA
FFFC
0005
FFD2
0049
FFFA
0011
0030
FFE1
0048
000C
0002
FFCB
FFEB
0043
000D
FFCB
0028
001F
001B
004C
FFE6
FFB6
001F
0008
FFC5
0044
000D
0012
FFD2
0049
FFE3
0001
FFBD
002A
0004
FFF5
0002
FFFE
0030
FFB2
FFB2
FFD7
FFFB
0007
0013
0009
0008
FFB0
FFDB
0009
0033
FFDA
FFBB
FFC1
FFC2
0036
FFD6
0042
004A
FFB4
FFEF
FFF4
FFB5
FFEF
004A
FFD8
0039
002B
FFDA
0007
FFFB
FFFC
0034
0008
FFB1
FFCF
FFB4
004E
FFB1
FFD9
001F
FFE9
0031
004A
FFCD
FFF0
004E
FFEC
0022
FFD8
FFCA
FFE2
FFC8
0047
0014
FFBF
0029
003E
0033
000D
FFFD
FFC0
FFB9
FFBC
002F
FFB0
0014
002F
FFC6
0009
0006
002E
002B
0049
FFB4
FFE3
FFDE
0023
FFC1
0022
FFB0
0016
0028
FFD8
FFFE
FFF2
0027
0015
FFE2
FFF2
0033
004C
000C
0005
0000
000C
FFD0
FFC3
FFD5
0035
FFC5
FFB4
FFF8
0043
FFBC
0027
0002
FFE1
004E
0010
0041
FFB1
0020
FFFF
FFEE
0004
0007
0044
001F
0034
0010
FFFD
FFBD
0007
0032
0022
FFCF
0004
FFFA
0002
0019
0009
FFEE
0008
FFDC
FFF5
001C
0020
FFEF
FFCF
FFF0
FFDE
0021
0032
FFDF
0011
0015
FFDE
004F
002F
0003
FFD8
002C
FFB9
FFFE
0026
FFBD
FFDD
0024
0029
FFFA
FFCC
FFF8
FFBC
FFFC
FFD0
FFCE
FFBB
FFF0
FFE4
0033
001B
001B
0029
0038
0032
003C
003D
FFCB
FFE0
001F
FFDA
FFD9
FFB1
FFD5
000B
FFCF
0049
FFE1
0024
FFC6
001D
0036
003E
FFE5
FFB0
FFF3
000C
FFDC
000D
FFFA
000B
001D
FFDA
FFD2
FFFA
002A
0031
FFC0
FFB3
FFF1
0018
FFD3
0040
0011
0026
0050
000B
003D
FFFB
FFF5
003F
0036
FFD4
FFB7
FFDE
FFC1
0045
0009
FFCF
0007
FFC7
FFD0
FFBD
FFFA
FFFE
002E
FFEB
0023
FFE3
FFF1
FFE2
0011
FFBD
FFBE
0035
FFE9
FFF5
0037
000B
0031
FFBB
FFC0
0009
FFBC
001F
FFCA
0016
0050
004F
0026
0000
003F
FFBF
0005
FFCA
004D
0007
FFC7
0024
FFD1
FFB6
001D
0034
003B
0030
000B
