0000057C
00000168
00000478
000001D8
0000058D
000001AF
FFFFFFA0
00000295
0000028F
FFFFFB32
FFFFFE02
0000098F
FFFFFD65
000004DC
FFFFFDFE
FFFFF4CD
00000281
FFFFFD5A
00000045
FFFFFFAF
FFFFFD54
00000277
00000299
0000049B
FFFFFFF6
FFFFFDB0
00000124
000001CE
00000188
FFFFFCD6
00000350
000004C5
FFFFFE2E
0000044B
00000026
0000028D
FFFFFE83
000003CB
0000033C
00000BEE
00000116
FFFFF55C
FFFFFCC2
000000E0
000004B8
00000276
0000066D
000001EA
000004AC
00000468
000009DD
FFFFFDAE
00000AE0
000003AF
00000240
FFFFFE35
FFFFFF86
0000002F
FFFFF6E4
FFFFFF82
0000051A
0000009C
FFFFFEDC
FFFFFC7C
