F5
DF
C2
35
04
DC
10
DD
EC
A9
5F
FB
F5
1A
DB
8F
16
22
08
81
26
11
DE
F1
CF
E6
81
BD
3E
28
12
F7
46
36
40
F6
0F
A3
32
D1
EE
BA
02
36
47
67
D9
C8
07
2D
3A
32
FF
2C
4D
81
8E
AF
12
96
AE
14
3F
3B
CC
44
7F
C8
D0
AE
A2
96
4D
4F
0A
27
CA
03
5A
0B
30
D6
10
C5
E5
20
0A
F0
F5
F2
DD
25
67
DD
AF
CA
E7
3F
D5
3E
E1
B9
EB
DC
C3
16
BF
D0
C5
2C
93
7F
D2
9C
1A
E9
4C
C6
45
5B
DC
C1
59
41
00
35
E0
1A
F6
2F
FF
E3
D9
81
0E
55
AC
CB
EE
50
DA
7F
E9
46
0C
36
8A
0B
BD
3C
52
DC
C0
D7
96
8E
05
12
66
13
D1
19
09
D9
53
5E
FA
B9
EF
4E
13
AC
08
F7
1B
14
9E
F0
38
B0
81
03
36
30
0F
38
96
49
20
89
9E
EB
E9
6D
52
D4
00
D6
1D
C1
F9
D2
21
C7
37
18
FF
25
4D
0E
C1
00
F7
31
BF
07
1A
7F
51
0D
9D
DC
FC
46
E5
F5
90
CB
BF
E2
E8
DF
EC
E0
19
43
03
EE
1B
6E
38
DA
9F
19
0E
E9
7F
41
27
2D
3B
DE
C1
11
0C
E2
CC
46
D6
C0
53
48
03
C0
15
1D
DC
FC
CB
28
2F
01
8C
DE
26
C3
81
DE
F4
2C
BB
E9
62
11
CD
02
AA
EF
F1
8B
E5
F6
1B
37
57
5F
D9
43
DC
28
F9
7B
ED
08
7F
D4
3B
05
E1
24
4C
17
0B
EF
1D
CD
EE
16
0B
4A
69
5B
4F
FB
D3
24
39
05
D0
22
1F
D2
89
CD
5E
2B
26
0E
13
2F
03
8E
3D
B0
EA
77
E5
10
17
81
1D
E0
E2
0C
F7
CF
BA
81
06
F2
F7
FD
00
33
11
2A
EA
FE
21
32
DD
BE
F3
E0
3C
0B
05
9A
9C
D2
DB
18
58
C7
17
02
09
42
7F
60
E4
72
21
B1
48
3E
03
22
E7
42
19
0E
E4
C5
37
94
45
41
CB
09
04
DD
71
F5
BE
E3
F7
1C
9B
B8
0E
D3
F0
81
F7
F8
C2
CF
CD
00
D4
55
E3
F4
30
06
81
21
EA
35
24
46
0B
E1
0D
4C
1C
0E
2E
E9
B9
36
EE
15
F0
EE
4A
1A
CB
F3
B1
D2
20
DF
19
81
5E
02
18
46
0A
EC
F4
14
0E
14
BD
D9
D9
E5
D9
AB
6D
66
4F
68
45
7F
3A
03
D6
2F
17
F6
49
3A
D9
DE
A4
ED
45
CE
21
B8
23
4D
25
54
3D
1C
AC
EC
10
7A
53
8B
0B
03
B0
B9
B8
16
58
EC
3A
44
F0
77
49
0D
B4
3D
FE
F2
81
51
35
C1
C5
04
32
DF
E4
D5
EA
33
AA
37
F8
A9
4D
07
BC
F2
E1
BF
2D
3F
6D
C2
2A
04
CD
7F
54
F9
B5
09
E1
D3
E3
F4
05
2A
0D
EB
E5
F8
5C
09
0A
FC
0F
82
05
F8
82
2D
25
7F
2E
0D
E6
5E
B6
01
BD
43
00
2E
12
3D
F5
AD
81
BA
F9
7E
F8
18
7F
AD
EB
1D
D1
D5
35
E7
F4
1F
4E
35
00
12
31
29
E6
25
FA
28
E3
EE
08
2C
45
F4
A0
39
E1
E5
DE
F7
E4
FA
02
2B
38
B7
3F
E0
08
DE
E4
2D
7F
BB
F3
03
CA
3F
64
DF
98
19
75
F2
D0
35
DF
E1
E2
02
DC
F0
9B
FE
03
D4
23
0E
EC
38
18
0B
C3
07
C2
21
A4
25
02
ED
F4
B2
E1
30
1D
27
1E
81
10
F1
D2
A6
C8
FB
57
07
C9
0E
EB
04
7F
27
19
21
C5
9D
D6
06
E9
E6
1A
F0
1C
86
45
85
7E
2A
D5
0A
12
E5
48
D0
1B
10
C6
E5
02
D3
34
E6
18
FA
BF
1A
DA
14
CD
11
9D
EF
B4
98
81
96
EC
FC
2B
19
0C
AA
DB
EB
A5
A3
DC
52
F1
9E
B3
D0
29
2A
0F
E0
CC
CD
7F
CB
F7
45
C0
2B
08
3C
33
B9
E5
E3
F0
08
12
DD
CF
40
1C
13
FA
E6
18
AC
EA
D1
2F
C4
21
44
B2
7F
2A
5A
24
32
08
46
25
E3
22
3C
0F
DD
5F
15
29
09
C7
29
31
AA
CF
EE
05
0B
7F
2D
1B
94
20
C2
EB
45
EE
1D
F6
39
F6
C1
F8
AA
FD
4E
18
1F
D0
C5
41
13
DA
F5
E3
E7
51
62
C2
00
C9
35
43
C7
B7
2C
4A
F5
CC
F4
DB
18
23
31
35
F7
93
CB
24
2F
35
2E
CA
D4
E8
B2
A4
7F
1F
EE
05
01
D0
DB
14
1D
23
3E
32
D8
23
C0
3A
A9
1D
4A
15
DA
EB
35
29
3A
DE
53
88
FF
EE
81
23
E6
F3
B4
04
41
7F
2E
94
31
4D
02
33
38
18
34
A0
1F
F6
0E
43
B3
35
ED
CE
41
23
4D
19
24
13
F9
E7
DE
12
21
DE
10
B4
99
3D
13
0E
1E
F8
F8
25
7F
C6
EA
1D
30
18
B5
F0
1E
27
CA
F3
B1
F6
CE
25
04
F4
4D
D7
00
08
0F
0A
30
20
81
FA
A3
D5
07
1F
1A
A6
F9
F9
EB
12
99
B3
65
21
FF
A4
10
0C
F9
23
37
53
3D
0B
05
F1
DC
BA
DF
DC
E4
13
D6
4E
15
4C
53
36
51
F4
72
81
1D
49
17
C4
E9
05
FE
24
15
25
F3
87
EC
DA
B0
F9
DF
0A
EC
FA
C0
7F
52
36
F0
F5
E5
BA
3B
08
C0
E1
1D
18
0A
F5
29
20
C3
07
E4
A7
EE
F3
B0
BB
7B
FC
D6
C5
FA
72
6B
81
E7
77
47
74
DA
9E
EF
0F
FA
F6
49
F0
E8
3D
F5
D4
AC
1D
F4
EE
09
CA
41
E3
B3
E3
17
F6
81
B8
B8
03
F6
23
DA
C7
E9
EC
D3
49
0D
F1
30
D8
56
BD
0B
84
E7
56
34
34
CF
2C
EC
2A
DB
81
6E
BF
C2
0E
FC
02
AE
F8
5C
55
AC
DB
DE
02
D4
DD
29
1B
E1
AD
1F
CF
E4
F1
D2
18
E6
CF
D3
0F
30
25
D3
12
81
99
C4
A3
13
3E
D6
AE
45
E9
3F
C4
DA
D3
B4
99
1C
E1
27
0C
BF
32
1A
09
E5
F2
33
42
2B
AE
E5
D2
B0
D3
0B
BD
F2
55
11
0C
17
D2
05
E8
00
81
BB
B4
2B
03
0D
1D
2A
F3
EE
F0
08
A9
46
D4
DD
5A
9E
D6
ED
51
E3
D9
48
5D
AE
D9
C7
E9
E6
FB
3E
EF
B7
94
16
03
3A
91
8E
91
EC
2A
E6
50
81
B8
32
5D
40
BA
0B
11
D6
21
E9
01
08
E8
4D
05
0D
DD
19
2A
20
E8
CA
EF
3A
4E
EA
35
DB
A4
14
50
7F
47
87
3E
4F
E8
DA
34
BE
10
59
BA
75
19
1A
50
5B
63
F7
68
F6
73
C2
81
6A
6F
AA
3F
28
19
FD
E7
3D
C8
63
05
B2
77
67
3C
47
9B
0A
2A
B0
3F
E6
69
DB
3F
E5
17
5C
08
92
0D
E5
BF
68
C3
7F
D1
D7
6D
0F
CA
B7
08
D9
70
2F
05
D7
FF
D7
F1
A2
BC
D2
A9
01
81
3E
3E
E9
EF
E3
B8
16
10
0A
2D
BD
32
B6
23
B2
A2
03
E5
FD
A7
5D
93
17
7F
30
66
F8
90
D5
F1
CE
15
0C
07
C0
33
95
F7
F6
C7
5B
15
54
CA
F0
D5
3C
12
36
66
B6
B0
C5
D4
20
13
30
7F
D0
D8
4D
59
BE
7C
29
0C
E6
53
DB
2B
E2
5A
01
BB
E4
29
01
90
29
73
28
0F
C9
04
BB
DD
40
02
BE
33
97
0D
4C
37
A8
5B
CA
F4
81
47
A4
50
32
34
AB
C3
C4
FA
3B
15
D5
D2
B7
09
50
CF
0D
CB
5A
F9
73
46
18
5E
F9
F8
69
D2
0B
B7
26
FA
E8
14
42
F4
CF
18
F9
81
72
2F
C6
6B
7F
0E
EE
EB
C4
B1
E6
BA
10
EF
C3
FC
38
02
E8
3F
D9
9C
35
B0
A6
16
4B
4A
EA
E1
53
B6
D7
36
F2
3F
46
2F
FC
5A
1F
C1
F8
F5
FD
37
53
9F
03
CB
3C
81
42
FC
C2
D3
8B
40
59
B7
C3
EA
1E
FB
CE
85
E3
E0
48
B1
E3
D9
81
CA
F8
A3
E4
D7
98
02
F9
C3
0B
BC
1E
BF
87
C0
E0
35
F0
2A
46
85
FD
90
24
25
FF
FD
18
C2
5C
E7
E7
4C
DD
43
05
B9
BF
81
D0
5A
D1
18
8D
26
5B
31
F0
DC
F4
10
F1
42
0B
DF
BF
4B
07
13
57
F5
BA
F3
BB
07
B3
21
99
14
19
EF
13
30
1E
05
4F
C8
9A
1B
BF
7F
2E
F0
16
9C
14
BF
7C
4F
AD
F6
25
59
EA
CA
24
AF
DB
D3
EA
40
81
31
13
51
91
4D
21
F5
E2
1F
C2
C0
06
EB
21
C3
CA
02
38
DB
CC
E0
45
CA
26
06
7C
35
D8
EC
F6
05
BB
CD
8A
14
C8
F0
DC
18
BE
02
21
32
03
7F
24
B7
1F
99
CF
F1
CA
4D
7F
C3
42
3A
0A
28
1E
79
22
13
42
F4
83
0F
A8
00
C3
FA
53
49
52
29
15
4C
A3
06
BD
ED
FC
D7
24
07
22
0F
53
20
11
F6
FE
1D
91
2A
F7
7F
0D
DE
77
00
C6
D4
CC
27
51
68
C4
97
2C
FD
31
AE
35
D8
D4
DF
C6
E7
AF
B6
EF
D0
F3
6A
DA
23
95
20
81
04
1F
B5
EC
12
4F
38
E1
F5
FA
0A
17
3B
1A
3C
F1
2F
D0
91
C6
2B
78
13
7F
D6
26
1F
B1
E6
D4
1B
DD
4A
A2
E5
48
4B
FA
36
01
08
B5
61
B3
58
5B
51
E8
C7
48
EC
D9
FE
3C
29
B3
2C
1B
DA
12
7F
2A
09
FC
2D
BA
E9
09
F7
B2
3B
F7
C4
31
D3
5A
C3
82
01
99
CC
E6
C2
F6
FB
56
68
C1
A7
5D
41
A3
50
81
43
F7
14
A3
C2
70
BD
BA
BE
F7
3B
F4
01
2C
DF
EA
20
27
11
10
ED
A2
D7
B1
86
F4
81
FE
E1
53
0B
58
B1
0D
B7
53
FF
ED
25
D2
49
A8
A3
60
FD
1E
3C
0C
26
BC
1B
05
CA
0B
CD
42
0F
12
06
C8
F7
DB
0A
0E
E8
FB
30
DF
FD
1C
FB
2A
1A
C6
3B
81
5D
F1
06
ED
F6
01
03
E4
63
2F
F6
72
4F
07
B6
9B
50
69
1B
11
E1
47
6D
6A
C7
45
10
1C
7F
74
32
49
AF
43
FA
65
0B
4C
EB
01
