FFFFFA24
FFFFF510
000000CD
FFFFF4A3
FFFFF208
0000071C
000011BB
000006AF
00000CC7
00000934
000000AB
FFFFF48C
FFFFFE5D
00000ED0
FFFFFA0C
00000098
FFFFE62B
00000821
FFFFFB2F
0000048E
00000DE1
FFFFFB71
00000C2D
000003D0
00000D74
0000046E
FFFFF842
FFFFFF8A
FFFFFE81
000013F1
00001592
FFFFF7DC
00000990
FFFFF73C
000010F7
FFFFF750
00000EDA
00000777
FFFFF9CC
0000049A
00000A3F
00000BB6
FFFFF07E
FFFFEB12
FFFFE444
FFFFF5EC
FFFFEBAD
000007E3
0000067D
000008D3
000011DE
FFFFEA6C
0000066A
00000633
00000657
FFFFF962
000009AC
00000EFD
FFFFF840
00000F95
000007FF
FFFFFEB7
000008D2
FFFFFD96
FFFFFC4F
00000D1B
FFFFFB20
00000A1F
000017F3
0000121E
FFFFFF49
FFFFEBAD
FFFFFCA1
FFFFF2FF
00000321
00000FEF
FFFFFA39
FFFFF971
FFFFFD0F
FFFFFF37
FFFFED60
00000A18
00001300
FFFFF9D3
00000799
FFFFF4C8
000000E5
FFFFF865
00000D58
FFFFF884
00000898
FFFFF7B6
FFFFF6B6
00000B70
FFFFF1D2
00000770
