1A
D3
A1
9D
CA
AD
4C
66
93
CC
1E
66
D5
98
EB
85
AC
0E
C0
F6
DA
C1
01
98
CF
10
32
11
A9
34
C4
C3
59
D4
01
EC
1E
55
D9
BE
49
BB
AB
C0
81
58
88
3E
1F
84
9A
A6
24
08
E1
CD
DA
97
58
5B
68
A4
04
4A
ED
50
34
40
E7
DE
D4
39
D4
82
CE
07
F4
CF
2C
DC
53
C9
E2
5D
53
5A
6D
FF
9C
E3
64
2F
06
1B
5A
9A
00
36
3A
51
EB
27
B6
27
18
34
16
7F
C4
B6
FE
18
1C
FF
F3
68
0A
D9
F2
12
F7
0A
F7
F2
5B
5F
44
71
35
F8
F3
BE
FE
71
62
3F
D3
8A
FB
34
A6
E0
FB
61
B2
2D
BE
61
11
2F
9C
AE
AE
4B
BC
27
1C
1D
CE
03
2E
63
43
B4
52
4D
9F
60
28
55
4A
F0
0E
FB
2A
5A
69
13
21
56
47
BB
4B
36
DD
F8
29
57
E7
07
69
DF
EC
00
FB
59
0B
34
91
D5
82
90
56
8D
4A
4A
DF
BB
9A
8E
00
C9
90
F8
5C
EE
02
EC
54
A5
CF
1F
68
34
6A
F9
90
60
3C
C8
59
AA
B8
2E
8A
F3
A6
A1
1D
1A
6A
20
E6
D1
34
9E
B9
8F
48
8A
48
0B
19
04
21
B0
FC
82
02
8A
2D
2B
36
0A
C9
A0
65
0E
82
A8
B1
D5
38
20
33
81
9D
88
08
25
A0
04
86
D4
D9
A7
E1
D4
FB
44
00
C5
48
34
30
E7
0C
B5
71
20
43
2E
2A
10
1E
DD
32
60
6F
67
6D
BB
7E
2F
D4
F8
CB
2E
7F
F9
31
15
6F
86
A1
C9
42
04
D2
09
F6
8B
3C
CD
C3
21
C8
3D
91
38
A9
DA
2D
EE
FA
C9
F7
47
0C
78
DA
6B
A0
31
E8
27
01
12
64
EC
F8
DA
6B
1E
5C
9A
AC
79
B0
0D
DF
36
15
09
23
0E
73
FB
E8
C5
24
51
BD
E6
59
D3
CA
00
1A
33
6A
01
B2
8D
6B
AD
1C
B5
4C
F9
C9
A0
8C
81
05
B2
AA
A1
6F
B9
A0
08
AC
27
F9
8C
2D
A0
A6
36
DC
2E
3D
40
C5
86
14
49
AC
D2
92
E1
53
A6
79
1A
7B
31
62
DD
11
50
AB
5B
01
6E
DC
1C
CD
B1
6B
7D
D2
91
9C
4E
6A
2C
31
B2
FD
DF
71
EB
DF
9F
7D
9E
DF
94
96
AA
C3
27
BB
24
1F
B3
A4
8F
4A
DC
A6
EB
00
25
1F
54
B9
07
1A
6E
C4
0F
28
C5
F2
B1
58
72
23
56
FE
C4
B5
F7
3F
28
50
38
5B
C8
AC
40
0B
59
DE
E6
1D
D0
E2
4B
10
13
B6
E1
1B
E4
E0
DA
FC
AC
D2
53
B2
57
4A
7F
16
AC
C0
59
4D
FF
11
9E
D5
38
FA
F4
26
B3
38
D8
88
D3
61
50
F5
F4
18
9B
EF
23
00
1F
64
50
F2
00
1B
D2
1E
1F
C3
4E
01
77
3F
99
EE
00
F7
ED
F5
22
2A
A0
12
1E
E2
5E
2B
F7
37
EC
FD
3D
3E
A6
22
B2
50
D1
F1
13
2A
3F
2A
FA
10
C4
F0
AA
7F
2E
12
C9
29
2A
E0
34
22
09
FE
E5
14
35
39
52
48
22
BD
FF
15
E4
2C
FA
1B
F7
A8
72
B1
E2
9B
5C
DF
9B
17
F5
32
61
05
98
5D
AA
FB
0F
F8
76
7F
F2
A1
2D
4F
13
3B
C8
15
34
30
B6
CF
4A
16
30
AF
1E
00
18
01
71
12
B2
E1
58
07
71
20
23
FA
C9
0D
7C
BA
6D
1E
D8
DF
B7
D5
62
3E
51
61
AB
96
50
E5
58
18
0C
18
E4
C4
25
4B
23
EB
9D
EC
13
98
CB
D6
34
F8
47
AC
DB
0E
62
BD
A0
CD
2F
6C
D9
F3
A6
B1
31
C3
13
EF
E4
60
21
D7
F5
40
48
93
1D
16
E3
00
69
CF
48
33
12
39
B2
25
81
72
F8
D6
54
B2
59
14
AC
22
00
72
18
7F
34
E2
F9
F2
13
52
68
38
D9
E8
3E
56
D9
E3
12
2D
1E
B6
89
B6
C1
36
06
CE
EB
05
18
20
AD
16
17
54
BF
2E
45
FD
D9
DB
21
6C
25
97
2A
6C
E8
1D
FD
EC
C1
2B
D5
B6
08
BE
2C
68
EB
E8
D9
14
D6
42
D1
E8
D5
7F
16
31
95
07
AA
D8
DB
F6
18
2E
47
C3
F4
21
7A
51
0A
10
2D
E7
3E
1A
9B
DA
01
EC
15
00
03
F1
0A
03
0D
12
A4
38
B4
EB
46
5C
44
B4
FC
58
00
F1
58
D4
49
02
1B
FF
F3
AE
51
65
3F
4F
B3
E7
BC
25
25
2E
D5
FE
E5
21
00
34
AA
CE
24
F8
26
C9
24
06
E5
51
9E
C7
A6
05
21
E4
6D
3B
35
D2
CA
33
EA
F2
1D
B8
3B
F2
FB
32
F3
6E
D0
C4
5B
E4
E0
57
BB
E7
17
E5
F2
25
52
F5
4C
7F
CB
67
F4
ED
C7
D9
00
02
14
65
CF
EC
74
3A
F6
3E
38
DB
5F
D5
74
57
C8
E3
F3
DB
3C
13
26
CA
B4
1A
61
B2
E6
03
1C
FC
08
44
31
1D
F6
25
3F
DF
2A
7C
3B
39
55
FE
5C
14
06
B6
2C
DC
C4
69
7F
54
6D
0C
71
34
DE
12
54
4E
A5
34
52
7F
DD
09
39
1B
FC
2F
12
68
6E
A1
52
B4
B5
61
B1
9C
42
EE
C3
A1
5E
17
05
D5
DE
2D
14
3E
05
00
12
29
9B
EA
2D
2A
C9
40
EB
2C
E3
73
F4
F4
A4
EF
2D
05
44
6C
49
5E
56
27
11
90
FD
7F
07
22
D0
48
B2
35
FB
1C
A8
EF
6E
C2
24
5B
93
0B
15
3C
11
FC
D1
F2
5C
45
C5
2B
25
EB
E4
A0
5F
C8
62
2A
24
5D
16
D1
32
34
03
05
DF
EC
CD
48
A3
E5
6B
AA
0D
F4
5F
48
32
F7
FF
7A
4D
FE
32
3A
6A
0B
1E
33
11
2B
00
2F
D8
15
51
15
FF
E0
78
07
14
5C
59
CA
E4
AB
61
CF
DF
23
51
19
50
F6
E9
03
AB
02
29
41
25
B5
D8
CA
AF
36
27
0F
D8
D3
F3
15
60
95
23
FD
B5
44
9A
F5
FA
BC
FD
C6
E8
B0
06
BA
DA
46
13
41
97
FA
5C
12
DA
2B
05
F3
37
6F
15
9D
6B
B8
E5
28
1C
E8
53
DF
F1
3F
49
E9
F8
4B
19
42
7F
AD
2E
EA
15
E5
1F
00
DC
05
25
C0
DB
F6
4F
B2
FB
47
0B
29
E4
06
27
CC
4D
57
96
FD
05
0F
5A
6A
55
2D
12
04
EB
DF
2F
68
D3
50
3D
32
48
DE
01
1E
31
04
22
F7
3B
D2
9A
C7
05
D7
5A
30
7F
2F
ED
25
64
55
AF
C6
0B
D6
52
AB
28
F8
3B
66
E9
FE
D8
37
52
F2
E7
EA
8A
29
D6
0B
43
34
48
B4
D5
1D
E5
F1
00
87
62
FC
54
1C
E6
B6
00
D3
62
0F
CE
C8
29
0E
AD
12
C7
8E
DB
ED
E3
5F
12
3C
09
CD
16
E5
D1
E1
D6
4F
E8
08
FD
E3
9C
FB
3D
6F
60
F6
C7
F1
46
EB
23
04
C5
5B
64
CB
41
06
5A
FA
5B
42
AE
21
01
62
49
D4
37
8E
81
F4
65
E1
BE
C2
F1
4A
3C
B9
29
96
DB
27
DE
2E
51
85
EA
D5
85
5A
42
9D
91
47
E7
DF
F0
19
F7
40
10
F2
01
4E
BD
00
08
08
1D
1B
28
07
3A
C8
5E
49
05
29
FA
5A
15
53
78
7F
FF
CD
08
35
2D
4F
14
02
E5
E2
58
F5
22
58
8D
EE
AF
FE
4D
43
6E
0C
82
49
DF
EF
3A
CF
C9
97
4C
C6
21
09
2A
A6
13
08
45
29
37
AA
0E
CF
1D
BE
4C
65
E9
0E
CA
86
3F
46
42
05
AD
A8
10
1A
F8
C3
4A
1D
D4
06
CF
04
A5
03
DB
F3
6A
18
12
71
FA
A9
00
B3
3D
F9
D2
06
5F
B1
92
6D
1C
68
38
67
E3
C5
AF
AD
44
81
16
B4
AB
FF
17
CF
2F
12
AD
AD
1F
06
F9
9E
A2
EB
CB
B1
0F
47
8F
99
2A
43
59
C8
6D
AC
BE
B3
63
03
BD
53
F8
35
6A
C8
5E
12
C4
CF
A1
ED
04
06
D0
8A
26
57
89
B2
E7
12
E8
85
1D
40
A4
B2
E3
ED
9D
CC
1F
09
4A
98
68
F9
CF
EA
BB
12
CE
B0
8B
00
27
96
20
D2
B9
A1
F0
2C
D7
CA
B3
2E
11
FA
52
DC
1A
45
D9
FB
18
E7
60
D3
7A
29
FF
B1
C3
42
35
E0
1E
4C
6E
E3
E0
25
EF
61
5A
8E
6D
01
9E
AD
D3
AE
25
F2
38
AA
3E
AC
8A
46
F0
7F
C6
8F
CE
BB
8F
3A
3E
A1
E1
38
01
5B
52
B2
63
38
49
50
82
36
74
8B
0B
79
44
90
F4
EE
A0
D1
D9
2F
C2
20
BF
AE
1F
B6
00
C3
35
0A
D3
35
A1
30
CD
26
EB
F0
1E
CE
C7
FB
38
6C
29
D6
1C
22
49
22
2E
4E
1C
28
21
E9
E5
C2
EF
C1
F7
E2
08
DF
01
E9
B3
D1
22
D4
17
5C
9B
97
13
63
F8
2D
75
32
C0
FA
20
7F
0E
EC
DA
BF
33
10
F5
39
DA
0A
4E
D3
03
A2
37
28
E4
31
B0
F4
2B
3E
BB
D5
4B
59
E8
0A
7D
45
08
44
E6
40
18
23
48
B0
CF
00
64
36
29
28
F4
AD
30
E1
34
2F
28
8F
F1
57
17
C2
D3
11
EB
D4
0B
A1
EC
D2
FB
0E
E1
BE
3C
25
36
D3
DD
FB
4A
EC
63
7F
BD
25
F6
4D
79
04
D0
00
3E
F8
DB
D6
D1
1A
1E
CD
AD
C7
9F
6C
32
F8
D8
21
BA
B3
DD
EE
FD
F3
45
C8
7C
1C
49
DA
EB
5C
F8
53
4C
1D
06
E1
0A
41
FF
BA
EC
53
0A
D6
D9
D4
53
F7
BC
72
00
52
6A
53
5F
86
0C
6A
12
26
78
EC
D8
EE
6F
5F
FB
08
6D
EF
30
E1
B1
E8
D5
C4
30
81
F6
F2
34
47
DF
16
05
09
DF
39
75
EC
31
CC
2D
54
EC
F3
F8
59
0F
01
EC
AA
D7
70
31
48
F6
CF
74
07
D0
F7
09
34
BB
D0
1A
E4
23
51
FE
47
C2
0D
99
F8
E2
22
F0
47
EC
5C
D7
F8
79
11
FB
CC
24
AE
03
CA
B0
C3
A4
60
4E
00
E6
D1
D6
E2
14
13
3B
57
19
47
2E
A6
0B
BD
EE
10
22
E6
13
91
01
01
4C
2A
DD
E7
50
F1
16
4E
27
9D
F4
3F
E6
AD
35
3C
37
5A
37
1A
48
03
37
CE
3C
48
20
3A
46
10
38
C1
D6
44
27
F7
39
EA
FD
39
81
52
21
B6
EA
CB
4D
13
60
A3
48
E5
3A
2E
21
09
FA
0D
D2
E8
3C
C6
28
4F
29
F3
5D
3E
DF
3D
ED
EC
AE
1D
00
38
13
70
54
06
9F
F3
34
21
60
7C
08
B4
29
03
88
F1
06
2F
86
11
A2
36
DC
03
2D
A1
31
43
4F
2C
8D
44
1E
54
82
56
16
0A
2C
C9
DD
0B
E7
17
D7
3B
2F
C1
FF
CE
D5
1A
B9
A2
11
8E
68
F5
06
CC
E7
C7
EC
01
F0
DA
2B
24
D5
02
E5
56
81
30
DD
14
55
6E
36
FF
1E
2B
72
E7
90
13
6B
2A
0D
05
FC
F6
86
DE
6A
00
CE
6D
07
F4
C3
6F
EC
D6
FE
FF
B6
17
51
09
D9
29
01
57
FB
15
C7
3D
DA
DE
1F
08
0B
42
FA
E0
D6
1D
1D
DC
10
32
C7
D0
02
F4
50
12
19
E4
E5
60
BD
32
06
2A
05
B1
12
5D
3F
42
E1
E6
E0
96
04
F9
7F
B6
E3
7B
0F
0F
DF
38
D4
60
0E
0E
F5
42
E0
FE
DE
DF
45
A9
C8
05
31
F3
1A
B9
DA
26
1A
1C
E8
12
79
D7
00
51
E8
0D
35
FA
BB
E4
7F
27
F9
5B
35
D5
11
DE
E7
43
50
47
DE
5B
F1
23
32
25
B8
FA
6E
46
0E
F0
11
F0
CF
FC
37
2E
BF
1C
B0
D5
46
1E
C6
05
F0
F2
A1
19
B0
1C
19
CC
9B
B3
27
4F
B1
27
14
63
9C
3A
5E
5A
25
BA
F7
34
18
5F
5C
EE
EF
B9
C7
50
F8
18
5D
2F
CA
27
E5
12
2B
1B
D9
1E
19
48
EB
2E
04
08
D8
00
26
E6
41
26
16
3D
F0
0C
A3
3F
44
60
F7
07
21
F2
E5
E0
5E
4D
2F
09
10
96
BB
CD
D6
7F
25
1B
1E
0F
E1
FA
F9
09
02
18
C5
FB
3B
70
FA
F3
14
DF
5F
14
F6
04
92
2A
D2
00
EB
E8
B0
C9
31
FE
5C
03
EB
5E
09
1C
0C
94
24
F4
4C
A3
BA
F7
E2
DA
6A
21
0A
25
C6
E1
C4
7D
3E
B2
E9
06
12
72
FE
0E
C6
DC
EC
08
00
0A
6E
F2
BC
D2
53
25
E2
48
19
D8
44
34
F3
36
3A
E9
05
E8
29
15
10
F5
1D
13
3F
D2
F1
D4
D9
E7
54
D2
0F
24
4B
BC
30
34
0E
07
F4
11
1C
C5
0E
C2
14
15
C5
25
BC
55
5E
33
2F
01
43
D5
C2
F7
4C
5E
F0
C0
69
42
51
E8
06
08
24
0F
FB
F2
E6
F1
EC
ED
A7
7F
F2
B9
30
FF
02
C9
38
C4
D1
51
17
CB
E6
61
19
00
09
BD
7D
66
DA
08
2D
47
FF
2D
6B
94
C4
41
70
A7
00
28
3C
B7
F3
9E
C2
A5
48
3B
8A
FA
27
43
78
81
23
20
51
ED
5C
31
CF
D7
39
3B
13
0D
02
D5
5C
F6
FF
18
A2
09
F7
09
E5
E8
DE
34
66
44
E2
2E
D5
D2
39
D2
1B
E5
68
02
5C
A0
20
EA
2D
3E
F0
71
53
33
E7
E5
CC
4E
43
8C
05
36
D3
28
D5
D7
37
A9
A0
3E
00
CD
55
37
F2
81
82
34
56
0F
A2
F4
68
28
66
BC
07
DE
98
0D
AF
12
F9
EF
E2
A1
AF
F7
1F
AA
8D
B6
1D
7C
67
B9
B0
5C
01
0A
72
A9
A6
00
C5
74
BE
3F
9E
02
FE
0D
F5
1B
E0
8F
E8
C0
4B
4F
2C
2B
F0
2E
93
DF
AF
E3
E4
AD
84
ED
94
54
A6
08
9B
02
8A
4D
37
0B
49
5B
6B
A5
FC
F3
1E
9C
8A
F9
3A
D8
83
ED
BD
00
D1
4D
CD
23
D1
14
B8
28
3E
DD
02
64
65
9B
4C
C9
B8
E3
BB
94
DF
AC
D0
8C
2D
CE
95
DA
D1
C0
51
C1
9B
4B
CA
A4
2C
37
87
2F
38
03
15
9F
00
B3
84
1C
B7
B1
B9
F4
86
86
31
36
43
B5
07
2D
2B
5D
FF
F5
8B
67
38
95
82
CE
F9
B6
C7
57
C4
FB
25
EF
81
AF
92
29
1E
9A
EF
8E
CC
D7
42
52
86
C8
AD
8D
F5
55
00
A3
61
BA
EA
17
AF
8D
A0
13
89
00
BA
DF
34
29
E0
31
B9
81
50
1B
D4
5C
D1
5D
1A
D7
1C
EB
52
C3
A8
D0
8C
B0
4B
22
14
5B
98
1B
8F
2E
8D
70
0C
B3
13
45
BC
1F
82
B3
FB
2E
C1
5B
96
2E
0E
B5
57
B2
5A
A9
43
07
9B
F3
BD
93
BF
8F
3B
D5
F6
99
47
9D
C5
0D
84
8A
3B
0D
47
62
B8
2A
B1
35
42
FF
B4
C7
9F
00
D0
C3
D0
DE
01
6C
07
2C
E3
8E
20
5E
E8
35
49
5C
B4
CD
8C
62
C7
F9
14
64
A6
19
B6
0A
46
0E
99
EC
55
5B
B3
0A
D2
3C
DE
BF
D8
0E
FA
35
27
1D
92
26
DD
E4
7F
BC
56
F1
BD
ED
39
B6
D4
29
FC
E3
2C
39
55
64
52
DB
46
D8
EF
E6
FE
60
43
EA
BE
D4
41
BB
0F
0A
1E
C6
CB
FA
2C
CE
E1
C3
B7
69
ED
53
07
1E
00
2A
17
63
A5
FA
50
58
C4
6F
11
12
EB
C9
36
58
FA
CE
0D
CA
AE
C6
F6
21
C0
51
61
CC
9A
25
81
08
28
1F
E8
54
0B
52
63
27
F2
E4
0A
35
D3
BF
14
30
00
08
DA
14
C7
70
31
DF
39
BC
40
D7
A6
82
15
53
E8
F7
2A
20
FB
3E
F7
C9
F6
58
85
48
FB
BF
76
22
E9
5A
18
E0
EC
03
AD
C4
10
D9
D4
0C
C7
0F
16
45
10
00
4B
1F
5E
53
D3
E7
4B
10
07
4D
6B
27
90
55
52
E1
0E
26
4F
F7
90
C3
06
F2
1E
40
E1
F5
41
C7
6D
1E
AE
2A
4A
AF
65
7E
50
CB
AA
15
0A
AA
B9
2D
48
C1
18
1D
01
C1
2B
F0
A8
2D
B0
54
15
ED
04
FB
4C
E9
56
06
01
47
68
9F
74
F6
7F
B7
E8
DC
D9
25
33
1C
46
D7
ED
64
D5
CB
98
36
EC
BD
F8
B4
26
F2
CA
18
00
17
59
DC
10
E2
40
40
91
37
F5
C1
64
E1
36
73
F1
42
51
AC
16
E3
FD
0A
25
3E
5D
B0
EA
1C
D0
40
6E
FB
57
16
16
43
3E
57
2B
B8
D6
29
9F
EE
17
B0
A9
06
9E
F0
00
43
F0
FA
DE
51
71
AE
B7
C2
BE
7F
89
48
73
B7
70
0D
A3
BC
1B
FE
07
CE
06
10
D2
15
91
51
24
12
E9
D7
44
8A
4C
29
D3
5F
3D
58
5F
E7
EB
00
FF
03
0C
08
BF
22
42
43
D7
18
35
69
F5
54
EC
1D
12
F9
29
1C
A7
4B
C9
43
E0
E8
CF
73
0F
E3
E3
7B
93
C7
1C
5D
CB
CC
46
16
D9
FD
FE
B4
E9
26
31
DA
2C
AB
2A
CA
F7
0D
06
EC
CF
BE
E6
06
F9
DE
73
0E
37
7F
20
47
BD
C9
BF
23
1B
18
DB
9C
40
18
EB
D7
60
E8
05
4A
BE
23
D4
E1
9F
64
3E
F2
C2
EE
3F
0D
00
20
B7
2A
99
40
EE
2C
D3
CB
05
0F
C7
59
F5
45
F6
48
08
9B
0F
0C
F7
F2
5F
46
5F
08
C8
08
1A
2B
C1
58
77
0B
19
3C
15
17
6B
12
AC
1C
00
2E
26
CB
32
64
E4
0D
37
6E
09
15
42
7F
27
AE
F5
C5
54
CE
12
E5
AD
38
D8
D6
0D
C0
EE
23
05
46
68
87
5C
39
02
D5
7C
5E
8A
2C
EA
3D
45
2E
05
0C
18
0E
FA
1A
E7
00
0B
EE
DC
13
5F
4B
08
E8
C7
D6
37
4C
16
14
96
4B
C9
36
64
4B
4C
6F
CD
FC
DA
D1
7F
73
12
5F
BA
39
2C
16
E7
3B
1E
91
5C
DE
26
2D
AA
02
48
D3
DC
F9
F8
E8
45
D5
B9
4E
67
1F
01
DD
FD
40
2F
1C
28
F9
F3
40
1F
FE
C8
67
C9
EA
C5
65
DD
EF
47
F4
CB
38
49
05
0F
31
28
F5
29
00
F3
75
00
46
E4
24
34
F4
00
21
08
1B
6D
08
3A
30
54
CD
60
71
ED
CA
0D
F3
E7
B1
0F
24
07
F0
F6
D6
C9
E1
CD
E8
6A
33
FF
25
FC
49
12
17
B0
16
F5
EB
1C
24
35
EF
DE
C6
5D
4E
03
BD
2A
81
C8
F3
38
F8
14
F9
3B
4C
29
3B
FA
B6
12
E4
2C
38
9C
1C
F1
36
A5
DF
EA
16
20
4E
F5
21
10
2B
EF
CF
62
2F
BB
B5
22
FA
23
A7
DA
28
F2
E6
78
00
08
55
76
F5
97
04
44
9C
56
72
FE
BE
C9
66
69
AF
BD
6A
32
31
A1
01
E3
B3
33
1B
B2
C4
2D
E3
72
3D
40
F1
2A
EF
3D
11
21
60
17
2D
63
DF
CF
42
4B
0A
C6
2C
8F
1C
7F
5D
05
3F
D6
4B
0B
E8
AF
6C
42
85
04
2D
E8
F9
66
C4
43
3B
59
D9
23
F8
14
06
FA
EC
DE
03
16
40
FD
CD
89
59
DD
A5
D1
99
1E
97
18
61
00
FB
C7
0F
FC
FC
C7
58
CE
DB
0B
EC
EA
38
CB
F9
FB
11
D3
9C
A6
1F
F5
01
09
1F
4E
49
E5
06
EF
13
03
1E
2B
E9
FF
37
32
C6
61
43
B2
12
03
03
3E
B7
2F
38
04
50
36
7F
36
03
1A
44
76
9D
29
D0
01
28
AD
ED
CF
47
39
D1
43
BD
F7
21
28
3C
4C
C1
54
51
AF
DC
55
4B
A2
27
13
F7
1A
2A
8B
0D
14
F3
D7
08
F9
00
5F
B8
1A
76
E1
C5
AE
51
FE
36
58
04
DD
3D
17
B2
EB
26
14
CE
39
E1
D4
08
D1
B1
25
25
29
31
DD
C8
1E
9E
3F
F7
FD
D3
10
19
A2
3D
23
E4
1E
A4
49
31
D2
14
22
B7
AF
81
94
2E
A3
B7
72
1E
39
8E
D5
03
F5
99
09
09
60
D3
0E
FD
34
D3
29
F0
10
39
50
48
92
02
37
4D
21
05
ED
22
28
59
E4
1C
08
24
86
19
00
73
3A
22
14
B8
0F
5A
23
57
2E
69
2A
F2
30
64
28
D9
06
08
26
C3
9A
58
0D
F8
F8
B6
ED
39
D7
33
9D
9B
32
CA
C7
1C
7D
9F
F5
9E
53
0E
BC
04
CE
22
1B
F5
01
E7
EE
72
84
9D
FB
AD
57
27
FD
19
A0
01
0E
F2
C1
18
21
F9
CC
54
0E
19
1F
D9
AC
36
5D
D6
B1
31
13
D1
01
84
B5
B6
59
02
A8
40
22
CE
F2
81
0A
00
BD
85
41
F3
5A
9A
03
42
19
E5
30
B9
C7
E4
0B
82
F9
F6
87
03
2C
81
C1
D3
B4
42
86
81
3F
D1
0D
4F
EC
F2
0C
4E
A8
B9
0C
0B
9A
A4
0A
C8
EE
83
C8
57
FD
AB
B4
05
9C
86
87
C8
B8
50
84
D8
39
E0
5E
FF
32
F7
A1
AC
30
FD
DB
BB
D5
E5
89
54
A3
E1
B4
25
E7
20
2E
E0
3E
38
87
3F
8E
BB
0B
FF
8D
A9
05
49
00
AD
4C
51
3C
71
42
DE
2B
9E
8A
39
30
49
A9
79
08
00
B2
95
01
B0
04
F7
E0
94
C6
8E
8C
F4
81
25
CC
7C
CF
5C
BD
FA
DA
5B
6E
90
E5
ED
1C
D2
A8
59
CB
1E
95
B5
04
13
17
42
0C
6B
AB
F4
3E
1A
DB
9B
A8
B4
D9
6D
C6
BA
BE
B9
B1
E6
EE
86
5B
A1
D3
61
1A
53
9F
10
E7
8E
5F
0A
28
9D
89
D8
6F
79
7B
D0
26
00
D9
83
37
F3
9C
35
6E
49
E1
6D
9A
2D
0F
3B
F9
F6
88
EA
54
D7
82
58
CB
DE
CC
2E
C3
82
81
70
B8
12
47
C2
A5
2C
FD
F0
83
73
95
A5
4A
00
C8
1B
4E
E1
CD
0C
6F
D5
D4
B6
82
75
BF
4D
C9
E1
E0
CE
C4
0D
B3
C1
93
74
87
C6
54
5B
4E
4D
6B
E8
F3
02
88
67
60
36
FC
5A
B0
8B
87
F8
03
6A
99
6F
F0
C1
84
B9
00
CA
B4
52
40
0C
25
81
E4
6C
90
A4
0F
CE
5C
C6
3F
F8
33
61
4D
06
AC
C5
CC
EE
B0
32
D0
A6
E6
F6
EF
5F
31
9E
E3
E6
B6
F7
29
42
FA
B1
8E
C3
1A
6D
6E
3B
47
A6
37
FA
91
09
97
8C
DB
27
CC
04
06
22
6C
9E
B0
BC
A3
8B
CD
B3
89
E8
1D
3C
28
CC
D6
1A
B6
88
47
34
A9
F7
23
F0
13
B0
B7
C8
69
5A
1C
DE
2F
00
A9
B6
A2
ED
2B
3B
92
F8
06
B7
B7
0A
36
C0
89
47
0A
C5
C9
FA
1E
06
EB
11
E7
CE
52
09
FB
10
AF
31
3C
39
03
49
F4
90
F8
33
5D
CC
E0
46
14
36
15
6D
4C
19
68
40
EA
1D
22
1E
51
EA
EB
1E
56
5E
24
1A
F9
BF
44
10
D8
6E
C3
E5
D1
6E
10
05
CC
B7
F3
1C
E1
52
0B
AE
F1
00
5E
0C
2F
10
D1
7F
DE
0B
F7
C8
00
CD
F5
A8
F9
EC
F0
B2
60
48
C0
14
B6
E5
52
D3
BD
04
2D
09
F0
D5
FB
A6
34
1B
09
F8
E0
D1
DF
51
27
45
CB
BE
1B
03
20
42
E3
C2
C8
3F
F6
F5
CE
DD
E4
11
D3
39
93
C5
EA
FC
B2
CD
B5
1E
94
B9
C9
E5
C6
D4
4C
D7
72
E8
06
2C
01
72
0C
03
3D
14
0E
21
F5
1B
1F
E1
9B
F4
E7
21
F7
04
2F
71
1A
DB
CC
35
81
00
29
9C
2E
62
65
9A
A3
71
05
40
35
83
36
C8
E0
44
53
E6
54
95
70
C2
26
1D
F9
B5
05
DF
33
75
4E
EE
16
30
B2
A4
27
0A
1B
06
04
52
EF
46
5C
C8
E4
2F
ED
E6
42
52
AA
A7
20
23
37
EA
60
54
56
2A
F5
5F
0C
81
FD
32
3E
39
EE
D1
09
CE
10
3C
EA
DF
64
79
98
57
4F
DD
41
2A
5E
52
EC
FF
F5
0E
62
E8
AF
5C
00
64
E0
9E
F5
81
43
94
BE
0E
DC
5B
21
BD
D7
C4
86
10
83
97
88
B6
55
1B
61
F7
4B
B3
18
DC
89
49
A8
C2
F9
95
02
A5
92
00
23
89
81
91
07
59
C7
83
DB
D1
25
E3
22
F7
9E
A9
51
4F
89
D9
12
10
BC
20
30
A8
1C
2B
1C
4A
EB
CB
4B
FF
85
8F
43
DC
05
C4
FA
41
C9
DA
96
D2
0F
16
8D
4F
2C
1D
B1
29
D2
AB
B4
00
37
C5
AE
EA
1B
58
AD
20
B9
4B
DB
10
93
14
1A
2F
54
3E
9A
66
AE
E3
CF
0E
AD
E1
D0
33
B0
58
F8
0C
2A
B4
AE
C9
3C
81
C6
21
91
1D
5E
03
33
72
E0
94
2E
AA
01
19
88
66
4A
CD
F1
27
89
87
BC
C2
79
1E
5A
0F
68
3B
35
ED
E3
60
3A
C7
C5
89
83
DC
5C
15
2D
4F
F7
BF
E8
2B
F9
4D
49
B6
60
F8
46
CE
2B
E6
00
ED
B1
33
D5
08
B1
CE
04
0E
BF
E0
1A
1C
08
B4
64
D3
BE
63
BE
90
2A
E3
3D
99
01
01
FD
B9
D5
2A
FA
E3
0E
AC
F0
A5
D3
A1
41
F8
91
0E
C2
89
C5
B6
1C
22
35
8F
5C
C1
F7
48
16
8F
EF
5E
E6
E4
81
DD
58
04
CA
53
4C
BB
B9
31
34
8E
B4
1C
56
FB
02
6A
4A
54
AC
D2
EE
4C
FA
4C
C0
DE
18
B5
9A
4C
20
D1
54
00
D7
4E
D2
0B
42
11
FE
38
CC
C7
3A
1C
EC
4A
1A
52
21
42
0B
6B
42
7F
EF
6E
02
24
54
20
43
34
F8
1E
AB
01
A4
F3
0B
13
4C
BB
8E
2E
BF
C4
29
EA
AE
90
F4
C0
50
2C
D6
AD
19
BA
6A
C2
03
D5
F1
0B
6B
F0
17
52
D0
3A
D8
17
3E
38
C3
6C
C1
8E
56
C4
F9
12
55
40
04
D9
CB
38
34
10
2C
27
20
47
38
17
1C
FB
00
E2
23
F9
08
F1
C3
67
EC
58
57
32
07
DB
0D
16
E2
6C
2D
0A
DC
C9
20
7F
13
38
0C
16
EF
1D
C0
78
FB
B8
EA
F7
1C
25
65
26
96
E2
F9
E9
04
D2
E1
DC
B3
78
EF
07
E4
1D
E1
C4
F7
FF
35
D7
F0
D9
D2
E2
CA
68
38
BB
5C
39
EE
DA
39
29
2A
E9
C4
18
F3
FE
ED
DC
5E
60
C6
AD
4A
B0
1F
14
EE
68
D8
67
46
EC
D5
00
F5
32
BB
81
F8
F0
23
63
A2
FD
F7
61
F8
D6
5E
AE
91
83
3E
72
9B
96
0D
F3
B2
CB
F7
1F
7C
BE
2E
D6
30
EA
59
D1
CD
A8
BC
EC
86
62
B9
C0
95
1F
B0
CC
22
11
5F
A0
BE
65
5E
8A
CE
AB
FC
8C
DB
BF
42
32
52
C8
2C
EE
C0
3B
8E
01
08
5A
48
E7
F6
ED
43
6F
A7
E3
72
B3
48
15
24
B0
8D
6A
82
7A
9B
CB
90
90
00
DF
F2
08
D8
34
2E
D2
53
E0
92
F6
65
12
EB
AC
25
DA
F3
6B
5D
67
37
AB
BA
9C
CF
6D
73
CA
3B
81
58
39
17
53
00
D5
AA
22
F0
23
5C
1C
2C
5B
E1
F6
1B
00
4B
47
0D
C5
3E
59
2C
06
EF
D9
38
74
FA
03
7D
A3
DF
3D
F0
05
50
33
BA
8A
4C
F3
0C
3D
EA
DA
DC
1E
1A
2B
FB
1D
05
0A
F2
12
54
FE
FB
E3
48
73
37
00
33
38
BF
54
CC
90
B4
02
66
93
B8
4E
9A
EA
47
10
01
23
13
4F
03
97
FE
D5
2F
C7
81
3C
5A
95
D1
26
E7
43
40
13
A8
54
CE
9E
8E
96
DF
F5
1F
DB
12
C5
47
4C
0C
97
02
8A
91
58
0D
38
8F
30
91
5A
41
92
1E
9A
64
BF
98
09
3C
6F
68
25
CD
18
44
CD
A2
8C
8B
FA
86
41
EB
CD
B2
92
2C
5C
B2
55
E7
14
3B
26
00
17
57
FF
55
12
20
1D
1E
CD
06
1D
62
EB
09
E5
D5
D4
1A
2F
4E
F2
4A
F0
F1
D3
0F
D9
7F
0E
F9
E4
45
BD
C6
0A
1A
BF
EF
3B
EA
F8
0F
C5
02
DB
1B
DA
DA
F4
ED
F6
B6
08
36
38
F5
DA
0D
19
EA
30
16
0F
F9
2C
55
39
1D
21
C6
ED
36
F9
46
BB
DD
1F
0F
DA
2C
45
02
B2
57
E4
05
CF
D3
AD
6A
2A
F8
E5
18
14
FA
00
53
F9
4D
5A
B7
BA
D2
2F
44
37
08
8E
35
07
30
B4
B2
1D
59
A3
11
F4
D2
B4
CD
D2
E7
3C
C5
1C
3E
EF
58
16
4C
86
1C
41
A7
5F
22
3B
79
61
97
1C
7F
60
F0
46
9C
1A
0F
37
23
DB
AD
2E
E8
50
CF
DC
91
3C
BC
AE
25
D5
02
0A
34
C8
1F
9D
0E
6D
2E
51
1D
29
97
0F
1D
46
57
A2
48
3C
FD
53
B1
F2
14
97
0F
49
00
BD
E0
D0
96
40
18
1A
0E
EA
BD
FC
F0
4B
D2
04
17
3C
F9
AF
D1
26
26
2F
3B
37
FD
2D
FE
FF
AB
F3
2F
0B
4A
24
36
29
02
E0
28
6D
EE
4C
02
FF
0E
1F
2C
2B
25
5C
5B
61
00
58
E0
36
0A
C2
12
BC
FF
03
D9
D4
F6
E0
15
BB
6C
E6
FA
D4
F5
6D
62
81
F4
38
1F
AB
51
35
90
64
E2
4F
EA
F3
E8
BC
59
01
53
11
DB
00
E4
53
CE
11
4F
D9
CB
0A
0B
F4
E9
7F
DF
FA
E9
01
16
4E
5F
60
EB
61
36
25
E0
B1
3F
77
FC
F7
B8
28
EB
F9
F9
3D
EC
B8
34
B0
D7
2A
13
DF
F8
FE
15
CE
E6
B5
25
EF
D2
06
F8
E6
4A
03
3B
29
58
BD
0E
5E
43
FD
1F
36
EE
B3
1C
67
DA
3F
E5
AC
1E
14
F8
45
5B
DD
E5
1D
E8
4A
DE
0E
04
5C
F3
4A
02
04
FE
CE
00
30
3F
2A
D4
DA
4C
40
23
52
56
DF
A9
35
24
3E
CE
D8
4D
3B
28
E4
F2
AB
F5
C0
09
0F
D7
4B
ED
6A
B3
6F
D8
36
9D
36
0E
CC
6B
70
D1
13
2F
98
4D
61
12
AE
58
95
2B
6B
54
50
30
E6
78
CC
F4
FF
25
09
DB
F0
C7
60
12
3A
23
5B
9E
32
AB
F7
4A
FD
7F
10
DF
2F
A5
1C
3E
6C
9B
BC
14
F4
EB
A4
B2
EA
A9
11
22
00
FA
0E
9A
0D
6A
EB
A2
00
EB
02
0B
3E
2E
CF
D0
72
21
24
F7
40
62
F5
23
11
3D
D1
7F
14
48
2C
CD
59
E9
24
16
FF
0D
CC
20
E0
BB
0F
14
C8
20
CE
AE
BF
14
00
5C
59
FD
CB
B3
DC
36
F2
03
2C
57
C4
55
FF
43
2E
A5
EE
EB
11
EA
FA
BF
2B
D2
F6
6D
F3
3D
F9
FD
DC
41
B9
D1
69
69
3D
23
4A
6F
0E
FE
69
E6
05
00
46
C8
1C
47
39
BE
9A
02
EA
EE
35
09
C8
0E
B5
17
0F
C9
64
0E
E0
2F
1C
B8
EF
BF
2A
7B
36
5C
E0
94
D5
9E
50
07
0A
36
EE
34
CD
30
19
F5
BC
F2
5E
F4
E7
3F
88
F0
FB
14
BA
F0
BE
03
3C
07
7C
27
E8
16
09
C3
1C
C1
EC
00
55
B2
A1
2D
18
FF
33
29
0D
66
17
20
E4
51
4B
AA
16
33
11
7F
9D
B1
CF
ED
FF
64
00
A1
49
C9
01
14
24
35
F1
E3
90
97
ED
4A
F6
CD
10
C1
2A
1F
32
30
D7
D7
19
9A
F3
42
EF
D7
CA
DB
47
04
39
07
29
B3
01
CD
38
73
B7
E4
52
CC
39
27
19
EC
26
1A
01
FF
6A
52
42
C7
01
B9
C4
14
4E
0B
D2
BE
E7
60
2E
C5
5F
C5
13
B9
0F
E9
3F
E2
31
AD
C4
40
F6
DA
FA
5E
15
1B
1A
D5
48
DF
12
81
D3
2A
B7
00
70
D3
DC
1E
16
19
9D
8B
31
02
16
8D
D4
B7
23
2C
95
53
36
95
52
5C
77
9F
6C
32
B1
B7
81
3E
C7
38
86
D2
C3
96
07
B8
E2
A0
43
1E
2F
C6
0D
FF
48
21
4D
2E
10
84
F9
36
98
44
62
4F
D9
C1
DB
10
93
A0
38
D4
8E
A8
DF
04
91
6A
CF
17
B7
18
44
F3
72
74
33
89
99
8E
04
8A
C6
9F
6D
17
04
E3
09
A5
28
3B
00
C4
30
0E
23
F6
1B
35
F2
DF
B0
FE
FF
02
50
C2
DD
DC
67
E5
46
C3
F0
A6
ED
AF
38
32
1E
A9
FF
B5
50
0B
FF
03
4E
F5
B3
12
3F
F8
E0
4D
3B
FE
6C
E1
27
B6
43
32
A4
2C
37
4F
0C
F0
D2
F2
E8
EB
02
76
C2
C8
7F
F7
47
D3
47
D4
60
FD
FB
EC
22
1C
D5
A4
AC
30
8F
C1
D4
02
E8
F1
F2
8D
EF
F9
F5
D2
EB
6B
F1
00
0B
67
3E
C0
9C
F3
CD
EC
0A
D6
C6
6B
1A
4E
B6
9C
50
5B
A9
B1
DE
C1
ED
D0
DE
13
F8
13
52
AF
D9
1A
FE
61
BA
15
8F
18
9A
DF
C8
C1
BF
8B
44
36
E2
88
6B
8A
B6
DA
42
2D
D3
8B
04
5E
2E
A4
09
F0
FF
1F
C1
91
86
D7
2E
28
BC
3D
3F
C7
31
12
63
EE
8A
AA
81
0C
DF
94
6C
54
48
99
E4
41
82
B4
FC
33
AF
BE
00
E2
B2
45
AB
3B
54
A9
ED
C7
BD
93
CA
85
5A
4A
3E
31
94
1A
5C
C5
0A
02
4F
48
1D
22
8E
94
8A
5D
FD
56
C3
55
13
D4
1F
54
F3
B5
43
D0
AD
B4
DE
E0
06
B6
EE
2D
90
0C
00
F0
A0
8D
26
18
29
BC
A8
DD
45
BC
2D
9E
81
9A
13
37
8B
37
9D
BD
B7
B0
33
CD
5C
34
9F
B2
EE
AC
C1
9F
19
3C
F1
C5
8B
13
0D
A5
E7
00
E3
AF
17
C3
55
E5
13
F2
10
23
0C
C9
23
11
0D
22
61
EE
E9
DA
F6
FD
18
76
6D
0B
13
A5
53
1E
19
DC
11
0B
E1
DB
56
2E
42
9B
CD
02
11
FA
51
DB
F9
00
7F
03
2A
49
25
B4
F7
F1
44
1B
C8
F3
04
B7
C9
31
4A
D5
D4
2A
D3
DB
D6
05
55
1E
BF
1C
14
1C
3B
17
AE
7C
55
A4
C1
65
49
17
62
C1
17
45
76
42
93
32
00
57
A7
8B
9A
C7
99
E2
3C
39
B0
A1
1A
81
5A
65
FE
EB
97
15
B5
AA
D5
86
9D
48
CA
DF
99
11
95
67
8B
27
D6
CA
43
69
A7
01
CD
DA
FB
62
F3
BF
E6
CD
5C
0C
BD
65
9B
56
15
27
AC
20
04
66
3B
36
3C
3D
8F
E9
28
F6
CA
2D
F0
AE
89
51
A3
57
67
3C
43
89
3F
B8
03
00
DA
94
8C
4C
52
AE
F4
56
36
CF
8B
5D
41
00
66
C6
5B
E5
9B
FE
0F
B4
DD
17
46
E3
D5
E9
57
54
22
47
BE
B9
A6
EA
AB
61
11
BA
1E
A2
D3
34
ED
52
8E
93
8C
FD
FA
15
E3
BE
AD
54
94
0D
B4
11
4C
9F
D9
A5
21
5F
85
0F
0F
88
1C
13
16
12
9D
D1
BB
61
1C
CC
4C
DD
A6
85
DB
4F
B6
1D
DB
1D
B3
86
D5
B0
11
0E
48
81
D6
9F
CE
C0
9E
CC
22
EE
3C
F6
18
5D
00
35
C5
CE
5B
E2
05
D5
EB
C5
BF
1B
D4
4D
04
83
35
FC
DF
54
33
74
11
E2
BD
29
DA
74
6F
F8
61
F6
FD
3C
E7
CF
1E
18
A2
F9
1D
F7
22
00
42
51
DA
DD
54
B1
2E
FF
04
A2
1E
E6
53
33
DA
3A
FA
71
E5
B7
7F
2F
D8
00
EB
17
19
14
AD
97
60
40
31
00
BD
08
55
C4
D4
48
27
32
29
79
0B
39
65
EF
64
DE
E6
1F
29
00
27
AD
C0
B0
50
2F
A4
36
AC
A6
AD
33
77
AF
AA
31
15
AF
09
09
36
07
12
0A
1B
E3
7E
03
24
F3
9D
5B
4C
50
BA
F3
B3
97
42
61
52
06
DC
62
68
D1
FC
2A
3D
25
0F
0C
07
FF
03
0F
69
BE
EB
03
1D
2C
0C
66
1A
C8
22
FF
A4
3D
95
1C
91
37
5B
EA
E3
BE
DE
31
D6
F8
3A
CB
0A
4D
7F
BB
26
3C
34
4F
F0
2C
5A
93
00
74
A3
4E
F5
38
C7
A8
FD
1A
67
EB
DC
F1
47
FD
30
41
D0
F2
F5
35
AA
F5
08
F5
E0
CF
D3
FD
7B
FD
81
BC
12
EE
A2
F6
DA
56
2F
9D
D4
E3
43
3D
B9
3A
DA
08
F8
05
4D
D7
03
17
D5
52
FC
47
5E
61
90
BA
66
11
C4
00
4C
40
CD
3D
A9
DA
20
0F
FF
5C
D9
4E
5A
D9
4B
F5
2D
F2
39
FF
20
72
03
D9
3A
F0
37
F4
1A
00
19
2A
59
1F
1E
E2
E3
56
06
55
70
41
D6
48
1E
F7
D0
0C
0A
FD
EA
0E
14
1D
25
F4
12
06
47
3E
6A
E0
A5
A8
0C
03
DE
53
47
BF
90
DB
46
BD
0A
C5
26
C6
00
F2
F2
2A
38
C2
92
15
E2
D4
EE
51
C9
C0
04
1D
02
56
E6
7F
38
0C
4A
23
30
C9
F5
AF
F4
28
4B
59
52
D7
3D
76
C0
3D
21
4D
EE
34
46
C8
5C
1C
D1
4E
00
38
F9
66
DD
29
0D
0B
19
18
18
3F
98
00
DD
DD
1D
35
D9
53
9A
FE
D6
45
DF
6E
D9
36
22
1D
EC
F2
CA
1C
43
36
A8
01
16
ED
BB
AB
4A
24
0F
16
AB
6A
F1
F8
D9
02
3F
31
E4
92
B6
42
0B
1B
33
C2
C7
E1
13
F3
F3
15
3D
45
CF
6D
C8
10
EB
EB
43
3C
36
7F
69
B4
59
65
46
34
D3
16
48
29
23
14
33
31
D1
97
6B
00
E7
36
85
5D
5A
E5
FE
FB
D2
A8
98
FF
57
2E
F4
F8
CC
29
18
31
2A
DE
65
D4
BF
F2
62
D8
F1
CF
05
37
FC
E7
05
07
29
AF
BF
C5
ED
83
AC
B2
38
95
8F
92
60
B7
AF
E6
D0
C6
68
C4
63
C4
CE
C3
CC
ED
CB
24
B1
A5
B1
CA
FF
96
A5
4B
25
F6
F2
43
17
A9
0C
48
30
90
93
D8
81
C3
67
DF
F6
20
4B
BD
05
C4
41
92
00
88
DC
02
39
B5
F0
A5
27
33
C5
39
13
CB
F6
BA
BF
F5
36
D8
AE
84
8B
0D
F6
4A
A1
26
01
9C
81
03
59
1A
3B
96
FB
33
C2
1D
05
26
10
C3
55
A0
BD
A6
9D
D2
E3
90
8F
5C
34
B1
02
E5
1E
3B
B6
FC
1A
5E
8A
F2
E1
DE
FA
99
0E
35
C7
1A
16
C5
A9
27
C7
46
03
05
C5
EE
EA
5E
A6
D9
42
23
0B
4C
F2
E2
D9
13
86
00
09
9E
4C
27
B1
97
F7
DC
C4
4A
B1
D7
AD
D7
CD
D0
A5
90
DB
A9
FA
A1
55
0E
93
55
CA
1E
AC
25
37
F0
E5
A3
5B
29
50
42
74
81
FE
61
26
61
43
82
EF
61
EC
FA
97
DA
AE
C9
29
EC
D0
68
BE
5A
FC
C1
03
49
F7
41
B3
05
9B
64
AE
EF
B5
F7
06
41
D6
24
39
D4
A6
18
A3
05
A9
28
EB
53
4C
C0
EB
3D
A1
28
5C
48
00
F1
63
CA
1D
CB
3F
FC
06
FA
BA
BE
79
1B
2E
15
DB
F2
5C
FF
7F
BD
32
E0
14
A7
36
CB
3D
C5
15
D0
66
41
1C
44
1F
AD
D4
24
47
1B
0D
1B
F6
B7
32
DB
49
BB
20
F6
24
1B
75
5E
4B
C6
E8
DD
97
FE
2A
68
A1
FE
52
FE
27
D3
53
B4
13
01
EE
41
4E
21
13
9A
EF
4A
08
DB
06
48
22
BC
CA
91
43
16
D1
D4
EC
3B
D8
00
E2
71
90
C6
D5
3D
0D
1D
FA
87
81
6B
31
D4
0E
61
EA
28
04
6A
F4
79
EC
58
F4
65
6D
F4
A3
C1
04
63
53
28
30
18
D4
9E
ED
32
F9
F5
ED
65
42
36
9C
35
2F
36
05
E2
F3
5E
09
4D
F8
40
89
EF
F3
51
55
CB
C3
71
64
52
AF
74
9F
16
FB
28
2A
45
D7
F8
E3
9E
6A
D9
D8
FB
F6
FA
1A
D9
BE
1D
FF
1B
9A
5C
40
F8
00
01
62
A1
CA
B6
A0
45
81
BF
34
8F
BB
C2
B2
02
A9
26
BB
20
26
49
4E
05
24
24
B3
8D
49
DC
DA
94
AC
9B
36
38
AE
F4
D3
11
B1
86
F5
AA
DE
C3
D6
B1
5D
E2
52
0D
05
0D
01
11
D0
10
3E
B8
1F
CF
85
25
87
38
9D
9B
1B
FD
0B
5C
BD
F2
D2
C9
D4
D8
AC
4C
3B
85
5F
BB
52
46
47
22
F8
B2
1C
6B
56
A0
EE
DC
F7
00
9D
C3
AB
3F
7C
C7
3C
66
9B
CC
DC
9F
DC
0E
DC
1A
11
F8
C5
A9
FD
25
CA
C1
F9
5A
4A
77
B2
CC
43
23
28
50
EC
BA
BF
73
58
C8
EB
F9
81
06
81
9F
4E
CF
1B
82
0C
81
82
37
7D
93
37
FD
ED
DA
34
EC
46
F1
E6
D1
6C
D9
92
27
33
61
B9
BB
91
BC
39
F8
96
8E
10
B4
02
FA
C4
D4
9A
46
AC
74
A6
B2
D6
D8
BA
4C
00
44
F8
E0
51
E5
18
01
0F
C2
1C
4B
45
F0
B4
D3
2F
CC
03
38
4C
E0
FB
19
F6
F1
E5
21
7F
D7
65
DC
D5
DC
E6
05
08
F1
24
09
E8
F7
4A
09
23
1F
DF
4C
09
B8
DF
BB
2A
CC
C4
C9
CE
F9
05
30
39
6F
C8
0A
45
38
F4
1A
AD
12
17
F9
C3
EC
48
1F
F4
38
20
E2
02
DE
F2
01
23
2D
EA
53
E6
08
52
CF
1D
1A
DA
CA
0E
00
1F
0B
EE
29
6B
C8
9C
40
E2
BE
0A
CC
DF
0A
8D
6F
19
CC
DB
D0
69
16
1A
35
4C
0B
73
17
FB
41
AA
C1
B5
C3
CA
07
01
C5
EA
17
17
19
E0
C4
51
A3
1B
EF
15
C7
65
27
F0
E8
E8
DF
15
E3
E6
49
6F
AF
F8
73
29
F8
E6
F7
F0
48
FF
F0
C8
6C
D2
F6
D4
06
4B
0D
ED
58
F9
C1
B7
18
7F
D2
5E
19
1E
62
F1
68
1D
B9
00
48
B6
F1
42
2A
ED
C4
F8
DA
B2
D0
16
34
BA
85
68
55
91
E4
0B
7F
FB
3B
17
E0
E2
66
1C
3A
78
98
F6
95
16
0E
22
E8
D4
57
A7
FC
57
EB
46
39
8E
47
AA
43
1D
06
3A
B0
D1
21
B1
65
AC
43
1C
70
92
C9
36
2E
9E
D2
B7
2D
26
1C
1C
03
2B
DE
B0
5F
F6
4D
37
93
54
74
C7
AC
34
66
3F
00
47
C1
3E
4B
44
B5
20
00
DC
19
AE
C2
F8
01
FD
E6
0A
A0
C9
12
70
22
11
EE
B9
0B
1A
3B
D2
E3
D6
D8
A3
DD
D7
50
97
D5
CB
5C
45
44
28
07
A5
C5
A1
1E
7F
E1
3C
5E
22
0D
06
42
C2
7D
FA
B0
FE
28
72
01
DF
DF
D5
EF
33
75
DF
E0
CD
F4
6D
0F
10
69
CD
10
B6
EB
16
34
CF
28
96
DD
48
F9
B3
E0
7F
D5
C3
B2
C5
14
C0
F8
C3
CE
0E
E6
00
12
F4
B0
9B
E2
D1
C8
85
00
02
D4
37
57
1F
D6
F2
F3
4D
F0
73
10
56
ED
61
16
D7
44
35
E6
DA
E8
22
0C
D2
8E
7A
81
C1
02
C7
CB
CD
94
CB
4E
B9
B5
24
F5
3D
22
10
B4
0C
E9
DE
6B
C5
05
DF
E4
2F
62
39
5C
1A
14
3E
9F
18
93
3B
81
07
14
B2
09
E1
09
B3
3B
2A
31
1B
A1
3F
25
CC
C6
04
F0
38
9F
44
0B
1F
00
C8
F7
AB
FD
D2
3B
38
3A
22
DA
E0
7F
C5
29
27
F1
3B
ED
0E
48
D1
1C
1A
46
F2
1C
27
5B
E0
B0
A9
06
E8
D9
DB
7A
C0
E5
4C
A2
A1
C7
D8
39
FC
1E
F5
CC
57
0E
4A
CC
C7
1A
E7
3A
38
DE
DB
18
D1
15
64
3F
E6
5F
2F
08
D6
D6
CD
7E
3F
49
F8
9B
1D
19
A7
E9
F8
2C
35
17
E8
1C
FA
13
D6
D7
42
4B
47
66
01
95
00
D5
15
DC
4D
C2
23
44
87
9C
08
BA
0E
35
0C
82
E2
98
E0
E6
AF
D1
C7
2F
28
97
F8
B6
81
2F
DB
F1
19
1F
E7
92
84
93
47
41
C3
D7
1C
04
9B
C4
5B
94
84
95
8E
94
C5
6B
FF
85
3D
EC
64
BD
E0
2C
5A
F3
64
F5
AF
D0
06
3C
E9
CC
4D
C0
43
29
2D
12
3A
C5
D9
63
02
85
86
5F
25
05
69
AE
89
51
9B
92
BA
C5
E8
00
B4
B4
90
67
FA
4F
8B
CE
EA
EE
91
9B
AD
A8
1E
37
B3
54
15
22
E5
C5
90
83
39
2C
C9
BC
B9
D0
12
A0
A6
F2
52
3E
12
D0
1A
40
41
43
C4
F4
12
F6
9A
A3
1A
22
0E
5C
C2
91
CB
D0
B5
FC
B1
2F
CF
64
50
46
98
57
FF
81
8D
D1
A8
21
28
5C
A2
A0
45
2D
30
DA
BF
5E
85
0A
D8
45
12
CD
4D
C8
3D
C2
95
14
ED
EB
00
09
FB
24
9D
2E
03
69
9C
2C
16
D3
E9
0A
35
2B
45
33
4A
C9
C5
10
5F
7F
66
55
12
36
CB
31
E6
5E
FE
E1
58
9F
14
10
DD
E5
F7
E3
CE
E4
AF
3E
AC
F7
EE
4A
8D
59
4E
42
E0
8D
F7
33
3B
E9
13
12
E5
4B
EF
65
40
8C
63
CC
85
B3
55
69
4C
CB
EA
A1
B2
3E
C9
F9
7A
29
DA
BC
5B
0D
28
E8
F6
57
4B
6F
56
F7
AB
00
00
48
8B
A2
5F
8C
89
8D
15
FF
A9
DA
91
35
A9
C3
FE
BC
CB
92
36
F5
5F
C5
02
81
91
E6
11
B5
D1
4D
A7
34
DC
50
06
A7
2A
13
27
D0
BD
90
97
DA
0A
A6
2A
18
85
AF
8C
24
1A
3A
FE
20
87
09
B8
43
40
F3
9D
5D
40
B1
81
44
93
89
3A
F0
38
42
F1
88
FF
F2
DC
58
00
5B
8F
57
D2
E4
11
11
89
C5
B2
37
E6
21
00
F5
2C
01
11
C5
78
4E
E7
3E
F6
B7
7F
FF
27
DB
FB
FC
6B
18
26
C6
0D
D7
C3
D7
06
E0
34
02
B1
25
16
E5
E0
3D
3B
05
15
D7
D8
24
CB
E1
FD
06
27
27
DD
D5
1C
C3
13
33
F9
5C
04
EF
3E
BE
DB
CA
18
64
ED
01
5E
53
1A
E6
40
CD
F9
02
26
12
D5
D4
16
DB
99
71
BD
E1
49
D1
23
CD
0A
CE
E7
32
28
AB
BA
27
14
00
