0045
003F
0043
FFC7
FFCA
FFD8
FFFC
0077
0069
004A
FFE8
0018
000D
FF95
FFFF
002D
FFE4
FFA5
FFF2
003E
FFEC
FFAE
0060
0017
0015
FFE8
FFFB
FF9E
FF83
FFCC
FFD3
FF7F
0038
FF9F
FF8D
FFF1
FFD8
FFDE
FFA1
0021
FFE3
0017
005A
0053
0073
FFA9
0017
FFB1
FF9C
FFD7
0024
005F
FFCB
000F
001B
FF99
002A
FF8A
FF7A
FFCA
0045
FFCA
0068
0052
FFF2
FFF5
001D
006B
000C
004D
FFEC
000B
0064
0034
0043
FFC8
FFEC
0047
FFE1
FFD3
0073
0016
006E
002C
0048
0028
0064
FFD1
0041
FFD6
005A
006D
004F
0031
0068
0037
001B
004E
001F
0055
FFE9
FFA1
FFF9
0040
FFB6
0063
FFDB
FFD1
0031
001A
FFF8
0052
0003
0052
0010
0069
FFDB
FFF4
0037
0014
FFD4
FFB2
002A
001E
FFD4
0059
0014
0043
0026
005E
0048
0054
003D
0059
001F
FFB7
0010
FFA9
FF8C
FFAB
FF8E
FFAA
FFD3
FFE1
FFBA
FFBC
0016
FFD6
0009
FF9D
FF83
FF9A
FFEA
000E
FFFC
FFC4
001E
FF8A
FFA7
FFB3
0019
FFC3
FFFE
FF90
FFDC
0046
FFD4
FF9B
0018
FFA6
001B
FFF0
0067
FFD9
FFF8
0009
0014
FFED
0044
0008
0036
001F
0022
001F
0056
FF90
FFE6
FFEC
FFE6
0030
000B
002B
0037
0059
0024
FFFC
0066
0033
0080
FFBC
FFC6
FF99
000A
FFB0
0016
FF97
FFEF
FFD1
FFAB
FFD4
FFE0
FFBE
FFEE
FFD8
FFFC
FF86
000C
FFD2
001E
FF99
FFDF
0058
FFDA
0059
FFEA
FFD5
0008
FFB8
FFA8
0001
FFF2
0014
FFB3
FFB8
FFAE
FF81
0009
FFA6
FFA2
FFDB
FFA0
FFF7
0041
FF85
FFDE
001A
FFFF
003E
002F
000B
FFB2
FFE2
FFC1
0022
FFBA
004B
005E
FFF7
001D
003A
FFC0
FFE3
0061
0047
007D
003B
0051
FFD0
FFCA
FFC0
FF9F
FFD7
FFAA
000F
FF9E
FFBD
FFAB
FFE8
004A
FFE3
FFB7
FFC2
FFD3
FF9F
0023
0055
FFC2
003B
0018
FFD3
0025
FFA1
FFC0
FFAC
0010
001C
FFEA
FF9E
FFBE
FFB2
001E
0005
001F
004F
0044
FFE2
005D
003D
005B
0058
005B
001D
FFC8
FFF8
006E
005B
0004
0032
FFC2
0057
