FFF1
FFF9
FFDF
001E
FFF4
000B
001C
FFEE
FFE7
FFC6
002D
0012
FFF5
000F
FFF0
FFD9
0003
001C
0012
FFC5
0022
0018
FFE9
0005
FFDD
FFFA
FFDC
FFEA
002C
000D
0010
FFD9
0019
001D
0001
FFFC
FFFF
FFCB
001D
FFE2
FFF6
FFCC
0003
0033
0010
0038
FFE9
FFED
FFF6
0012
001A
0013
FFFE
0007
001D
FFC0
FFB6
FFCB
0005
FFCE
FFE3
0012
002C
001C
FFE1
0032
003D
FFE7
FFCE
FFEE
FFCD
FFD9
001D
0027
0012
000D
FFE1
0010
0021
0000
002B
FFE3
0008
FFE9
0006
0013
0000
0001
FFF7
0003
0002
001C
0022
FFF8
FFDF
FFE7
FFEC
0019
FFE0
000F
0009
FFE3
FFFF
0007
FFD4
0005
FFDC
FFE3
FFE4
0004
FFD9
0035
FFC2
FFD2
000B
FFFD
001C
FFEC
0018
0032
FFED
FFD6
0031
001F
0007
0011
FFE9
001E
FFFB
0010
0009
FFE3
FFE7
FFE5
FFFE
000A
FFE6
FFE4
FFEA
000A
FFED
0022
FFE0
001B
000A
0010
FFDF
0000
FFE0
FFFD
0013
FFEF
FFDC
FFE7
FFDE
FFD0
FFFF
000B
002A
000B
FFEE
0008
0016
FFE8
002F
002E
000D
FFE7
FFF5
0014
0002
FFF9
001B
000E
0017
FFF9
FFE1
FFF5
002D
FFE0
FFD3
000D
001A
000C
0007
0018
FFC9
0017
0003
FFC7
FFD9
FFF0
FFF3
0038
000B
FFFA
0014
FFE5
0009
FFD9
FFE9
FFF2
001D
FFE8
0010
0011
FFF9
0013
001F
0003
FFD9
FFFD
FFF0
001B
FFD7
0009
0009
0027
0021
0003
FFD8
FFE3
FFFE
0010
FFE7
0002
FFC8
FFF8
FFE1
FFDE
FFFF
FFDA
FFEB
FFF5
001B
0022
0006
FFF8
0007
0031
0008
0007
FFD4
000F
000A
FFFF
0027
001F
FFEF
0016
001D
FFE8
FFE2
000C
FFFC
FFF5
FFEA
001F
FFF2
FFF0
0026
001A
0004
FFED
000B
0015
FFF6
FFFA
FFE1
001B
0019
0003
FFDF
FFE4
0021
FFD1
FFC5
FFF7
0007
FFFC
FFE2
FFF2
001D
0003
FFDF
001B
FFF2
FFFA
FFF4
FFD2
FFF7
FFFC
0009
001C
0028
0023
FFFA
0026
FFF4
0019
FFE7
003B
FFFB
0001
0037
FFF2
0003
FFF7
FFEE
FFF4
0030
000C
FFF2
0000
0007
FFFF
FFF4
0015
0010
001D
002A
002E
0026
FFFC
FFF4
FFFF
000B
FFF8
FFF9
001C
0016
FFFB
FFCE
FFE0
0023
000F
0027
FFF7
0002
0016
0003
FFCA
000E
FFE2
FFE4
002D
FFF4
000A
0000
FFD7
FFFC
FFEA
FFF7
0012
0002
FFF2
FFDB
FFAC
FFFB
FFFB
0002
FFEC
0004
001E
FFF5
0016
FFEA
FFF8
0023
0010
FFEE
FFE1
FFFD
FFE0
001C
0009
FFFD
FFC6
FFC7
FFE6
FFE5
0010
0027
FFE1
000A
FFFE
000E
0016
003F
0034
FFEA
0027
000F
FFEF
0027
0003
000F
FFFF
FFF7
001F
0008
FFF9
000F
FFD2
001D
FFCE
0016
001F
FFE6
0004
FFF8
0002
0024
FFEC
FFD4
FFE8
0007
FFF5
FFD7
FFE6
0007
FFD7
FFEC
FFDB
FFF3
0000
FFE6
FFDB
FFD8
0019
FFE5
0026
FFF4
0007
0011
0003
FFD0
0023
000B
0004
0025
0012
FFFA
FFE4
001B
0013
0016
0014
0012
FFF3
FFD7
0023
0002
0002
FFF5
0004
0028
FFF9
FFDE
FFCE
FFD9
FFDC
0007
0004
0017
FFAB
002A
FFFE
0007
0013
0003
FFFD
FFFB
0016
FFFE
0013
FFEA
FFF1
FFDE
FFEA
FFE9
FFDF
002D
002D
0030
002E
001A
0020
0017
FFF8
FFF1
001E
000D
0010
0023
0007
FFEF
FFFE
FFDB
FFFB
001C
FFED
0014
FFEE
0001
000B
0002
0019
0012
0009
FFCF
0004
0010
0032
0039
FFD9
0011
0008
FFD5
FFE9
FFE7
0009
0018
FFD7
0017
0020
FFEB
002B
0032
FFF7
FFE4
001B
FFF7
FFFC
FFC5
0016
001F
FFD8
FFED
FFFB
0015
0002
FFFF
FFE8
FFFF
0008
FFEA
0024
FFF0
FFE1
001C
0008
FFDF
FFF6
FFF0
FFEA
0011
0007
0033
FFE6
001A
FFF9
FFF1
0030
0021
FFFD
FFCE
FFFF
FFFB
FFFA
FFFE
0000
FFEC
0013
0007
FFFD
FFF8
FFF5
0020
000E
FFF9
FFFF
0003
FFC8
0009
FFF6
FFCD
0028
0007
003C
0019
0011
FFF8
0026
FFE2
FFFD
FFDE
001E
0004
001A
000D
0024
0000
FFE2
FFB8
FFD3
FFFB
0038
FFE5
001B
0037
FFDF
FFE9
0026
FFE6
FFD6
000C
FFE5
FFF9
0040
0022
0009
000B
000D
001A
000E
FFF1
0015
FFF9
002A
FFD3
FFEE
0000
0013
002F
FFF7
FFB7
0019
FFFE
FFDA
FFEE
0009
FFF5
FFF9
FFFC
0010
0015
FFDD
001B
FFFB
FFFB
FFED
FFF7
0007
0035
FFF8
FFF5
FFF4
FFE3
0023
0029
FFF1
FFD4
0023
003B
FFFA
FFFA
0020
FFDA
FFFD
FFFA
0001
FFEC
FFDF
FFD2
0003
0002
FFDD
0021
0005
FFF1
0018
FFF9
000E
FFD0
FFFB
FFEA
0012
FFCE
001C
000C
FFFB
0002
FFDD
FFFC
0019
001C
0015
0015
FFC8
0019
FFE8
FFF5
FFDE
FFDB
FFF3
002C
FFF7
FFEB
0018
FFE4
FFFA
003B
0021
001A
001A
FFDF
FFDC
FFF8
FFEC
FFFE
FFF3
000E
FFFD
000C
FFB5
0020
FFDD
001C
0014
FFE2
FFF9
0012
FFE9
000A
0001
0006
FFF9
FFEC
FFF0
0011
FFF6
001D
FFFD
0007
0007
FFD7
000E
FFDF
0000
FFF3
FFFF
FFCB
FFFF
FFF4
FFDE
FFC8
FFD3
0001
FFFA
0032
0014
000F
FFE7
FFE8
FFF9
FFE4
FFE1
FFF5
0022
FFE9
FFDE
FFD9
FFDD
0022
0029
0006
FFD1
FFEE
FFE9
0032
FFD6
0008
0032
FFD1
0008
FFFA
001D
0023
FFDF
FFEC
FFDD
FFF1
0009
FFFE
FFF6
0003
0015
000B
0004
0005
FFF2
0026
FFE1
FFF2
FFF3
001A
FFEE
001D
001C
FFDC
002F
000C
0042
0011
0021
0004
0027
0009
FFED
000A
001C
000B
FFDF
0036
001E
0016
FFFC
FFEF
0015
002E
FFCA
FFDE
FFEF
FFFB
0008
004A
0023
0023
FFCF
0012
FFEC
FFF9
0028
FFE2
0016
FFFA
001B
FFEE
FFE3
FFF8
FFCA
FFFE
002B
0012
000F
FFDD
FFDF
001A
0001
FFEC
FFEE
FFE8
FFFE
0023
002E
FFEC
FFFB
FFE2
001F
0015
FFE5
FFEA
001C
0023
000A
FFF6
FFF8
FFF0
FFFE
000B
0014
002B
FFF9
FFCA
FFE4
000C
0003
0016
001A
FFF6
FFEB
FFDE
FFE6
FFE4
0032
002B
0013
FFCE
0000
FFDE
FFC6
000C
FFFA
0012
0038
0035
0008
0016
FFE8
0017
FFE1
FFE6
0021
FFED
FFEC
0019
FFFE
0000
0020
FFE8
0023
FFF0
FFE7
FFE9
FFCE
0003
0000
FFE5
FFD1
0008
001E
005F
001C
FFD0
0014
002F
000E
0029
0017
0013
0016
FFD2
0008
FFE9
FFEB
0021
FFCA
0020
FFF6
FFE7
0029
000A
001B
000E
0015
0008
000D
FFE2
FFF1
0011
0016
FFEA
0002
FFD4
FFCC
0024
000E
000A
000D
FFFE
0009
0006
0036
FFE7
FFEF
0011
0019
000B
FFD0
FFF3
0001
001C
FFE9
000A
FFDD
FFEE
FFE2
0013
0017
FFFF
0031
FFEA
FFFE
FFF4
001A
FFFA
0019
001B
FFCB
FFF1
FFD8
FFF6
0004
000C
0000
FFC4
000F
0008
FFF0
0011
FFCC
FFDD
003D
0018
FFFA
FFD4
0008
FFF2
FFFB
0016
001B
0025
0012
0003
000E
0004
FFFA
FFDB
FFED
FFE4
FFEF
0002
FFE4
0018
001D
0033
002F
0017
0016
000C
0046
FFCB
000F
001A
FFFD
FFE6
FFE6
FFFB
0001
0017
FFEE
000D
0002
FFCC
FFF2
FFE3
FFC4
FFF1
0015
0014
000B
FFFB
FFCB
003C
0018
0020
0001
0009
0006
FFD2
000E
0009
FFE1
FFEA
0013
000B
0003
0005
0020
0008
FFD7
FFFC
FFEB
FFCF
FFFA
FFEF
FFCC
FFDA
002E
0007
FFFE
FFD8
0003
0028
002B
FFD3
FFD7
0052
0033
002D
FFE6
FFCB
FFF0
000E
FFE4
FFFE
0014
000C
FFF8
000F
000B
0001
FFC6
0009
FFEE
FFF3
0007
FFE7
001A
FFF0
FFDC
FFE9
000E
FFF8
FFC8
FFE1
FFDC
FFFB
000A
000D
FFEB
FFDF
0006
FFEC
FFC7
0023
000A
0000
0013
FFEB
0043
FFD0
000C
FFB8
FFED
0033
001E
001C
FFE1
001C
FFE4
0004
FFEF
FFD5
0048
FFE0
FFDF
000F
FFF9
0004
FFD8
FFED
002D
001E
FFBD
FFE4
0001
0022
FFE0
FFFE
0013
0010
FFFC
FFEA
0018
FFD6
FFF3
FFEE
0001
000D
0007
FFFC
FFD3
000B
001F
001B
FFEA
000D
FFCB
FFD5
FFEA
FFDD
FFED
000F
FFE7
FFDF
0024
FFEE
000C
FFF9
FFF2
FFFB
FFE7
FFCC
0005
FFF7
FFF8
0006
FFD9
000F
0012
0004
FFF5
000B
001A
001C
0005
FFCE
FFE3
FFE8
FFDF
FFDF
000C
FFDE
0001
0014
0012
0015
0010
FFE4
FFF9
FFEB
0007
FFD1
FFE2
FFD7
000E
0003
FFF7
001E
0018
FFFA
FFFA
FFDF
000F
FFDA
0020
FFE9
FFF2
0020
FFE2
FFE6
0017
000B
FFFD
FFFA
0019
0030
0003
FFF7
FFE0
FFFE
FFDC
000E
0017
FFFA
FFE8
FFCF
FFF4
000C
FFFD
FFDF
FFD3
FFD1
FFEA
0009
FFF9
0026
FFE9
FFDB
000C
002E
0025
FFCE
000C
0011
FFF2
FFFB
0006
0008
0008
0006
002A
0003
0006
FFF0
0007
0015
FFFF
FFF1
FFE1
0007
0023
0013
FFEE
0014
FFE3
FFD2
0008
001D
003A
0024
FFCC
0010
001D
FFF4
FFF5
000F
FFE5
000F
0030
FFD4
0011
0016
0009
0029
001C
0010
FFF8
0030
FFFE
0026
FFE6
FFE2
0023
002D
FFE8
0021
0017
FFFF
000C
FFF9
0011
FFE0
0026
FFFC
FFE5
0035
002C
0013
0012
FFDA
000F
0012
FFE8
0025
FFF5
0038
FFEF
0020
FFEF
FFFE
0024
0005
FFD4
0012
0000
FFEA
001D
FFD7
002D
FFDD
FFF2
0026
FFFC
FFE3
FFE8
0006
FFF3
0027
0027
FFFD
FFEC
FFFA
FFEB
FFF5
FFD4
FFE8
FFD6
FFD9
FFED
FFCD
0020
002B
FFF1
FFFB
FFF1
FFF0
000B
FFF8
0005
0012
FFD5
0018
FFDE
0015
FFDA
FFF7
0001
FFEA
0002
FFEA
0023
FFD5
0009
0045
0014
0024
0000
FFE2
FFD9
FFFF
0000
000E
FFE8
0003
FFEA
0014
FFD8
FFE7
000C
FFEE
0020
FFF4
0032
FFE7
FFFC
FFE9
0020
001C
001F
0041
FFE3
FFDA
FFE3
FFEC
000C
000C
0023
0023
FFE6
FFE5
0012
0024
FFFB
0041
0004
0009
FFFD
0026
FFEE
0009
0002
001F
0001
FFE4
000C
FFF3
0003
FFC9
0010
002B
0017
0015
FFFA
000B
FFE5
FFF5
0025
FFFC
FFD0
000D
FFD2
FFF6
001F
0013
FFE0
0028
FFDD
FFF8
FFC3
0022
FFDC
0011
0027
0009
FFDC
FFD6
FFDB
0003
000C
FFFA
FFE3
FFE9
FFD9
000F
0020
FFF1
0000
FFE5
0027
000D
0026
001F
0012
0021
FFEC
0003
0029
FFED
0005
FFDB
0014
FFFB
FFF2
0024
0024
FFF7
FFEC
0007
FFF1
FFD3
002B
0020
FFE6
0033
0042
0006
FFEA
0006
FFDA
FFD3
FFEA
FFE3
000C
FFF8
FFE6
0000
001E
FFF6
FFEF
0022
FFEB
FFD8
001C
FFD7
FFD6
0011
002E
001A
FFDF
FFEB
0028
FFB4
FFF5
0033
FFF3
0016
001D
0017
0007
0040
0009
FFEA
FFFF
FFFF
0016
001C
0015
FFD8
FFFD
FFED
000B
FFC8
0014
0027
FFE1
FFE7
FFE2
001F
0014
FFE7
FFFC
FFFF
000E
FFE1
FFF5
FFD5
FFF2
FFFF
0020
FFE3
FFF1
000F
FFD7
FFDE
000B
FFD1
FFEB
FFE8
FFE5
0009
0002
FFEE
FFFC
FFDA
0016
FFED
FFCD
FFDF
FFEE
0012
FFD8
0026
0025
FFE0
0001
FFA9
001A
0002
FFF3
0015
0008
FFE6
000F
FFF3
FFF4
0016
FFEF
000D
0017
FFEF
FFBB
FFD8
FFDC
0024
0004
0018
FFBB
FFFF
0020
000F
FFF1
FFF2
0018
0010
FFFE
0013
0007
FFE5
FFF7
0019
FFFF
0016
0026
FFE6
FFDC
0016
FFD1
FFFA
FFCB
0012
FFE2
0012
0019
FFE2
0009
000F
000E
000A
001A
FFD4
FFC6
0015
FFEE
002B
002E
FFEA
FFFE
FFC8
0003
FFD2
0028
0014
FFD8
0018
0008
0025
000B
FFE6
0020
FFDD
FFFA
FFE9
0005
001D
FFD7
0019
001C
0023
FFDD
002B
0016
0008
FFF5
000D
FFE2
FFF2
0018
000F
002F
FFE5
FFED
0001
FFEF
FFEE
FFEF
FFF7
002C
FFFA
0003
000D
003C
0021
FFED
FFF2
0000
0001
FFDC
FFE8
FFCB
0010
FFE0
0002
FFE0
0012
FFDF
0001
0008
001E
FFFD
0034
0022
FFD2
0020
FFC6
FFE6
FFF0
FFF6
002A
0046
FFEF
0022
0033
0008
0012
0021
002C
0007
0005
0018
FFF0
FFD6
0011
FFE7
0006
FFD8
FFF7
0030
0022
0016
0019
0000
001F
FFDF
0007
FFE2
000A
FFFE
FFEA
001B
0005
0005
0008
0037
0039
000D
FFFE
0015
000D
FFD9
000F
0001
0038
000A
FFFD
0035
FFFC
0001
FFEC
FFF3
0017
002E
0028
FFF1
FFEB
001E
000D
001D
FFE3
0008
FFE1
FFFD
FFF7
FFE7
FFFB
FFDB
FFC5
FFFC
FFD6
FFF6
003B
0009
FFFF
FFBF
0011
FFCB
000C
FFE9
FFE7
FFF6
0003
0025
0019
FFE7
FFF8
FFF4
FFF9
0022
0023
FFF9
0024
FFF4
001B
FFE0
FFF4
FFFC
000E
0023
0009
002F
FFD5
0021
0008
FFE0
FFF8
FFDF
0013
FFE4
0020
FFE3
FFF0
0020
0028
0001
0021
0003
000A
FFE8
0026
FFEC
002A
000E
002B
0009
FFE9
000C
FFFE
FFED
FFF8
0018
0006
FFD6
0015
0005
FFE9
000F
002B
001C
FFF7
FFD2
0015
FFE2
FFEF
FFFB
000E
FFD2
001B
0009
FFE1
0020
FFF4
0042
FFEC
FFD6
FFF9
FFCE
FFE3
FFEC
FFD4
0019
0004
0008
0025
FFF0
FFE5
0031
001B
FFD9
0034
FFC3
001A
FFFB
0015
FFEC
FFD1
002B
FFD3
FFE1
FFF1
FFEF
001E
FFEF
0002
001A
FFF0
FFF3
0026
0029
0016
001E
FFF4
FFDB
FFE6
FFE8
FFD5
FFFA
FFE3
FFFE
FFEB
0030
FFF6
0025
FFD6
0017
FFD6
002B
FFF2
FFF3
000C
FFDF
0025
FFF3
FFD2
0028
FFFF
0007
0019
000B
0013
FFDB
0002
000D
FFD2
0015
FFD1
0035
000B
FFFA
0000
FFDB
FFF5
FFD9
0006
0029
0000
FFF6
0013
FFE8
0009
0015
FFFC
001A
0010
FFE5
0002
FFB7
0023
FFE6
FFF8
FFE8
FFFA
000B
0008
FFED
002F
FFFF
0002
0031
000B
000A
FFCB
FFF1
0021
001C
000F
0004
0000
000F
002C
0024
FFFA
0017
000E
0008
002B
0025
0007
0014
FFF9
0025
000B
0028
000C
0016
FFFA
0002
