2A
05
26
39
E5
2C
99
06
EB
00
1D
19
0F
3D
81
5C
08
B6
0F
E4
38
AA
C7
24
FB
55
4A
BD
1A
23
05
DD
0E
3B
59
6E
CB
0F
0C
12
D4
D6
E3
04
D8
DE
FB
91
4D
CB
EF
F0
1D
41
1E
0C
F7
EB
59
BD
BC
29
FC
0A
20
DB
FB
1D
DF
DF
DC
E4
F2
B9
85
C1
17
C4
E8
23
CA
33
24
D6
E5
18
A5
AD
C6
D7
49
EA
EB
27
F4
4E
00
08
19
11
13
0A
16
00
D1
B1
4D
BE
3B
2F
06
4F
1F
03
35
62
A6
B9
35
A7
D4
24
CC
D7
8B
E2
F5
28
E1
A1
C1
E5
F8
0D
34
81
9B
FB
F6
1E
1C
F1
F7
ED
5A
CE
25
E0
15
F0
43
18
0D
12
F1
D4
C1
29
2B
AA
54
BA
BE
F3
FE
EA
09
2E
EB
D1
31
70
0A
FF
0D
0B
DB
F2
B1
04
28
D7
0C
5A
50
C0
B7
37
2B
15
3D
DD
BF
00
EC
2D
06
19
0F
A5
02
CA
21
38
EA
18
52
90
7F
EE
20
07
89
0A
24
32
2D
0F
2D
4D
D7
50
FB
23
D7
13
A6
32
A3
F9
AF
0F
3F
DB
A1
42
DB
E1
06
FC
07
B6
44
31
DF
46
DB
03
E4
1B
14
FB
11
4C
95
18
0A
06
4B
BD
FF
37
09
0F
E7
0D
0B
47
BF
1F
2E
2E
14
09
05
EF
C2
28
1C
3C
14
35
07
25
CF
F3
24
A1
28
F3
00
E6
0C
E9
CD
20
51
21
36
19
C0
23
B0
B2
36
B8
0F
15
05
20
3F
2F
21
2E
9E
D9
AF
01
44
EB
D9
12
1B
4E
4E
20
AE
22
A8
EF
36
2C
F7
EF
1F
E2
EB
17
DC
94
0C
00
D0
E4
D1
29
EF
C8
1E
9C
1F
1A
B3
35
D0
A1
BE
E6
A0
08
DF
1F
F6
04
D1
DB
F4
13
27
06
10
E4
CC
E0
0E
DC
B0
06
DF
E6
7F
CA
10
F6
22
2C
EC
00
E0
A8
16
B7
EB
A2
F8
81
EB
11
48
02
E8
F8
F9
AD
FB
EF
D9
F8
23
FD
B4
40
AD
14
2A
E4
EC
F1
15
2D
10
A8
E5
F4
0E
35
28
0E
1D
D8
5C
FE
DD
FC
F5
4A
BE
E7
1E
15
E8
C4
96
26
36
19
FF
33
38
D7
49
E5
2A
45
E4
4C
00
28
BB
E8
F7
30
47
C9
B8
D6
F7
E5
05
54
4A
16
14
12
20
EA
48
47
06
0A
13
B4
11
36
00
