FFFB
FFF0
0002
FFEF
FFF3
000F
001B
0012
000D
0014
0003
FFEF
FFFE
001C
FFF0
0003
FFE8
0005
FFF9
0008
0018
FFF6
0015
000A
0017
0006
FFF2
FFFF
FFFF
0015
0015
FFF6
0013
FFF2
0021
FFEC
0018
000C
FFEC
0009
000F
0012
FFEF
FFFA
FFE7
FFF9
FFEA
000F
000A
000A
0012
FFE9
0007
000B
0010
FFF6
0012
001D
FFE8
0019
000B
FFFD
000F
FFFB
FFF4
001B
FFFC
000F
0016
0014
0000
FFF4
000D
FFEA
0006
0018
FFF8
FFF5
FFFD
0002
FFE9
0014
0023
FFFD
0007
FFE7
0002
FFF5
001A
FFF5
000A
FFF8
FFF9
0014
FFF9
000C
