0010
0000
FFF5
0000
0018
0006
0006
0016
FFE6
FFF6
000B
FFD9
FFF2
FFE2
0013
0002
FFFD
0006
FFFB
FFED
FFF7
FFF0
0003
FFE2
FFEA
0033
0019
002E
0030
0007
FFEF
FFD7
0005
0008
001A
FFF6
001A
0007
FFEA
FFF7
FFF2
FFE2
000B
FFF6
FFE3
002B
FFFF
FFE3
000A
0002
0013
FFF9
001D
0011
0000
0009
0007
0017
FFEC
0014
001C
0009
FFF2
0014
FFEB
0002
0017
FFEF
FFED
FFF9
0020
0012
000B
0004
FFFE
FFF7
0006
FFE8
0025
000C
FFD6
0010
FFF7
FFCF
FFF1
FFF8
0014
FFED
0010
000F
FFEE
FFFA
FFF4
FFEE
FFDE
002D
0003
001F
FFF0
FFE5
FFF9
0006
0014
FFEE
0002
FFEA
000E
001C
0012
FFEE
FFF7
0018
FFFB
0009
0008
001E
001A
0007
FFDD
0009
0010
FFFC
0000
0010
0011
FFDC
0008
FFF5
FFF9
0004
000A
FFFB
0006
0001
000C
0003
FFDF
FFF0
FFE6
FFE1
FFF3
0005
FFF5
0020
FFD9
FFFE
0006
FFF6
FFFF
FFF5
0015
FFCC
FFF3
0037
FFF5
0019
0036
0007
FFE3
FFF1
FFFC
0004
FFFD
0016
002F
0017
FFE7
0001
0002
FFEC
0011
FFF7
FFFF
0008
FFF5
FFEC
001B
000B
001E
0018
001D
001E
000D
FFFB
FFF7
FFF8
0000
FFFF
0023
FFFE
FFF0
0005
0001
FFD6
0005
FFF3
FFE3
FFF7
0007
0005
0013
FFE7
FFFE
0003
0012
FFE6
FFF0
0001
0008
0008
FFD1
FFE9
0007
0000
FFE9
0000
000A
FFE4
002B
000C
001B
FFDE
0013
FFF1
001F
FFF9
FFED
0011
000D
FFEE
FFE3
0012
001B
FFFE
FFF4
FFE7
FFE2
0006
FFFF
FFDC
0012
0016
001F
0005
0019
0001
0007
0018
FFE3
FFFF
FFF0
FFFD
001F
0019
FFF6
000E
0019
0001
FFE3
0003
000A
0010
FFCF
FFEB
FFE9
002C
0023
0028
0010
002D
FFF0
0001
000D
0004
0001
0028
000E
0007
FFFD
0027
FFFE
FFFB
FFE4
0003
FFE0
FFF2
0000
000D
FFF1
000D
FFFC
001E
0013
FFE4
001E
FFCE
000E
001D
FFEF
0014
FFF4
FFEC
FFF1
FFF1
FFE2
0010
000E
FFEE
FFE8
0013
000F
0003
FFEE
0011
0006
FFFE
FFD7
FFF6
000D
FFF8
FFF6
FFFB
0006
FFFE
0015
FFF8
0020
0006
0032
FFEB
0022
FFFD
0011
FFD4
0001
FFE7
FFF1
000D
0020
FFB7
0004
FFEE
0001
0011
0014
0006
FFF3
0003
FFCF
FFF2
FFDD
0018
FFF6
0005
FFE8
FFF2
FFE3
FFFF
001C
FFF5
0000
FFF3
FFE0
000B
0004
FFFC
0017
001C
FFEC
0007
FFE2
0014
000A
000B
FFE7
FFFF
0017
FFF2
000C
FFFF
001C
FFD3
0009
FFDC
0017
001A
FFFC
000B
FFEE
002A
0011
FFFA
FFF6
000B
0008
FFD7
FFE6
FFF7
001C
001B
FFE1
0014
FFFD
0007
FFF8
FFE3
FFDF
0009
000E
001E
FFED
001D
001B
0002
FFE1
FFF2
0005
FFFB
0013
FFE9
0007
FFF8
0014
FFF8
FFEF
FFE5
0011
0017
0003
000F
FFFF
FFF5
0009
FFF0
FFF7
0002
000C
FFF2
FFF2
000C
0007
FFFA
FFFB
000C
0001
0004
0013
000D
FFFD
FFDD
FFE8
FFE5
FFFB
0007
FFFB
FFFC
0012
FFF5
FFE4
0004
0003
FFEE
FFDC
FFF7
0024
001B
FFD8
FFE0
000C
0005
0008
000A
0007
FFF4
0011
FFF6
FFF5
FFE9
0017
000F
FFFF
FFF1
0004
0003
FFEF
FFF5
FFF9
0006
0014
FFF8
FFF3
FFF5
FFF0
0027
FFFA
FFF7
FFF4
0017
001E
FFE7
0001
000B
0022
0005
FFEA
000B
FFFA
FFFA
0008
0013
FFEB
0006
FFFE
000C
FFF8
000B
FFFC
0023
001A
0010
FFEA
FFF5
0019
FFF0
FFED
FFF1
0011
0019
FFEF
000B
FFEE
0009
FFF9
FFDB
FFF4
FFF9
FFE9
000D
0005
000E
000A
000B
FFEF
FFEE
FFE7
FFF9
FFEF
FFF7
0019
FFF2
0003
0020
FFF2
FFE1
001A
0031
0003
FFE4
0014
0009
0012
0004
0005
FFF4
001B
FFF0
FFE5
0000
000D
FFEF
000A
001D
0023
FFEB
0009
0012
0013
FFF5
FFF3
FFF7
000A
0011
0001
FFFA
FFEF
FFFD
FFF8
FFF9
0001
FFDF
FFF6
0000
FFE0
FFEE
0001
FFC4
0007
FFF1
000A
FFE6
FFFB
0014
0023
0003
002F
FFEA
0001
FFEA
0009
FFE5
FFE2
0002
001C
0016
FFE0
0005
0015
FFFB
0015
FFEB
001D
FFED
0011
FFEC
000E
0016
0031
0006
0022
FFFA
FFEA
FFED
FFEC
0002
FFF0
0007
0020
0003
FFFF
0021
FFF1
FFE8
FFED
FFFA
FFEF
0017
0008
FFF7
FFFA
FFF9
0006
FFEE
000E
000B
0007
0002
0008
000C
FFF0
FFEE
0017
000D
001A
0000
000B
0000
001F
000A
0003
FFDD
0018
FFE8
0019
FFE5
0018
000F
0036
000E
FFF6
0009
FFF6
FFD3
FFE2
0003
FFF6
FFF1
FFEA
FFD8
FFFD
000E
0013
FFE7
FFFF
FFFB
0004
0000
FFE4
0015
FFE9
000B
0012
000A
0008
002E
0004
000F
0018
FFEA
0017
FFEA
0029
0005
0006
0009
0001
FFFE
FFEF
FFEB
0027
0014
FFDB
FFFB
FFF9
FFE8
FFE9
FFF7
0010
0016
000D
FFE9
0004
FFF4
FFEA
FFE3
0000
003B
FFE5
FFFC
FFEB
FFFC
FFD8
FFF0
FFF5
FFED
000F
0007
FFEE
001E
0011
FFF4
FFD3
0017
FFEF
000E
FFFC
001B
FFF0
000F
FFFB
0000
FFFB
FFED
0022
FFF0
FFF3
FFF3
FFF9
0002
0018
FFFB
FFF9
FFFC
0015
FFF3
FFF7
0006
0019
FFFD
0016
0009
0018
FFFB
FFF3
FFF9
001D
FFF4
000F
FFFA
0010
001C
FFF7
0029
0018
FFE6
FFFF
FFCA
FFD6
000A
0006
0004
0011
000C
0007
FFE6
FFF8
FFF6
FFFF
000B
000A
FFF8
FFE7
000F
0017
000A
FFFD
001C
FFFA
0009
FFF8
FFEC
0011
001F
FFDA
0015
001A
000F
0011
FFDA
FFF4
FFFA
0002
0005
0004
0003
FFF7
FFEB
FFFF
0024
0020
FFF3
FFF3
FFE6
0002
FFC5
FFE3
0003
000C
0005
FFE4
FFFF
FFF5
FFE7
FFE1
FFE1
000D
FFFD
FFE6
000F
000E
000E
0018
0019
FFEB
000A
FFFA
0000
FFE3
0004
0020
0007
001D
000B
0017
FFFA
0014
0024
0011
FFDB
0007
FFF4
FFF1
FFF2
FFE2
FFF6
000C
FFF8
FFE8
FFF9
0014
FFFC
FFFA
0017
0026
0001
FFF7
0009
0016
0016
0010
FFF3
0004
0014
000B
0011
0007
FFE6
FFE8
FFD6
FFF2
FFE2
001D
0009
FFD1
0001
0019
FFFE
0008
FFEE
0000
FFE1
FFEF
001B
FFF4
0020
0029
0014
FFEB
FFF4
FFEF
0009
FFF2
0010
0010
0008
FFE7
000C
FFF6
FFFD
000E
0007
FFF8
FFEC
FFEB
0002
0028
0000
002F
0017
FFEF
FFF8
0001
FFF3
FFFB
0014
0014
000F
0003
000D
FFF2
000F
FFF8
FFEC
FFFC
0009
FFEE
FFF1
0004
FFDA
FFE7
003C
0024
0008
0008
0015
FFEE
000C
0020
000D
FFE6
0005
000A
0004
FFE5
0009
001D
FFFB
FFDD
FFEA
FFF7
FFFC
001C
002C
0005
001A
FFF4
FFFD
0015
000D
FFFD
FFDC
0021
FFFB
0019
001B
0011
0009
FFEF
0019
FFE8
000E
0009
0017
FFDE
001B
FFFA
001D
FFFF
FFED
0016
FFE6
FFDD
FFF4
FFF1
0011
0006
0010
000F
0010
FFF4
0004
FFDD
FFD8
FFEC
0012
FFFA
0003
FFF9
0027
0000
000C
000C
0005
FFF6
003E
FFE8
001E
FFF3
0010
FFFD
FFEC
FFC7
0011
FFF3
0016
000A
0023
FFF9
FFFA
000E
FFEA
0010
0004
000E
FFEF
FFED
FFFC
000C
0014
0023
FFF9
0000
FFF9
FFEB
FFE5
FFE1
0008
0008
FFF5
FFF2
0006
FFEE
FFEA
0003
FFE7
FFD4
FFEF
0021
000A
0000
FFF3
0018
FFF2
0012
000C
002A
FFF6
0006
FFF8
0025
FFD8
FFF2
FFE0
0029
0013
FFDF
0008
0008
FFE4
FFFB
FFE7
0001
0024
0017
FFF8
FFF3
000A
FFF6
FFE4
FFE8
0030
FFF1
FFF7
FFDF
FFE8
FFEF
FFFE
0005
001A
0005
FFF9
FFEC
001E
0009
000A
FFED
0009
FFDC
001F
FFF1
0012
001A
FFFC
FFDA
FFF4
0006
FFF2
0002
FFFB
000B
FFF5
FFFA
FFE7
FFFC
FFEE
0004
FFF9
FFEF
FFE5
FFF5
FFEE
FFF7
FFF8
FFFC
000B
0008
FFEE
FFE1
FFFA
0014
FFEE
FFD2
FFE4
0002
FFF4
FFEC
0003
000E
FFE4
0011
0017
FFEE
FFDF
0010
000E
0026
0001
FFED
0026
FFF3
0013
FFED
0004
0017
0000
0007
FFF0
FFF2
000B
0000
FFE2
0008
FFFA
002A
FFE2
0003
0011
0010
FFF3
FFE3
000B
FFFD
FFF1
FFFC
0006
FFF1
0001
FFF7
0008
0005
FFF5
0007
FFDF
0029
FFFD
001F
FFE8
FFFC
FFF7
FFF3
FFE0
0014
0003
FFE0
0015
FFFE
FFD5
0004
FFEE
0011
0010
001B
FFF1
000A
FFFA
FFF8
FFF4
FFE8
002E
FFEF
0007
FFF4
FFFB
FFD7
000F
001A
FFF0
000B
000A
FFE1
FFFF
0025
0006
FFF6
0022
FFEE
000C
0012
0014
0003
000D
FFEE
FFF1
0015
000C
000E
FFFB
FFEE
FFE4
FFFE
000F
0008
FFD9
0009
FFF8
0016
FFFA
FFE8
FFFC
0007
001B
0012
0011
0015
000B
FFD3
0002
0016
0011
FFFC
0009
0010
0007
FFFB
0015
FFF0
FFEB
FFF9
FFF6
FFD8
FFFB
000E
FFF6
FFE8
0009
0008
FFF6
001E
FFFD
FFF2
FFDD
000F
0009
000D
0002
0018
FFEF
FFF0
FFE7
FFE3
001D
0006
FFF4
0003
001F
0004
0012
0000
000C
0010
FFDB
FFD1
000D
FFFA
000A
FFF5
FFF3
FFFE
0004
0000
FFEF
FFFD
0003
0002
0024
0020
002D
0010
FFF2
0005
0011
FFFA
0000
FFE6
FFF8
FFE7
0002
FFF7
0010
0006
FFE6
FFF3
000D
FFD6
FFEB
0002
002E
000A
0016
FFF0
FFEC
FFFC
FFFE
001D
FFED
001F
0009
FFFF
000C
0010
FFE3
FFD0
000B
FFFE
0017
FFEB
000C
0005
0012
0005
0027
0015
FFE9
001C
FFE4
FFD2
FFFE
FFFF
0015
000E
0010
FFF9
0011
FFF3
0026
FFF4
FFDD
0001
001B
0005
FFF8
FFE4
0018
FFFB
0030
0015
000D
FFF8
002A
FFE7
FFF8
FFFF
001D
000C
000A
FFEA
0016
FFF7
0007
FFFD
FFFE
FFDC
000F
0011
FFD8
002F
0022
FFF2
FFED
FFE5
000F
000F
002C
0006
FFED
FFF5
0005
000D
FFE4
FFF7
002B
FFEE
FFF0
FFF1
0013
000F
FFF8
001E
FFF5
FFE3
FFF8
000E
FFF5
0014
0005
0003
FFFA
0004
000C
FFEB
FFF6
FFEF
0027
001B
FFF9
0009
FFFD
FFFB
0009
0020
0015
0006
0019
0002
0003
0019
001B
FFFB
FFFA
FFC6
FFF2
FFFB
000B
000F
0017
FFD7
FFF7
FFFF
FFE2
000D
FFE7
0021
FFE7
FFF8
FFFC
FFEA
001C
0014
FFF0
FFDA
FFFE
FFFD
FFFB
FFF0
0000
FFF3
0002
FFED
FFEA
FFFD
0004
0001
0000
FFBD
FFF0
FFFE
FFF7
002A
002A
FFFE
0016
FFD6
0014
FFFC
FFF6
FFC6
0006
FFFD
FFDF
FFFC
000B
000D
0026
0007
0007
0005
000A
FFE7
FFE9
000B
FFFC
FFF7
001F
FFE9
001B
001D
000E
000E
0003
FFFB
0018
000E
FFF8
0048
0016
000F
FFEE
FFD5
0013
0007
0019
FFF9
000A
0011
FFFE
0028
FFE6
FFE8
FFF9
FFE7
FFFA
0007
FFFA
0011
000F
0000
FFFB
FFEF
FFF3
000B
0014
000E
000A
FFFD
FFFC
FFDA
0021
0017
FFEE
FFF1
FFE9
001E
FFF1
FFD2
FFEF
0018
0004
FFD7
0021
FFF6
FFFB
0004
FFCF
FFEB
FFEF
0000
0005
0004
0006
0009
0002
FFEA
FFF8
FFFE
FFF7
FFEA
FFF1
001D
FFF6
FFFF
000C
FFDC
FFF5
0006
002A
FFF5
FFED
0011
0005
001B
FFF1
0003
0011
0018
FFD2
FFF5
000A
FFFA
FFFB
0003
001E
0000
0004
001B
0005
000B
FFE8
FFFC
FFF5
FFF3
000D
FFE1
FFDF
0007
001C
000B
0025
0006
0015
FFE7
0007
000A
FFF4
FFE0
001E
000F
0016
FFE6
0013
0001
FFFD
FFF7
FFF0
FFE2
FFF2
000B
000C
0012
0013
FFFE
0015
001C
0005
001C
FFEE
0004
0025
0001
000F
0009
FFF2
FFFA
FFFE
FFF8
0002
000E
000D
FFEE
0022
0002
001C
0004
0003
000E
FFE1
FFE8
000B
FFFA
000D
FFEE
FFE3
FFFC
FFF3
FFFF
FFFA
FFF1
FFEC
000F
FFFE
0000
0034
FFFF
FFEC
FFE3
FFEC
0015
0006
FFE2
FFEE
0010
0006
FFF3
FFFE
0010
FFEF
0011
FFF0
FFE2
FFE9
0026
0016
001C
0008
0000
FFED
FFEE
FFFC
FFED
FFE9
0023
0009
FFF7
FFFC
FFE3
0001
FFF1
0005
000D
001B
001B
FFF3
FFDE
000C
0023
0008
0002
0004
0013
FFF3
FFEE
0019
FFEB
0003
0013
FFFF
FFF6
0008
0010
0027
0012
FFFD
FFE2
FFE6
000F
FFE5
FFEB
FFF1
0018
0002
0009
FFEE
001E
FFF6
000B
FFF4
0004
0006
001A
FFFD
FFF5
001B
0010
FFFD
000D
0014
FFEA
FFF5
0001
FFED
0015
000D
FFE8
FFEA
FFE8
FFDD
0016
0013
001B
FFFF
001C
0016
0002
FFFB
0027
000E
001E
FFDC
000E
0006
FFEA
FFFD
0019
001F
0005
FFE9
0021
002E
FFF2
FFF2
000A
FFF8
FFF0
0003
0001
FFFE
0001
FFF7
FFDE
000F
0016
FFF5
FFE5
FFFD
001C
FFE2
FFDA
FFE9
0006
FFFC
FFEB
001C
000E
FFDB
0022
0008
0001
FFDD
0024
001C
0022
FFEA
FFE3
FFFF
FFE7
0013
FFE6
000D
000F
FFFA
FFEE
FFFA
FFFC
0004
000E
FFE5
FFFD
0006
002D
FFE9
000A
0004
0001
FFEC
FFEF
FFEC
FFFA
FFE6
000E
000C
FFF1
0006
0001
0002
000F
FFF6
0011
0010
000D
000C
FFF7
FFF0
FFF8
FFDF
FFE3
FFF9
0004
0009
FFDE
FFF0
0011
0014
FFF2
FFDF
FFF5
FFEF
FFFE
0033
0003
0023
0019
001B
FFD5
FFF5
FFFB
FFFD
000B
0011
0029
0017
FFEE
0009
FFE8
0000
0024
FFFA
FFED
FFE8
FFE8
FFFE
0022
FFDF
0003
001B
000D
0003
0015
0003
FFFD
FFEF
0009
0009
0006
FFF7
FFF9
FFFA
0006
000C
0023
FFFE
FFE7
FFEE
0029
0002
0011
000A
0017
0003
0007
FFCC
001E
FFFF
FFFC
0006
0007
FFD1
FFE2
FFE5
001C
FFFC
001B
FFE6
FFF3
FFF7
FFF0
0019
0004
002D
0004
0014
FFF7
FFF2
FFF3
001E
0020
FFFC
FFF2
FFEB
FFF9
0013
001F
0003
FFFA
0022
FFEA
0008
FFE2
0005
000E
0008
FFDC
FFFB
001C
FFF4
FFF9
FFF9
FFE2
FFD0
000E
0012
0013
0004
FFEA
FFF6
0014
FFF1
FFF5
0013
FFF3
FFF1
FFF1
0012
FFEA
FFF4
FFEE
000F
FFED
0003
0015
000C
FFF8
FFF8
0004
FFFC
FFFA
001D
002F
FFEE
0026
000D
FFFB
FFC6
0014
0004
0001
0003
FFF4
0009
0016
0008
FFF5
0022
FFFD
FFF7
FFF2
FFFC
000D
FFFB
0003
FFF0
FFFB
FFEB
FFE3
001D
FFEE
FFFF
0019
000A
0008
0003
FFE4
FFF9
FFEF
FFEC
FFE7
0015
FFE4
0023
0012
0011
FFDE
FFF3
FFEF
0011
0010
0006
FFE0
0016
0000
0020
0005
0023
0022
0039
000C
FFED
FFF9
0005
FFF7
0019
FFED
0002
0002
0012
FFF4
FFF1
FFFE
0023
001F
FFF9
FFFE
0007
FFF0
FFE0
FFE7
002A
0006
0007
FFF8
0009
000A
001A
000D
0003
001D
FFF9
FFD6
0006
FFFC
0019
0007
0000
0027
0018
FFFF
FFFC
FFFA
FFF5
FFFC
FFEA
000B
0011
0023
FFF0
FFEE
FFFE
0021
FFE8
000A
0016
FFEC
FFF7
FFF1
000C
FFED
FFEA
0017
0028
0006
FFF8
FFFE
0004
FFF5
FFF8
0014
FFE2
0019
FFEF
0014
FFE8
000F
000F
000F
FFF7
FFE2
FFDA
0008
0000
FFF2
0008
0019
0000
0004
000B
0027
0017
000B
000D
FFF4
FFDF
FFF5
0013
FFDC
0007
0008
0007
000F
FFFD
FFFE
0005
FFEE
FFD6
FFF9
0011
000B
FFFB
000D
FFD9
0015
000B
0027
FFFB
0008
001E
FFFE
FFF5
FFF1
000D
FFEE
FFF8
0006
FFE7
FFE0
0005
0006
000C
000A
FFDD
FFFE
FFD7
FFF8
0015
FFFA
0021
FFFC
002A
FFFD
FFF7
FFFD
0006
0006
FFD3
FFFD
FFFB
FFF4
0001
001A
FFF8
FFFA
0038
FFE6
000F
FFEE
FFF7
FFFD
FFFB
FFF5
0016
001A
FFF6
001C
FFED
FFDB
0000
0007
000F
FFEF
0000
000D
0002
0020
002C
0002
FFE0
FFEF
0017
FFFB
FFF2
0008
FFEE
001D
FFE7
FFE9
0009
FFFD
001D
FFF7
FFE1
0028
FFF6
FFF5
0001
000A
FFF9
FFFA
FFF2
0016
FFEF
FFE8
0014
FFF6
0009
002B
001E
FFE2
FFF0
0009
FFDA
FFD7
0016
FFF8
0002
0003
FFF1
0002
0002
000C
FFF7
0017
0013
0004
FFD6
FFCE
001B
0000
FFFE
FFF5
FFFD
000C
0000
0011
0014
001B
0001
000B
000A
000E
0011
FFF0
FFF3
000B
FFD6
FFF2
FFE4
0020
0026
FFDA
FFEA
0000
FFF3
FFF5
FFDA
FFEC
FFF2
FFE2
0019
0001
FFFD
0033
FFFB
FFF5
0002
FFF8
FFFF
FFF4
0011
0014
0001
FFEB
FFF9
FFFE
FFDE
000A
0012
0002
FFF2
FFEC
0003
0028
FFE8
0018
FFF4
FFFF
0002
FFF6
FFF3
FFF1
0020
0011
0018
0011
0009
FFF0
0015
001A
001E
FFD9
FFF2
000C
FFF3
000D
0008
FFE7
001C
0014
FFFB
000C
0005
0016
FFE8
FFEA
FFE3
0006
FFFE
FFF9
FFF5
FFFE
000B
000F
FFF8
FFD2
FFF1
FFFF
FFFD
000F
001A
FFE8
0003
FFF2
0002
0003
FFEF
000C
FFFA
0004
FFE3
FFE6
0023
0006
FFDC
FFDB
001B
FFE1
0013
000C
0003
0008
FFF3
0015
0006
FFEC
0006
0008
0013
FFEB
FFE4
000B
FFFB
0008
000C
FFF4
0002
0003
FFF5
FFF7
0017
0016
FFD2
FFED
0008
FFF8
000C
FFE2
000A
FFF5
FFE6
0017
0013
FFFC
FFFA
FFE0
FFE0
0003
000B
0006
FFEA
0014
001C
0003
FFDA
0002
0020
0005
0012
0010
FFE0
FFEA
FFFD
FFEA
FFFE
FFF3
FFFF
FFF8
FFFD
002F
0016
0017
0003
000C
FFD7
FFFD
0007
FFEF
FFF7
FFFF
000A
0029
0013
000E
FFFF
FFE6
FFDA
0005
0010
0004
0000
FFFC
FFE3
FFE7
FFF9
002E
FFF6
FFF9
001B
FFF0
0011
FFD7
FFF9
0000
0006
001D
0021
0006
0002
0015
0003
FFFF
FFEC
000C
0001
FFFF
0008
FFFB
FFE9
0022
0007
0003
0022
FFF0
FFEB
0007
FFE0
0005
0027
0004
FFF8
FFFD
FFF4
0011
001D
FFFE
0017
0009
FFDF
FFF4
0003
FFDB
000D
0010
0006
0006
0003
FFDC
FFFD
FFFC
FFE8
000B
0000
001A
FFEF
0007
FFF6
FFF6
FFE7
FFFD
001E
0006
003B
0000
FFF9
FFEC
FFFA
0001
FFF6
FFDD
FFD8
0004
0017
FFE1
FFDB
0005
000A
001A
0015
FFD4
FFDC
0029
000D
0005
0008
FFF6
0003
0001
0009
FFEA
FFE2
000E
0018
FFF1
0006
0006
000A
FFFD
FFFC
FFEA
FFF7
0002
FFEC
FFE5
FFFC
0010
FFF7
0006
0000
0016
FFF9
0008
001C
FFF9
FFFD
000D
0004
FFED
FFEE
0004
FFE5
FFF0
000B
FFED
FFD1
0004
FFEB
FFD1
FFDC
0003
0008
FFDF
FFF3
FFFE
FFFE
0015
FFEA
FFF8
FFDD
000B
0017
001A
FFFD
0020
FFFE
000C
0000
0018
000F
FFFE
0015
0001
0018
FFF6
0002
FFEC
FFE3
000A
FFFF
000A
000A
000D
0006
0026
0009
FFEF
FFE6
FFFF
001A
FFEB
FFEF
FFFB
0014
0013
0018
001E
0016
FFEF
FFF1
FFFC
FFEE
0009
0003
0014
FFEE
FFF1
FFFD
0029
FFEF
FFFD
0024
0014
FFF6
FFE2
FFFE
0005
0008
FFFC
FFFF
000E
FFFD
FFF9
FFD9
FFF1
FFF7
003B
FFD6
0026
FFE8
FFF0
FFDC
FFF7
FFE8
0007
000F
0021
FFFE
FFEF
000F
FFFD
0015
000A
FFDC
0018
FFF4
0026
FFEE
0021
FFF9
FFF7
FFE2
FFFD
0009
0012
0011
0008
FFEF
001D
0008
FFFC
FFFD
FFE0
0005
FFE6
FFD1
002E
FFF3
0007
0012
FFEF
FFFB
0004
FFFF
FFFD
0032
0013
0003
FFFC
FFF5
0026
FFD3
FFF3
FFCC
FFF3
0023
FFFA
FFF5
FFF2
FFDC
FFF0
0029
FFFF
FFD6
000F
0008
001F
FFF5
FFD9
FFED
FFFD
000B
FFF8
000E
001D
FFF9
0007
0006
0008
FFFC
FFF5
FFF1
FFD9
0021
FFFA
FFEE
0004
FFE9
0000
FFF0
FFEA
FFF5
FFFC
000A
FFEF
0009
FFF2
000B
000A
0022
0019
000D
FFFE
FFE8
0012
FFFE
FFFB
FFF8
0000
FFFB
FFFC
0005
FFFB
FFFF
FFDF
0000
000D
FFC4
FFF7
FFEA
FFFA
0007
0008
000A
0020
FFD0
FFF5
0009
FFDF
FFFC
0019
0009
000B
0011
FFDD
FFEC
0025
FFF5
FFE8
FFF2
FFDC
0003
0016
FFFB
0019
FFF7
0005
0015
FFEA
000E
FFF6
000A
FFF6
FFFF
002A
0009
FFFF
000F
000A
FFDB
000F
FFF8
FFF6
FFEC
FFF7
FFF5
0013
0016
FFF7
FFFE
FFFC
FFEA
FFEF
0003
000F
FFE9
FFEB
FFDC
FFF8
0011
FFFA
FFD2
000D
0002
0002
FFE8
FFEC
0009
002E
0008
0017
FFCB
0022
FFFF
0007
FFED
0002
FFFD
0023
FFEC
FFE2
0006
0018
FFFD
FFE3
FFEE
FFF0
0000
0017
FFD7
FFF3
000E
0007
FFE0
0018
FFF1
0009
0008
0007
FFFD
FFEE
000A
0028
0024
FFF8
0004
0016
0011
FFF5
0013
FFFB
FFF2
FFD7
FFE0
0018
FFEF
000D
0023
FFE5
0012
FFD6
0001
000B
0015
0011
002F
FFFA
0003
FFF2
FFFB
0007
FFF3
0002
FFFF
FFFF
001B
FFF4
FFE2
001D
0010
000D
0017
0007
FFF9
FFFE
FFF2
FFFD
002F
0012
0000
FFFB
FFFA
0026
0025
0004
0002
FFEF
FFE2
FFF9
0006
FFED
0019
0002
0008
0010
FFF6
FFCE
FFF5
FFF8
FFEC
0024
0029
FFFE
0007
FFEF
0033
FFE3
FFDD
FFD4
001B
FFF4
0002
0001
0020
0022
0016
0004
0020
0014
0013
000F
0001
FFFE
000A
FFE9
0015
FFE3
000C
000E
0011
0009
0014
FFF7
FFFE
0006
FFF5
001D
000E
0002
FFE4
FFF7
000E
0018
0019
0010
0004
0009
FFF9
000D
FFDB
FFFD
0004
FFE2
FFF1
0002
FFF5
0006
FFEB
0015
FFFD
FFED
FFF1
0009
0008
000F
FFF2
FFEB
0003
0022
FFF4
FFF2
0001
0026
0004
0017
0001
FFFF
0014
FFE7
000C
0002
FFFA
001D
000B
0015
FFF9
0001
FFFE
0007
0007
0009
FFDB
0009
0004
FFFF
FFD0
0016
FFFB
001C
0020
FFE7
FFDB
0003
FFE7
FFF9
0013
FFF7
FFE8
FFF3
FFFA
0015
0017
0019
0007
0012
FFD8
FFEA
0008
FFF1
001E
FFF9
0007
0023
FFF2
FFF0
FFF4
0000
FFE2
000D
FFF8
FFF0
0001
000B
FFFB
FFE9
FFEA
FFDF
000E
0002
0028
FFF2
0015
0003
000B
0023
FFFC
000D
0035
FFEB
0025
0010
0020
0006
FFFD
FFCC
FFFA
FFDC
FFFF
0003
001B
FFE9
FFF9
0002
FFFB
001F
FFF8
0017
FFE7
0008
0014
0014
0021
000B
0002
FFEC
FFFD
FFDA
FFFD
FFC6
0015
FFF7
0028
0008
FFFF
FFFE
0000
002A
FFE6
FFEB
FFFB
0000
0012
0009
FFF0
0019
0001
FFE9
001C
FFD9
FFDF
FFF5
000F
0019
000B
0002
000B
FFFD
0000
0000
001A
FFFA
0034
0008
0003
FFDE
0003
000D
0000
FFED
0015
FFD0
0000
0022
0010
FFE4
001E
0016
FFFE
FFF2
FFED
FFF3
FFE9
000B
0012
FFE2
0007
0003
FFE2
0000
0015
FFE2
000D
FFF4
FFF5
FFF2
0000
000C
000C
FFF7
000E
0022
FFF1
FFCA
FFEC
000A
FFF8
000E
0027
000C
FFF9
FFEF
002C
FFFA
0014
FFFD
FFF2
FFEF
FFEC
FFF9
FFDA
001C
FFF8
FFF8
FFFC
001B
000D
0006
FFED
FFDE
FFE0
FFF9
0019
FFE8
0022
0029
0021
FFDB
FFF2
0008
FFFA
0002
0001
0003
0002
FFFF
FFF0
FFEF
FFE8
0007
000D
0001
FFF1
0010
0009
0027
FFE7
0016
0009
FFFE
FFE3
FFFF
FFE8
0018
000A
0003
0023
0015
0000
000B
000D
FFFD
0005
0006
0009
0019
FFF1
FFFB
FFF7
001D
FFD5
001E
FFFC
FFED
FFEE
FFF7
FFEA
FFEE
0008
0028
FFFF
0016
FFF2
FFFA
0028
000F
FFE5
0016
FFE3
FFF6
FFFD
FFE5
0012
0013
000D
FFF9
FFFD
FFEC
FFF3
0002
FFE4
FFE8
0011
0013
0013
0011
FFF1
FFF5
0017
FFFF
002B
0000
0007
FFF7
0005
FFDB
FFF9
000E
0010
000F
000F
FFF0
FFF4
0004
FFE7
FFFB
000A
000A
FFFD
0002
FFD9
FFFA
FFF8
001F
FFE5
0015
0003
FFF7
0001
FFF5
FFF1
FFF8
FFF6
0015
0013
0014
0008
0015
0024
0016
FFE3
0002
FFEB
FFF0
0008
FFF0
0004
0017
FFFA
000D
0001
FFE3
FFE6
0025
FFF3
FFF0
000A
FFED
FFFF
0011
FFF6
FFF6
001D
0003
0013
FFF8
0000
0004
000E
FFE0
FFFF
001A
0012
000C
0001
FFEF
FFF2
0007
FFF3
0004
0018
0000
FFF3
FFF7
FFD6
000C
FFEE
001A
FFDA
0025
FFFD
FFDB
0015
0012
FFF6
FFF4
000F
0002
FFE9
0016
FFF7
000A
0020
0006
FFFB
001A
FFDC
0015
000F
FFD8
0016
0014
0006
0015
FFE0
FFF9
FFF1
FFF6
0000
FFFB
0018
FFFD
0013
FFF4
000A
000A
0022
FFF6
000B
FFF8
0012
0006
000B
FFE7
FFE8
0022
000F
FFFD
001C
0007
FFFD
000F
000A
0009
0010
0007
FFFB
FFFA
0006
FFEE
FFE1
FFF5
0021
000D
0006
0007
001A
FFF2
FFFA
002C
0002
FFFD
002F
0001
0029
0001
0010
FFF0
FFF0
FFC9
FFFF
FFF1
0011
0005
0003
FFE2
FFEB
FFE9
FFFD
001B
FFF3
0021
FFF4
FFFC
FFFC
0005
0027
0019
FFE7
FFE3
000B
FFCD
FFF4
FFFE
000B
0007
FFF7
FFF4
0003
FFE8
0017
FFFB
FFEF
FFDA
FFF0
0003
000F
0016
0023
0009
FFF8
0004
002A
0009
0005
FFF7
FFF0
FFE2
FFD4
FFFD
FFF5
0016
0005
FFD5
FFEC
001E
000E
000C
FFE7
FFEA
FFE0
FFF9
FFFF
FFFD
0011
0015
000D
FFDF
0007
000C
0012
FFEF
0001
001F
0023
FFFB
FFFF
000D
FFE2
000B
0018
0006
0013
0008
0004
0009
FFE1
0028
0020
FFFF
FFEA
FFFF
FFFE
0009
000F
0007
0003
001E
0008
FFFA
0005
FFF6
FFF4
0008
FFF8
FFF4
FFEF
FFFE
FFF8
0003
FFFB
FFF5
000E
0016
FFFC
FFF5
FFF7
0009
FFFD
FFDB
FFE3
FFF9
0009
FFFE
FFF5
FFFC
FFEB
0022
0014
FFDF
FFE0
0015
0014
FFFB
0000
FFFD
0005
FFDD
0005
FFF7
000A
0013
000A
FFE1
FFFB
000B
0027
FFF1
FFEE
FFF4
FFFA
001F
FFE8
FFF7
000E
001C
000A
FFE6
0013
000D
FFF4
0003
000C
FFED
FFE9
0004
FFE3
FFF3
0004
000A
0016
FFF5
FFDC
FFFF
FFF1
FFFC
FFF4
0010
0007
FFF0
FFD7
0028
0008
0005
FFF9
0011
0007
FFFC
FFFC
FFF3
FFF7
0003
FFF8
0003
000B
001A
FFEE
FFF1
FFF7
000C
FFF2
0032
FFE3
FFEC
000E
0003
FFE4
FFE6
FFF1
FFF5
0015
0001
FFEF
FFE8
0009
000D
FFDB
0028
0003
001B
FFF1
FFF6
000C
FFD7
FFF4
0020
0015
0000
0011
FFF7
FFF4
000C
0006
0006
FFFD
0003
FFEE
000B
0008
FFF9
0035
0015
FFF2
FFE0
0003
001C
FFF9
FFFC
FFD3
FFF8
FFF8
FFF9
FFF4
0001
FFE6
000E
000B
FFDA
FFD2
0028
000F
0003
0011
FFF5
0005
FFF3
0006
FFD4
FFDA
0018
000D
FFF1
0005
0001
0023
FFF8
FFE5
FFFE
0009
0006
FFED
FFEF
0001
0014
000E
0002
FFF5
0009
FFEB
FFEA
001C
FFFA
0001
0011
000B
FFF0
FFF7
0004
FFF0
FFF3
FFEA
000D
FFF1
FFF4
000D
FFE7
0005
FFD8
0016
FFDD
FFF2
001B
0017
0019
0011
0001
FFDD
0005
000D
0016
FFE7
001F
001A
FFF5
FFE1
0027
0007
0019
FFFF
000F
000A
0000
FFF8
FFDB
0007
FFEA
0011
FFEA
000E
FFF9
0026
000E
0002
FFF8
FFFE
FFE9
0018
0004
000A
FFFF
FFFA
0019
FFFB
FFEE
FFFA
FFF3
FFE2
FFF0
FFF1
0008
FFF5
0003
000E
0016
0005
FFF9
FFFD
0016
FFF8
FFFF
FFDA
001C
0002
FFE1
0006
0015
FFDB
FFD3
FFDE
FFF8
FFF0
000D
FFE4
FFF5
FFED
FFE4
0018
000D
0032
FFE3
0001
FFE4
FFED
000A
001B
FFF4
FFF7
001A
FFFF
000C
000A
0001
0002
FFED
0025
FFE5
FFF8
FFE1
0029
0000
FFF5
FFE5
FFF9
000A
FFF3
0006
000B
FFFD
FFE9
0017
0001
FFF5
FFF4
FFF8
0003
000A
000E
FFF2
FFF6
0014
0005
0009
001B
001D
0001
FFEC
FFE3
0029
0011
FFE3
FFEF
0019
000C
0013
0005
0006
FFEC
001F
FFF4
FFF7
FFF5
0018
0020
FFFF
FFEF
0006
FFF8
FFF1
FFFA
0017
0004
FFFD
0002
FFF4
FFEB
FFF4
FFF5
0011
FFD5
FFF3
FFF2
001A
FFE6
FFFA
000D
001F
FFF8
FFFE
0003
FFE2
FFEF
000A
0012
0005
001D
0017
000D
FFF3
0018
FFE7
0023
000B
FFEE
FFE7
0007
FFFA
FFEE
FFEE
FFFE
FFF9
0007
0000
0000
0011
000D
FFEA
FFFC
FFFD
FFEA
000E
001D
FFED
000E
001B
001F
FFFC
FFEC
FFE2
0012
0003
0007
0025
FFFF
000F
FFE7
FFF2
000D
0012
001E
0011
FFF0
FFFF
FFE2
0000
FFF7
0019
0020
FFFC
0008
000C
FFF0
0014
FFF2
0001
FFF3
000D
0003
0024
0004
FFDC
0008
0020
FFF2
FFDF
FFFB
0010
0003
FFF6
FFFD
001A
FFD8
FFFC
FFC6
000D
0000
FFDF
000C
FFFB
FFCE
FFE8
FFF9
FFEC
0006
001D
0006
FFEB
FFF5
FFE0
000B
FFE7
0046
0008
0003
FFEC
FFED
FFE6
FFFF
001A
FFF8
0004
FFF0
0000
0019
0020
FFE0
FFFD
001A
FFFC
FFF1
FFDD
0005
000B
0013
FFE0
FFE2
0007
0013
0009
FFEE
0013
FFF0
FFF4
FFF1
FFFA
000E
0000
FFFF
000B
FFE3
FFF5
0004
0012
FFDF
0009
0010
FFDC
000B
FFEB
FFFF
FFEA
FFF7
000C
FFFC
0004
FFF6
0019
000C
FFFA
0027
001F
0004
001F
001D
FFE8
FFDE
001A
0007
0013
0019
0005
FFEF
FFF2
FFF1
FFF1
000C
FFE8
0010
FFE6
0014
FFFA
0025
000D
0019
FFEF
FFFD
FFF0
0019
0006
0005
0017
001E
000A
0015
001D
0001
FFE9
FFE3
001B
0020
FFF0
FFFB
FFF9
FFF0
FFFC
FFFC
FFD9
002B
0015
FFEB
FFFB
FFF2
000B
000F
FFF7
FFF3
001E
FFF7
FFE5
0000
0003
0019
000F
FFED
FFC7
000B
FFE8
FFF0
0009
002C
FFD6
0004
FFF9
FFF2
0000
FFE1
0024
FFDF
0016
0002
0007
001E
0016
FFE3
FFEE
0001
FFD8
0006
FFE7
FFF5
000E
0016
FFF1
FFEC
FFF7
FFDE
0017
FFFD
FFEE
FFF3
0010
FFF6
000A
FFF6
0003
FFFD
FFF9
0009
0000
000B
FFFD
FFFE
FFFD
FFED
000E
FFEB
000E
FFDF
0003
0005
FFF7
FFE7
0020
0017
0010
FFDB
FFF3
0021
0012
0014
0005
FFD2
0019
FFF5
0009
FFEB
FFFB
0007
0004
0014
FFEF
FFF3
FFEE
FFE6
0015
FFFB
000D
000B
0005
FFD5
0007
0017
000F
FFF6
0005
000B
FFED
FFDE
FFFC
0007
FFD1
000B
000E
001C
FFEE
001D
0013
FFF9
0007
FFF8
001B
FFF0
FFF4
FFF5
000A
FFF7
0008
0018
0009
0012
FFE0
FFF0
FFF8
000D
0019
0023
0014
0009
0015
002E
0010
FFD6
001C
FFDB
FFEF
0005
0015
FFEF
000C
0019
000C
FFFC
FFE2
FFFC
0015
0002
FFFB
0013
FFE4
000A
0005
FFF0
001B
0006
FFF8
000B
FFF0
FFDB
0006
0008
FFF3
0018
0020
FFFC
0016
FFE1
FFEE
FFF7
FFFE
FFFD
FFF0
FFE0
FFF4
FFF4
FFE7
FFF7
000A
0003
FFF1
FFF1
FFE4
0002
0013
0002
FFDB
FFFF
0010
FFF5
FFCF
FFD4
000F
0008
0009
FFE1
0007
0002
002F
0001
0007
FFD7
0021
0013
0010
FFEC
FFF9
FFF9
FFF7
FFFF
FFF9
0009
0016
FFF3
FFFC
FFEC
FFEE
001B
0000
FFE0
FFFD
0006
0014
FFF5
0013
0019
0013
FFF4
FFEC
0013
FFEA
FFEE
0011
0006
FFF0
FFFD
001A
0006
0007
FFF0
FFE6
002A
001E
0007
FFE8
0005
0016
0010
0007
FFC6
0024
000A
FFEA
0003
0019
FFE8
FFF2
FFF8
001B
FFF6
001A
0015
FFE2
0005
0020
002B
0006
0010
FFF4
0002
FFF5
0000
FFFD
0024
0016
FFE2
FFFE
FFEE
FFF8
0031
FFF1
FFEF
FFEA
002D
FFFC
0010
0001
FFF7
FFF1
FFEA
FFEE
FFDD
FFF6
FFF0
001A
0002
FFF1
FFEA
FFF3
0024
000D
0020
FFFE
0009
FFE9
0023
0000
0005
FFF8
FFEC
FFED
FFC7
FFF0
FFEE
0015
0023
FFEA
0005
0000
0005
FFEC
0008
FFFA
FFED
000F
000A
FFFA
0029
0035
0012
FFE8
FFE8
000A
FFF4
0001
FFF4
0027
FFFE
000D
000D
FFFB
0008
0004
000D
FFF9
FFF6
FFFF
000B
000C
FFEE
0012
0024
0007
FFF3
FFF3
FFF3
0005
001A
FFF5
FFFE
0001
000F
0012
0006
FFFA
FFEB
000C
0000
000E
FFEF
FFFE
000C
FFF2
0005
0017
0031
0007
FFE0
000C
0017
001D
FFF3
FFE9
FFF4
FFF0
0015
FFFD
FFF0
0008
FFEA
FFFD
0017
FFF2
FFED
001D
000B
FFF1
0019
FFF7
FFF2
FFE9
0017
0004
FFF2
0013
0009
FFFC
000E
0001
FFFF
FFEE
0016
FFF8
0015
FFFD
FFE6
FFE9
0005
0014
0005
0009
0003
001A
FFF6
FFD4
000C
FFF3
0011
0010
000F
FFF3
0011
000F
FFFC
FFDE
FFF6
0018
FFF1
000D
000B
FFF9
FFFC
FFEF
0001
0008
000C
FFF9
001A
001A
FFEF
FFE8
000B
FFE9
0006
0017
FFE1
0030
000F
FFF3
FFE3
0014
0018
0018
FFF7
FFFF
FFEC
FFFD
0006
FFD7
0013
000D
0003
FFFC
0026
000A
001E
0019
FFE1
0003
FFE5
FFE4
000D
FFF2
001B
0006
000F
0009
FFF2
FFF5
0004
FFF3
FFF6
0007
000A
FFE2
0014
0015
FFEF
FFE1
FFED
FFFB
FFF8
000A
0016
FFE2
0005
FFF6
0027
FFF1
0001
0011
001E
FFFB
FFED
FFF0
0005
FFFA
000E
0012
FFED
0024
001D
FFE9
FFC7
0027
0017
0012
FFF6
0014
FFED
0000
0001
FFF2
002B
FFFD
FFFB
FFEF
0012
002D
0017
0015
FFF5
FFF7
FFEC
FFF4
0010
FFEE
001A
0013
0014
0013
0001
FFF5
0008
FFED
FFF9
FFFF
FFE2
0001
FFEE
0003
FFEA
FFFA
FFF8
FFFD
FFF2
FFDE
0009
FFFF
FFDE
FFF1
FFED
FFFC
FFFF
FFD4
FFE1
FFFA
FFF3
FFFB
0001
0010
FFDF
0011
000C
FFEC
FFD8
0024
000C
000B
0002
0002
0008
FFDC
000F
FFF4
000E
000F
0008
FFEE
FFE6
0004
0021
FFF0
FFE6
FFFB
0013
0023
FFEB
000C
0007
0024
0004
FFDF
0009
FFFB
FFF3
FFFB
0016
FFF5
0003
FFFE
FFFD
0005
FFF1
FFEC
0010
000A
0001
FFE7
FFF5
FFE4
0014
000F
0000
FFF3
FFE6
FFF7
0015
FFFC
FFC2
001B
0008
0003
FFD7
0000
0018
0020
FFF5
000B
FFCD
001E
FFF2
001A
FFEE
0005
0009
000D
0012
FFF3
0014
0006
FFE8
0016
FFE6
0005
0017
001D
FFFD
FFF8
0016
0020
FFEC
0013
FFFD
0018
FFFD
FFD6
FFFD
FFFF
0001
FFFE
0021
FFD1
FFEE
0003
FFE5
FFF2
0001
FFEC
0021
FFDF
FFEC
FFE7
000E
FFF3
FFEF
FFF9
0029
FFF4
FFFA
0020
FFF7
FFF4
FFFB
000F
0014
0017
000F
FFF4
0010
0009
0007
0002
000A
0016
FFF0
0005
0002
FFF1
0005
003A
0013
0000
FFFF
0011
FFF2
FFE7
FFF4
FFF6
000D
FFEB
FFD8
FFDC
0020
0012
0015
0010
FFFC
FFFF
FFDE
FFE0
0002
FFD6
FFFF
0006
0012
0002
001C
0003
FFEB
FFEC
FFFB
FFF0
000E
FFE4
FFE4
000B
000D
FFEF
0006
0007
001B
FFEC
FFE3
0016
FFEA
FFE0
FFF3
FFF4
0001
FFF2
0013
FFF9
FFEF
000D
0002
FFDA
FFF3
0019
0000
0014
0004
FFF4
000C
FFED
FFF0
FFDD
FFF6
000B
0011
FFFA
0002
FFF0
0008
FFFE
FFDD
FFF8
FFFA
000E
0007
0000
0012
0029
000D
FFE2
0011
FFF6
FFD9
FFE5
FFF3
FFFB
FFEF
FFEE
0003
0010
FFE8
FFFF
0003
0027
000A
0013
FFF5
0018
FFDB
FFFF
FFED
0028
FFF4
FFF6
FFFB
0002
FFCE
FFF3
FFEC
0019
000E
000E
FFFC
FFEC
FFFB
FFF1
0002
FFD1
002F
FFEB
FFEE
FFF8
0003
FFE5
FFFD
0026
FFFE
FFFD
FFF0
FFF4
000A
0023
FFF0
FFF8
0018
FFD6
0001
FFF9
FFF7
000E
0003
FFDA
FFFF
000A
0005
FFFC
000E
000C
FFDB
0009
0010
0013
000A
FFFC
0010
FFFE
0027
FFDF
FFD7
FFF2
001B
FFEB
0021
FFE4
0029
FFEA
000F
FFF8
0018
0006
003E
FFE4
000F
0013
FFFB
FFF1
000F
FFEF
000C
0006
0010
FFFB
0009
FFE5
001A
001B
FFF5
0025
FFF1
FFF5
FFDC
FFF4
001D
FFF8
0015
0000
FFF6
FFF3
0003
FFF7
FFEA
FFEA
0002
FFF1
0006
000C
0000
FFF9
FFED
000B
FFFA
FFE7
FFFC
0005
FFEC
0004
FFFC
000A
0027
FFEC
0005
FFF6
FFD8
FFEF
001B
FFF0
FFEC
FFF0
002F
FFEE
000B
002A
000E
000B
0021
FFFF
0005
FFF3
FFF9
FFF4
0006
FFD9
0014
FFF5
0008
0017
FFEE
FFDC
0002
0021
0002
002D
0012
FFF9
FFF9
FFEC
001E
FFFD
000C
FFFA
FFF8
0000
FFFA
0007
FFF4
FFE9
0015
0002
FFF7
0011
000E
FFE2
FFF7
0000
FFEA
FFFA
FFFA
0022
0016
FFEA
FFF1
0004
FFF5
FFF6
FFF4
FFFE
0016
0009
FFDB
FFF1
0007
0016
FFE7
FFEA
FFFF
FFF0
000B
FFD4
FFDE
0012
0012
FFEB
FFE2
FFFE
FFF4
002F
001A
0005
FFE2
000B
FFFA
0007
FFEF
FFF0
FFF3
0004
000E
FFD4
0007
001F
FFF4
FFFC
FFE8
0005
FFF1
0019
FFE6
0008
FFF6
002A
FFD7
0007
0002
FFF7
FFFB
FFF9
0018
0013
FFF4
002B
001D
FFDF
0015
FFEC
0013
FFFB
0019
001E
FFEB
0008
0010
003C
FFF8
0004
002D
FFF8
0011
FFE8
FFFB
0007
001F
001E
FFFA
0026
0000
000D
0014
0008
0000
002F
FFF0
FFFA
FFFC
FFED
FFF9
FFF9
0007
0024
FFE4
FFE2
0004
0005
FFE9
FFF5
0010
FFF7
FFFE
000F
0011
000C
0021
FFFC
0024
FFEF
FFD2
FFF1
0012
FFEB
0013
0010
FFEA
0015
0012
FFF4
0002
FFE9
FFE1
0007
FFFD
0003
FFEE
000A
0005
0003
FFF3
FFFD
0025
FFF1
0001
0005
001A
0003
FFF0
0015
0000
FFEF
001D
0011
000C
0016
0026
0018
FFE1
FFD9
FFEE
FFDA
000B
FFF8
000B
FFE3
0007
0005
FFF6
FFFB
FFFB
0019
FFF0
FFFE
FFFA
FFF5
001D
0019
FFE3
FFE5
0002
FFF0
0027
FFD8
001F
FFF6
0013
FFFB
001D
FFF8
FFE2
0018
FFF8
FFE5
FFE8
0012
0015
001C
FFE9
FFF0
FFF9
FFF4
FFF2
FFDC
0002
FFFD
001E
0013
001C
0007
0000
FFF8
0008
0031
FFFE
FFEB
000F
FFF8
0019
FFE8
FFF8
FFF8
FFE6
FFFF
0009
FFCC
FFFB
0013
FFFB
000C
0002
FFEF
FFFE
FFFB
FFF8
0015
FFE0
0007
FFFA
FFE7
FFFA
0014
0006
0000
FFE2
FFEB
000B
0018
FFE9
FFE7
0015
0000
0014
000E
FFFD
000E
FFE8
FFDE
0007
FFF4
000A
0003
FFEB
FFF8
0017
0018
001D
0003
FFF5
000C
FFF9
0018
000A
FFFE
FFE3
000B
FFFE
FFFE
FFF0
FFF8
FFDF
FFFD
FFE1
0015
FFF7
FFF9
001B
0020
FFF0
002A
FFC2
FFFB
FFEE
0000
FFE7
0008
0029
0012
FFF3
FFD9
FFF6
0007
FFE4
0013
FFD9
0005
0012
FFF7
0001
FFEE
000F
0017
0000
002F
FFF7
001F
0009
FFE0
000A
FFF1
000F
001E
FFFE
000C
001A
001A
FFD2
0020
FFED
0002
0019
FFEF
FFE1
000C
0015
0001
0026
0022
0001
0009
FFDF
0024
0003
FFEA
FFE8
FFF7
0003
0006
0016
FFF0
FFF3
0013
0017
FFFD
FFEB
001E
FFFD
0016
000E
FFE5
0009
001D
0000
FFE9
0005
0000
FFEE
0007
0003
FFFC
000A
FFFD
FFDF
FFE5
0023
FFF8
0003
001B
0018
0013
FFFD
FFCD
FFEF
FFE9
FFF8
000C
0007
0009
FFE1
0003
FFF8
0014
FFF1
FFFF
FFF7
0004
000A
001B
0000
FFF3
003B
0004
FFF6
FFDB
0009
000A
FFF7
FFDF
FFEA
0011
FFEE
FFDF
0005
FFFA
FFDC
0021
FFF7
FFF2
FFD1
001A
0001
000D
FFFB
FFE5
000A
FFFA
FFFA
FFEC
FFE9
001C
000F
FFF1
FFF5
0018
000E
0009
FFE7
000E
0003
0021
FFF9
FFF3
0015
FFFA
0005
0007
FFFB
0003
FFEA
FFF9
0014
FFE6
0001
000A
0020
0010
0008
FFFA
0011
FFFA
FFEE
FFDA
0020
000D
000D
FFF5
FFFD
000F
001F
FFDD
FFF3
0018
000B
000E
0005
000D
FFE8
0010
FFFA
FFEC
0015
001F
0004
0001
0024
FFED
0011
0011
FFE8
0027
0017
000A
FFDE
0007
FFE7
FFF2
0024
0000
FFF7
FFE9
0012
FFF6
FFFD
0001
0018
FFF2
FFFE
FFF5
FFEB
0014
FFE5
000E
0009
FFFE
FFF5
0010
FFFE
000F
0005
0001
FFEF
FFF3
FFFB
FFF3
FFF9
0004
0022
FFFD
0017
FFFA
0011
FFEE
000B
0025
FFFF
FFF1
001C
0002
001E
FFF4
000C
0009
FFEE
FFF2
0008
FFDC
FFF3
0018
001B
000A
000E
0008
000D
0001
FFF3
0002
FFE9
FFF1
0007
0000
001B
000E
FFFB
FFEB
000F
FFE5
FFFB
000C
0002
FFDA
0017
FFFC
0016
FFED
FFFB
001C
FFED
FFC7
0003
FFFC
FFF6
FFFE
0028
FFEA
0004
FFF9
0030
0001
FFEB
0006
0014
0004
FFE2
FFE2
FFFB
002A
0020
FFE9
0011
0007
000D
000D
FFD7
000C
FFF4
FFF1
0015
FFD9
000B
000A
000D
FFF5
FFF0
FFFD
FFF2
0001
0009
000E
0008
0002
0000
FFF2
FFFB
FFFC
0009
FFF3
0013
FFEB
FFF2
001A
FFE5
FFEB
0010
0013
FFE0
0005
0001
000B
FFEC
000F
FFF9
FFDD
FFEF
0026
FFF6
FFFD
FFF3
000C
0006
FFFE
0014
FFE4
FFED
0004
001F
0021
0001
0011
001F
FFFF
0002
0025
FFFB
FFFD
001E
FFF4
0018
0001
001F
FFFC
FFF3
FFD1
000C
FFCF
0012
0008
000B
FFF7
000C
0009
FFE0
0026
FFF7
0021
FFCD
FFFC
0016
0012
0022
000C
FFDC
FFFD
0010
FFEA
FFF8
0000
001C
FFFC
FFEF
FFEC
000D
000A
000F
FFFD
FFEF
FFE4
000B
0011
0013
0004
0008
0006
FFFF
0015
FFDF
001A
FFF8
0011
FFEB
001E
000E
FFEC
FFEB
FFFA
FFF5
FFE6
FFFA
000C
FFEE
0000
FFF9
0010
0022
000C
0009
FFF7
FFD2
FFF4
0009
FFF4
0000
000A
FFFB
0002
0004
FFDB
FFEF
0006
FFF8
FFEB
0012
FFF1
000C
FFFF
FFF3
0008
001D
FFF7
0026
0004
000E
0011
000B
FFDB
FFFD
0007
000B
000E
FFFD
0007
FFEA
0009
FFED
0002
FFE5
000E
FFF0
001B
000C
0000
0011
0009
FFDB
FFF2
0000
0006
FFDA
000B
FFE9
0005
0022
FFE3
FFF1
0011
FFF9
FFF9
FFFE
FFEE
0005
0015
FFFC
0022
FFD3
000C
FFF8
0000
FFFC
FFF4
002B
0023
FFFE
FFFD
FFFB
FFEC
FFDC
001C
FFF0
FFFA
0001
0004
FFE6
FFFC
001D
0031
0009
000B
FFFD
FFFA
0008
FFE6
0007
FFEA
0024
0004
0018
FFEB
FFF1
