0015
FFFA
000F
0000
FFE8
0001
FFE5
0004
FFEE
000C
0010
0009
FFF3
FFE0
FFDC
FFD7
FFFC
FFCE
002A
FFE9
0032
FFF4
000D
FFFC
FFEA
FFFA
001A
0009
0026
FFF2
002F
0013
0006
FFFE
000A
002F
0001
FFDC
FFEC
FFEF
0019
FFE2
FFD5
000C
0015
000E
000E
0006
0013
FFEF
FFE8
0024
001A
FFE1
FFC8
0000
0002
0001
000A
0016
000E
0019
0013
FFDC
0001
000E
FFE5
FFE5
000B
000D
0009
FFF8
0018
FFD7
FFE3
0029
0010
000A
001D
0008
002E
FFDC
FFFE
000F
FFE5
FFDF
0010
0021
000B
0019
FFC6
FFE7
0006
FFF6
FFE7
FFF6
FFEE
001D
0012
001B
FFDE
FFDC
FFF7
001B
000A
FFD7
0016
FFF5
FFEA
0008
FFEC
001C
0004
0000
0016
FFEC
FFF4
FFF7
FFF4
0005
0007
FFF6
0025
FFEA
0006
FFEA
FFCC
FFD1
0004
0005
FFDC
FFF3
FFDE
0010
0023
000F
FFE3
0010
0028
0000
FFF3
0010
000F
FFFF
FFE0
FFEE
0008
FFDE
000E
0001
0001
FFEB
FFFB
0035
0010
FFE8
FFD6
001A
0028
FFDB
FFE4
0013
FFED
FFDA
001B
FFE5
FFF6
FFE7
0024
000A
0020
FFF4
0036
0018
FFFA
000B
FFDD
FFFA
0022
FFF5
0013
FFFF
0003
001A
FFFE
FFFC
FFE3
0006
0002
0007
0023
002D
0019
FFB3
0002
001D
000B
FFF4
0014
FFEB
001A
0017
FFEB
FFF4
FFC5
FFE7
000A
0013
FFF2
0008
FFE9
000B
FFF0
0027
FFFA
FFE9
0014
FFFC
0005
FFFA
0008
FFF6
FFDC
0002
000E
FFF0
0016
0000
FFD7
FFD2
FFE0
0001
0017
0035
003F
0010
0002
FFE0
001A
FFF2
FFFE
FFFE
FFED
FFDE
0003
0028
FFF5
FFE0
FFFE
0031
000E
FFF5
FFEE
002A
FFD3
0005
FFF6
000B
FFE0
FFEB
FFF8
003C
0009
FFD6
001C
001A
FFED
FFE2
FFE9
002B
FFD1
FFEB
FFF4
0020
FFF7
0006
FFF7
FFEB
0012
0005
0023
0029
FFE0
FFEE
FFC5
FFF8
FFE8
FFDC
0018
FFE8
FFFA
FFFC
FFF3
001C
FFF6
0016
FFE3
0022
FFE6
0012
0014
001E
0008
0031
0006
0006
000A
FFF4
FFFB
FFD3
0008
FFBD
FFCA
FFF8
0015
0021
FFD6
0026
0028
FFEE
0011
FFF8
000D
FFDD
FFEC
FFEF
000A
0015
0014
FFDC
0019
0023
FFDB
FFD0
FFF8
0019
FFE5
0003
000B
FFE2
0021
001A
0024
FFEE
FFCE
FFF6
0010
0013
FFE3
0014
FFE3
FFE6
FFD8
FFFE
FFD8
FFF2
0002
0021
FFFC
001C
0025
0007
FFF4
000A
001B
0000
FFDE
0011
FFDD
FFDB
002C
FFFF
001B
FFF5
0017
FFEA
FFD6
002B
000E
000C
FFF2
FFF1
0008
0013
0008
0010
FFFC
001D
001A
0017
FFF7
FFDA
FFEF
FFEF
0022
FFF3
FFED
FFE7
0009
0000
FFF0
0012
0011
FFC7
000C
0035
FFDD
0012
0022
002C
000C
FFE4
FFEB
001A
FFFA
FFEE
FFE8
FFDC
000E
000E
FFED
FFF6
0003
000F
000E
FFE1
0024
0029
FFDF
0024
FFDF
FFE6
0000
FFFE
002E
FFFE
000D
FFE4
FFDE
FFF9
000F
FFFC
FFD7
FFDC
0000
002A
FFFF
FFD0
000A
0029
FFF6
FFFA
0020
000F
0011
0021
FFF8
000A
FFE8
003A
FFE0
0008
0006
FFEB
FFCA
000E
000C
0019
FFF1
0018
0020
FFD6
FFCA
000F
0002
001A
0026
0023
FFEF
FFF2
0019
FFF9
0006
FFE1
0018
FFF4
0022
001D
FFFB
FFCA
FFF7
0024
0000
FFFD
FFE4
0029
001F
FFFB
FFD9
FFF2
FFF4
FFFA
0030
000F
001F
0018
0021
0018
FFD4
FFD1
0000
FFDD
001D
FFE8
002C
0026
FFE3
FFCB
FFF0
FFE3
FFDB
0010
0008
0003
0008
0002
0000
FFFC
001E
000B
FFF6
0025
FFF2
FFDE
0017
0012
0004
FFE8
0029
0000
FFEF
FFE2
FFEE
0034
0029
0000
0021
002C
001B
0001
002E
0006
0006
0004
FFF1
0036
FFEC
0005
FFD5
FFE6
001E
002E
FFD8
FFE7
001A
0008
FFE5
000F
FFEF
FFF4
FFFD
FFF9
0001
002C
FFCC
000A
000F
0012
FFDB
0000
FFEB
0015
FFEF
0010
000C
FFF5
FFF6
0003
0026
FFFB
FFEF
FFEA
FFF4
0013
0004
0017
0035
FFDB
FFE6
0012
FFE9
0005
FFC8
000D
FFF7
FFFA
000A
FFE7
0003
0007
0016
0000
001F
0016
FFE1
FFF8
001E
0002
FFDB
FFD8
FFE4
002A
000C
FFE3
0018
0035
FFE6
FFF1
001A
FFD9
FFCA
0007
FFE3
FFFC
FFE1
0018
FFE3
0020
FFED
FFFB
002C
0015
FFE1
FFF7
000E
FFCF
FFFA
0026
FFF1
001D
FFE0
FFEF
0017
FFE9
0000
002E
000B
FFEC
003E
FFE5
0007
FFE1
FFE7
FFFE
0016
FFE3
FFCB
000B
0000
FFF1
000A
FFFA
FFF7
0003
FFFF
0001
0001
FFF0
001A
001F
001B
0020
0000
000C
FFEA
FFEA
FFFE
FFF3
FFD1
FFD3
000B
0016
0016
0012
0017
0019
0028
FFF4
FFF3
FFF9
0007
FFFF
FFE2
FFCE
FFD5
FFF8
001E
FFFD
0001
FFFD
001F
0016
FFEE
FFF7
0013
FFD1
000F
FFFB
FFE1
0022
FFE2
0027
002B
001A
0023
000D
0021
FFFD
FFCB
FFE6
0003
001D
FFEF
0002
FFFF
FFFF
FFDC
0031
FFF7
0012
FFEE
FFFE
FFFA
FFE4
FFDC
000F
FFEA
002F
001D
0017
000A
FFE2
FFEB
FFE3
0024
0031
0010
FFEE
FFF8
FFFA
002F
FFCC
FFD1
0009
0005
FFF9
FFF3
FFCE
0000
FFE7
FFFD
0014
FFD3
001B
FFEC
001E
FFF1
001E
FFF0
FFFC
FFE3
0016
FFD8
0014
0010
FFF8
FFFC
FFF4
FFE7
FFEA
FFF3
0005
0013
0007
0022
0003
002B
0012
FFC5
FFFC
FFEF
000D
FFD4
0001
FFE3
FFEE
FFF1
FFEC
FFEA
0027
0018
0003
0013
001F
001F
FFE0
FFEB
0000
FFDF
FFFA
0016
0011
FFF8
0030
0002
FFF1
000C
FFDF
0027
FFE5
FFE8
0029
0013
FFDC
0017
0002
FFD9
FFF5
0012
FFDA
0019
001B
001D
000C
FFE1
000F
0006
FFF1
FFDC
001B
0045
FFF2
FFFB
0004
FFEA
0012
FFF8
FFE4
FFD5
FFED
0011
FFF6
FFEF
0001
0022
000E
FFFE
0005
0007
FFE8
0015
001C
000A
FFE5
FFE4
FFCA
0005
FFD6
FFE7
002A
0000
0011
FFF9
0008
0001
0028
FFF1
FFE3
FFED
0011
FFFA
0018
0010
FFF1
0040
FFEB
000E
0012
FFF1
FFEF
001D
0011
FFEF
FFE2
FFD7
0014
FFE3
0014
0015
0028
000D
002B
FFEF
FFE2
FFDF
FFCC
FFEB
0013
0015
FFF4
FFD3
0014
0023
002E
0006
FFF4
0015
FFFB
000C
0009
000B
000D
FFEC
FFFF
000C
FFD6
0013
FFE8
FFC2
FFDD
0028
0032
002F
002B
FFFC
001D
0001
FFDC
0015
FFFE
FFF3
0018
0026
0014
FFEC
FFD3
0021
000A
000E
000B
001C
FFF2
0016
0017
0002
0023
0038
FFDE
0012
0011
0026
0015
FFF3
001B
000B
FFE0
0012
0030
0009
0023
FFFA
001C
0028
0004
FFEE
FFF4
0036
FFD5
FFF5
0011
FFED
0019
FFED
000C
0025
FFF4
FFF9
FFEB
FFFA
002A
0019
0005
FFEC
0002
0019
0043
FFF6
000B
FFE9
0013
FFF4
FFDC
FFBE
FFDB
FFDB
000D
FFC9
FFD5
001D
FFDA
FFF5
FFF3
FFF5
002C
FFFA
FFEE
002C
0034
0013
0006
000C
000E
0020
0017
FFE0
FFD6
0000
0004
003B
FFE4
0001
0019
FFFE
FFDC
FFE6
FFC2
FFDE
FFE4
FFE0
0016
FFFE
FFEE
FFED
FFDD
FFEF
000D
FFE1
FFFF
0011
0019
FFDC
FFF5
0032
0002
FFD8
FFE2
0002
FFFA
0018
FFE2
0005
0001
FFF6
FFF7
001F
001E
0029
FFF9
0017
FFEB
0001
FFDD
FFE2
FFDB
FFEA
FFF9
002E
FFEF
001A
FFEA
0014
FFF4
FFE9
FFFD
FFCB
FFEE
FFF1
FFEE
0036
0011
001C
0029
FFE0
FFE2
FFF2
FFF4
FFE8
001C
FFED
001B
0023
FFEE
0008
FFE7
0004
0019
000D
FFF2
FFED
0018
