0002
0016
002A
FFD8
FFD2
FFD6
FFEF
000D
FFC1
0000
001D
FFF0
FFD0
FFBD
0005
FFC2
0041
0034
FFDF
FFCF
FFF3
001D
FFDC
0011
FFFD
FFDC
FFCF
002D
FFE5
0017
FFF7
FFFB
FFE2
FFD5
0047
FFFE
003B
0032
0042
FFC2
0019
000B
0002
FFCE
FFD4
0016
FFE4
FFCE
FFFA
FFE1
FFDD
003D
0002
0031
FFF8
FFBA
FFE4
FFC4
0046
FFCC
0035
0016
000B
001F
FFFC
FFC0
FFE1
FFE3
FFBB
0017
FFFB
FFD7
FFD7
0000
003D
0041
0032
FFBF
FFFD
0042
000E
FFEA
001D
0003
0046
FFD6
0029
0018
FFF3
0036
FFF1
003A
0033
000C
0036
FFC6
0045
FFD8
003F
001D
FFF0
0037
0030
000A
0042
002F
0035
0006
FFC6
FFDD
FFB8
0039
FFCD
0046
FFEC
FFE0
FFC5
FFD7
FFCE
FFBC
FFD8
FFFF
FFC2
FFC4
FFEE
FFDD
FFD2
0030
002E
FFF1
FFC3
0028
FFD7
0012
FFCE
0048
FFE3
FFF7
003D
0034
0046
000D
FFED
0006
FFD1
001C
0012
FFDD
0015
003A
FFC7
0017
0018
0039
FFC3
FFF5
FFDC
0015
003E
FFDD
FFCB
0028
FFF3
001F
0024
FFE1
FFC8
FFFD
0030
FFEC
0040
0016
0004
001A
FFFC
002B
0039
FFD8
FFC6
001A
0046
FFD0
FFF3
FFCF
0025
FFB8
FFC4
0006
FFCB
0030
FFE4
0026
0040
FFAB
0029
FFEB
FFE4
FFDD
0017
0002
FFE8
0033
0000
FFF1
FFFE
0035
0011
FFC9
FFF8
0005
FFCE
FFE7
FFD7
FFF4
002A
0021
0015
FFC5
0047
001F
0019
FFE4
FFD5
000B
FFF6
0039
001E
FFE3
0044
003F
FFB9
FFE0
000C
FFF8
FFF9
0030
FFF4
0026
0041
FFF0
FFF3
002C
0018
001D
0013
0024
003A
000D
FFE2
0013
0003
FFBA
0016
0035
FFC8
FFC6
0008
0022
001E
FFD1
FFFD
FFF9
001A
0028
FFFF
0043
FFDC
FFC9
FFFC
FFF2
0027
001F
0016
FFF4
001B
FFEE
0016
0002
FFE1
0013
FFB8
FFE4
000C
0018
0024
FFFE
FFC2
FFEC
FFF6
0010
FFE7
FFEF
FFC7
0003
0039
FFDB
FFFB
FFFD
003F
0013
002C
FFF4
0040
0000
FFD0
FFF9
0002
FFFF
FFCA
0016
0028
FFED
FFFF
001F
FFBC
FFC6
FFF5
FFD9
0017
0042
0006
FFC1
0039
FFF2
002F
FFE8
0045
0039
0023
002B
0044
FFEA
0045
FFBD
FFE8
FFDD
0005
FFD2
FFD9
0002
FFFA
0024
0016
FFCB
0002
FFDE
003A
000C
003B
FFC6
002D
0040
0039
FFCF
FFE2
FFCB
0002
FFDC
FFF3
0020
FFCB
FFFC
FFC3
0027
0016
FFF1
0012
0015
0045
0015
FFF9
FFE2
FFC5
002D
003C
0042
0009
FFF9
FFE9
FFB9
FFC6
FFE1
FFC4
FFF1
FFDE
FFFD
0020
FFFE
FFE7
FFC7
0034
0021
000D
FFD6
001A
FFCD
003B
FFF0
FFEF
FFE9
FFEC
002C
FFC2
0038
0022
0017
0020
FFD8
0036
FFCA
FFC6
000F
0042
001B
FFB8
001D
FFCC
FFF8
0044
FFBF
FFFC
FFF6
FFF8
FFD7
0047
FFCD
002D
FFBF
0038
FFEA
0022
FFCB
FFFB
0046
FFBD
003F
FFCD
FFE7
0024
FFE2
FFD6
0007
000E
FFC7
002E
001F
FFE6
FFC9
0013
0019
FFD0
FFFA
FFD9
0003
FFB8
0011
0011
FFEC
FFD9
0015
FFFC
0014
0036
FFC9
003D
0042
002A
0014
003C
0009
0001
0037
FFDD
0000
001C
FFF5
FFC3
0004
0025
FFCB
FFFC
0041
FFE3
0005
0043
0043
000A
000E
003C
0004
0038
FFEC
FFE7
0034
002A
0047
FFEC
003F
0031
FFBA
FFEA
0013
0038
0041
FFF8
FFFE
FFD8
FFC5
FFED
FFDA
0047
FFF8
0001
FFEB
0042
0005
0020
FFC0
0039
FFBD
FFCE
001A
0022
0021
0017
0045
FFCC
0022
FFC9
FFF3
0034
FFD9
FFBB
FFD1
002C
FFFE
0035
0027
FFE7
FFC6
FFFD
001F
003A
0039
0005
FFF4
0027
0026
0046
000B
0025
0033
FFC9
FFE1
0025
0029
FFF2
001F
FFE0
0014
0022
000E
FFD5
0031
FFC6
FFBC
0006
FFC8
FFC9
0022
0005
0031
FFD1
0034
0001
FFC2
FFE1
FFFB
002B
0004
0018
FFB0
002E
FFD0
FFE5
FFD7
001C
001B
0030
003F
003A
0040
FFC3
FFF2
0011
0007
FFC5
003B
FFB8
003B
FFDB
FFE6
FFEC
000D
000B
0007
0003
FFBB
FFBC
001A
FFF6
FFBE
FFBF
FFFC
0007
0028
FFD1
0039
000C
0014
0013
FFEC
FFC8
003A
FFD3
FFC9
0012
0033
0038
002C
002C
FFF7
002E
FFDE
FFCD
FFE5
FFC2
FFEC
FFE5
0025
FFD3
0022
0022
002D
0039
000B
FFF1
FFCB
0048
FFD0
FFC6
003C
FFE7
001C
FFDB
FFFD
FFEB
001A
0045
000B
0032
0008
FFE6
0008
0032
FFF3
0016
FFD5
0016
FFC1
FFB9
FFB8
001C
FFE7
FFDA
FFF9
000C
FFFC
FFAE
FFE9
FFD4
0019
0002
FFE5
FFF0
FFFB
FFCB
0040
0003
FFBF
FFF2
002F
FFB9
002D
FFFD
0037
0040
002F
0003
002C
FFD8
000D
FFFF
FFFE
000E
FFD3
FFC0
FFD4
FFEB
FFBD
FFE2
FFF1
FFE4
FFF0
0013
0014
0020
002B
0037
FFBA
FFFF
FFD9
0001
FFEE
FFE1
FFDE
0014
FFD6
FFD4
0047
FFEF
0022
FFF1
FFF6
002B
FFC5
FFE8
002B
FFF1
0003
FFEA
FFF1
FFEB
0001
FFE5
0024
FFD6
FFC7
FFCE
FFFE
0015
0009
FFD7
0047
FFC6
0020
FFD8
FFEB
FFEF
0037
FFD2
0018
FFD4
000D
FFDF
FFD9
000C
FFC2
0018
FFEB
FFD8
0027
0040
FFFA
FFD8
FFD2
001A
001C
FFD1
FFFD
FFE7
FFD1
FFE6
0028
FFFA
000F
FFF1
FFD7
0003
0020
FFE0
FFDA
FFD7
0027
0039
FFCD
0039
FFD7
FFBD
0004
FFC1
FFC9
FFDD
0048
0044
002A
001E
FFEE
0024
001F
FFD8
0008
0029
FFFE
0046
000C
0028
0027
FFD5
0048
002A
001B
FFE3
FFCD
FFD5
0034
0043
FFEB
FFBE
FFFB
FFFD
0034
FFCA
FFBA
FFC8
000F
FFD0
FFC0
FFBF
FFBA
FFF8
FFF0
FFEE
FFBB
FFD7
003A
0021
0031
FFC6
FFF0
0036
FFFF
0005
001F
FFE0
0036
003C
FFDD
FFF7
FFB9
000C
002E
FFEA
0006
FFF1
FFD6
001E
0035
FFB9
0002
0043
FFE1
001C
FFC6
0000
FFD4
FFC9
FFB8
FFC7
FFFC
0016
0037
FFF1
002F
001C
FFDC
0016
000B
FFFE
FFE6
001B
0004
003D
FFED
FFDE
FFDC
0028
FFF9
0040
0036
002F
001D
0040
FFD1
000F
FFB9
FFE1
FFD8
001C
0048
0034
FFD4
FFBF
FFC9
003B
FFDF
002B
000D
0047
0016
FFC8
FFE6
FFF2
FFFB
FFD8
FFF1
0010
FFDB
FFF9
FFC2
0018
0031
000F
003F
0032
000E
0007
0048
000A
003C
003F
0013
0020
FFF5
FFBF
0022
001E
FFD0
FFDB
000E
FFFE
FFC3
FFD2
FFDF
FFC6
0048
FFFD
0015
FFE2
0026
FFCE
0026
000E
0035
FFB9
FFC2
FFEA
FFF8
FFDD
FFBE
000A
000E
FFCE
FFB9
FFBC
0008
FFF2
0044
FFE4
0045
FFFB
0007
FFDA
FFD2
002A
0018
001D
FFEA
FFFD
0045
003F
FFE9
FFE2
FFF5
003A
0039
FFF5
0045
FFF8
FFDA
0027
0015
0042
0032
001C
FFE7
FFE7
0022
FFD3
0020
0042
0013
001E
0045
003D
FFC7
FFEC
FFD5
001A
002C
FFD4
002C
001B
003E
000B
FFF9
0022
003A
FFBD
FFBE
FFFB
FFEA
FFEE
0009
FFF1
FFD8
FFCC
0041
FFC6
001E
0046
0028
FFD1
FFC9
0000
FFD9
FFB8
FFD5
0048
000A
FFBD
0040
FFE3
FFEA
0037
FFC6
FFB9
FFC3
FFF0
FFBB
FFE2
FFE6
FFF9
FFC7
0006
000E
FFB3
0011
0005
0033
0005
FFE5
000F
0022
FFBD
0007
000C
FFDF
FFFD
FFBB
FFF7
0002
0007
FFF3
FFFC
0045
0024
0043
FFC9
FFD8
0017
0012
FFEE
FFCC
FFEF
003B
FFCB
FFE9
003D
FFBC
0026
FFCB
000E
FFBA
FFD5
FFFE
FFBB
FFE7
002A
0047
FFE7
FFC3
FFE2
0024
FFF0
FFC4
0042
FFCE
FFC1
0046
FFE5
0038
FFEB
0005
FFCF
FFD9
0015
002B
0024
0036
0037
FFF2
FFFA
FFCC
001E
003A
0016
0013
0045
FFD7
FFF6
001C
FFDB
0016
0014
FFCC
002D
000E
FFBF
FFE1
FFC7
0021
FFFD
0048
0016
FFC4
FFF2
FFF0
001C
FFE9
001F
FFF0
FFE8
FFF8
FFDF
FFD7
0011
0035
003A
0033
FFF7
FFF5
0018
FFD1
000F
003B
0044
FFF1
000C
FFDD
0035
0017
0026
FFBD
FFDC
FFC5
FFE8
0003
FFC8
FFCD
FFDB
FFE7
0013
FFEC
001F
0026
FFD9
0002
0007
002C
FFFA
FFBB
002A
0045
001E
001F
FFBF
FFFA
FFCF
0035
FFD3
FFE2
0009
0014
0018
0016
0047
000D
FFBF
0019
FFF0
0036
FFF5
0000
FFCC
001E
FFD8
FFF9
FFBC
FFE0
FFEB
0042
003F
FFE3
0047
0027
FFC2
FFEC
0013
002C
FFFA
FFF9
0032
002F
FFE1
FFF6
0042
0000
002B
FFDC
0044
FFB9
0019
FFEE
FFF1
0035
003C
003C
FFF1
FFFA
001D
0004
0027
002A
FFF5
FFD3
FFB8
001B
FFBB
001C
FFD6
FFE7
FFC3
0008
0042
FFF1
FFDF
003A
FFF0
FFF2
FFBE
FFD0
FFD9
FFC3
FFE7
FFE0
FFF7
0041
001C
FFBE
FFF6
FFC7
0008
0034
FFD7
0046
FFC8
0019
0006
003A
FFF3
000A
FFEB
003C
0000
FFC1
FFF8
FFBB
0048
FFE2
FFBB
FFFF
0022
0005
000A
0033
0020
0037
FFBD
FFF4
FFFC
FFFE
000E
FFC4
FFE1
0005
FFFE
000B
0020
002F
FFC5
FFBE
FFF2
0014
0038
FFE8
0043
0048
001A
0029
001C
002B
FFD0
0033
0019
0027
0036
FFCA
002B
FFD0
FFF1
003F
0033
FFC3
FFE6
0003
FFCB
0031
0031
FFD9
FFC6
FFB9
0008
FFF2
FFEF
FFDF
FFE3
0021
FFEC
0002
0037
002C
0004
0031
000A
0046
FFD8
FFEE
002B
003C
FFF9
0015
FFD2
FFFD
FFEE
FFD7
FFBD
002F
0033
FFC2
FFE2
003A
000F
FFEB
FFDC
FFF3
0043
002D
FFCC
FFFF
FFF3
FFED
0022
FFE3
FFF1
FFDC
FFCF
FFBA
0020
002C
FFE4
001F
FFFD
FFD7
FFF8
0031
FFCA
003F
FFD5
0048
002E
FFD0
FFFA
FFE1
FFEE
FFDC
003C
FFD1
0013
FFDF
0010
FFCF
0012
FFD6
FFBB
003A
FFEF
FFBB
0004
FFB8
FFFB
0038
FFD1
FFBD
FFF5
0012
FFDB
003C
FFFC
FFD8
FFE8
0012
0010
000C
FFA8
FFC7
FFFE
0012
FFE1
0026
0020
FFC3
FFD6
002F
FFD5
FFD0
FFC0
FFBD
000E
002F
FFDA
0028
FFE7
FFE3
FFF3
FFD5
FFDC
0032
FFD5
001E
0031
002F
FFF1
0032
0005
FFF5
FFD4
FFCA
FFBD
0003
FFFE
0002
FFD7
0048
000D
0046
FFFA
FFE2
FFBE
0010
0003
0008
FFE4
FFD0
000D
001B
002B
FFEE
0014
0024
FFE2
FFF7
0006
0007
0009
0017
0048
FFEE
FFF5
FFC1
001A
FFF5
0028
FFBB
000C
0033
FFFA
FFE8
FFDA
000B
0024
FFE9
FFF8
FFBB
FFBC
FFD0
FFC0
0047
FFB9
0038
FFEE
FFDF
FFBE
FFC3
FFCB
001E
0033
FFE9
FFE6
FFE0
FFC0
FFAA
FFDE
0029
FFFC
0010
0044
0023
0032
002A
FFD1
0007
0007
FFFB
0041
FFF0
0009
FFC8
FFDF
0005
FFD8
0021
0016
FFF9
0004
FFCB
0001
FFBD
0035
003E
0039
003D
FFFB
FFE9
0005
FFBD
0016
FFFD
FFE5
0048
FFD2
FFD2
0045
0021
FFE4
FFF3
0025
0016
FFBE
FFFF
0006
FFEA
FFBD
FFC3
0026
001C
FFFB
FFCE
0016
0023
0029
FFBD
0029
FFD7
001B
0039
FFC2
FFE1
FFBD
FFDF
001B
0011
0025
FFEB
003E
FFBE
FFFE
FFB9
FFF4
0037
0004
FFF6
FFD9
FFFB
0041
FFB8
0001
0026
FFEB
0009
0013
FFF2
FFBE
0007
FFDE
FFCF
FFD9
0002
FFDD
FFC1
0013
FFE7
003F
FFE0
0034
001E
FFF6
0035
FFE6
0036
FFEB
0033
FFE8
0046
FFFB
FFC0
0022
0017
002D
001D
0032
0027
FFC3
FFE4
FFE4
0039
FFB9
0029
003A
0002
FFD8
0005
FFCE
000B
0004
FFC0
0011
001D
FFB8
FFF1
FFFB
003E
000C
003D
001F
FFCD
002C
FFD0
0011
FFD7
FFC3
0044
FFC3
FFF0
FFC3
0036
0046
0037
FFEF
FFE3
002E
FFBC
000E
0043
0046
FFCD
001C
002E
0021
003F
0001
FFE3
0011
FFD3
0033
0034
FFC8
0022
0021
000D
0016
001A
FFE5
001C
0030
000D
0019
FFCB
FFEF
FFBA
003D
FFF2
0046
FFD0
0005
0011
003C
0013
0025
001B
002A
FFD4
0032
FFBC
FFFC
002F
003F
FFC1
FFEE
001D
FFCE
003C
0047
0006
FFF4
0032
FFC9
FFBD
0032
FFEA
0041
0001
0033
0042
003C
FFC2
0006
FFC9
FFE4
0038
FFBD
0002
FFCD
FFC7
FFC2
FFC9
FFE3
FFC4
0041
003A
FFF9
FFD1
FFD6
0007
0006
000C
003C
FFD3
003D
FFD8
FFCF
FFD1
0022
0025
FFCE
000F
002F
002D
003C
FFB9
0027
0010
FFBB
FFC8
FFBE
FFFD
FFD3
FFE8
FFC9
001C
FFED
000C
FFC2
002C
FFC0
0014
000D
FFC1
0020
FFFA
001C
FFD0
002B
FFFA
0009
002B
FFE2
FFDB
0041
003F
0011
FFF1
0002
FFDB
FFE0
0038
FFF8
0040
FFF6
0032
0018
0040
003E
002E
FFD2
0027
001C
FFD6
0048
FFF2
FFDB
0040
0039
0030
000D
0044
0044
003C
FFF6
FFE0
0034
FFC0
FFEF
0003
FFBD
0028
0038
FFD7
FFE6
FFEE
000E
FFBA
0032
000D
FFEB
0002
FFCB
003E
0018
FFE8
FFD3
FFD3
0043
001C
FFF1
FFFC
0001
FFC2
0014
FFF1
0030
FFBE
FFC6
FFC7
0022
0008
0017
0004
FFFF
FFDA
FFD7
0004
0045
001C
FFD6
0027
FFC6
0002
003A
FFE2
0019
FFE5
0025
0000
0004
FFDE
FFDF
FFC4
000D
FFC3
FFC6
0004
0035
0041
FFC1
FFBD
FFBA
0014
FFD1
FFDD
FFF3
FFE8
0024
FFE9
0024
FFB9
FFD8
003D
FFDA
000B
FFD0
0017
FFBF
FFCF
FFBA
0028
0000
FFF1
FFEF
FFC3
FFFB
003A
FFE0
0046
0026
0015
FFC9
0040
0032
FFC5
FFF8
002E
0013
000D
FFEC
FFBE
FFC1
FFBC
001B
0047
0045
FFE5
0001
FFEF
0040
FFF8
FFC0
FFD1
0001
0021
000B
0015
FFC3
000E
002A
000F
001B
0008
0046
FFEC
0023
FFDC
FFD9
FFF0
FFB9
FFD2
FFFE
FFD8
0047
0014
FFEA
FFC8
FFF0
FFD1
0019
FFCD
FFE2
0009
0030
FFBE
FFBA
FFDC
0020
FFE7
FFBD
0034
FFDE
FFF8
FFC0
FFF6
003E
0048
FFE3
0016
FFC0
FFC6
0002
FFC4
0016
FFEF
0017
FFD3
FFD2
0023
FFB9
FFBB
000A
0005
002C
FFE8
FFD2
FFE8
0039
FFD6
FFD7
FFC4
0007
0022
FFE2
0003
0033
0031
0038
FFCF
003E
FFCB
000B
FFF6
001C
FFC0
FFE0
0022
0016
0021
001B
FFCE
FFF3
FFC8
FFE7
FFD1
000E
0023
FFF8
FFCA
0033
0017
0020
000D
FFFA
0000
FFCC
FFC8
0009
002E
001A
001D
FFFE
FFEA
0009
FFFA
002B
FFC9
FFE8
0005
FFD0
002D
FFF6
FFE3
003C
FFDE
FFFB
0001
FFBD
FFD7
0028
FFCE
0019
FFBB
003C
FFDE
FFCB
FFF2
FFCC
FFEC
FFD1
0001
FFDF
002E
002F
003D
0042
FFCC
0029
FFBB
0010
0026
FFDC
FFD4
FFD9
FFEC
0014
FFEE
FFD5
FFF9
000A
FFDB
FFC6
003A
FFC4
FFFB
002F
000D
0042
001E
0010
003E
0037
003D
FFDC
FFEE
003B
FFD1
FFD9
FFDD
002C
FFC1
000B
FFF9
FFC5
FFB8
0009
0020
0042
000B
001E
FFE9
0020
FFE1
0011
0027
FFE3
0000
0006
0018
0036
FFFA
0025
FFF6
0006
0006
0028
003F
001F
0047
0035
FFE5
FFE3
0036
FFD7
000D
000D
FFE4
FFE0
FFFA
FFF3
FFC4
FFD8
0048
FFFE
0013
FFDB
FFBD
FFBD
0046
0038
FFC6
001F
FFC4
0016
FFED
FFF0
FFD7
002A
FFC2
0030
002A
FFC9
0014
0029
0016
FFC6
FFC5
FFBE
FFD4
FFC2
FFDC
FFBD
000A
FFE8
FFED
FFD9
0001
0020
0016
0026
003B
0026
000D
001D
FFFB
FFCF
FFDD
FFD3
0027
FFF8
FFF3
0034
002C
0002
FFF6
FFF8
0035
FFCF
FFC7
0020
FFE2
FFDA
FFFA
0005
0006
FFB8
001F
0006
003D
FFE6
FFBE
0048
FFFF
FFD3
FFE8
003F
003F
0009
0024
001C
FFD4
001E
FFE1
0023
0022
FFC1
FFC8
003D
FFFE
FFBD
0043
FFCE
0032
0028
FFD7
FFFD
FFE6
0009
0039
FFCD
0045
001F
0044
FFD4
FFDE
FFC6
FFC4
0028
0045
0036
0042
FFC0
002D
FFD3
FFD2
FFE0
0002
FFDD
0041
FFEC
000A
0037
0052
FFC6
000C
FFF9
FFCC
FFC2
0048
0022
000F
0018
0029
0009
FFE6
FFE2
FFF1
FFE8
FFDD
0002
FFB8
002B
FFD7
FFCB
003E
FFC2
FFEF
FFE2
FFF6
FFFD
FFE9
001C
001F
0024
0011
FFC5
0037
0029
FFB9
001D
FFE9
FFBD
0048
0002
FFCB
FFED
FFD8
0033
FFF5
000F
000B
0014
FFFD
FFDE
FFC5
FFD8
0012
001A
FFBB
FFE9
FFF2
FFE5
FFCD
FFE4
002C
FFFE
FFFD
0039
FFE4
FFC1
FFEC
0036
FFC5
0001
FFC7
FFE8
001D
002F
0040
000B
000B
FFCF
FFDB
002A
FFBF
001D
0026
FFEB
0024
FFC7
FFEA
FFBF
0011
FFBD
FFC4
0046
0042
FFFA
0015
0001
003C
FFE5
0015
002C
002A
0022
FFDC
0019
0011
001E
FFCF
0038
FFF8
003D
FFBF
FFEB
002A
FFE1
0012
FFFA
0046
0045
FFE0
FFC5
FFFD
0024
FFE5
0042
FFFB
FFC0
002C
0011
FFCC
0026
FFDC
FFD7
0040
0024
FFEE
FFBB
FFCC
FFD5
FFE2
FFC6
000C
0020
0048
FFD8
000B
0044
0046
0022
0015
FFCF
FFD7
FFED
FFD9
FFC4
FFF4
FFCC
FFF4
003D
0003
0020
FFBB
0033
FFC1
0037
0018
FFBC
0048
FFBB
FFD8
0045
FFF9
FFE4
003C
003B
0037
0000
0001
003C
FFD1
0000
0022
FFE6
0021
0030
002F
FFDB
FFE9
001A
FFF9
FFF4
FFDD
0025
0037
FFC3
FFE2
FFDD
0021
0043
FFEF
FFBC
0043
0023
0008
FFBC
FFDC
0036
FFF2
FFC4
001C
001A
0042
FFC8
0030
FFF5
FFCE
FFD2
FFDC
000D
FFEA
FFF3
0043
0009
FFE4
FFCF
FFEF
FFE1
000D
FFE2
FFDF
0014
FFF8
FFCF
FFDC
FFFF
FFE3
FFFB
0047
FFDF
FFF1
FFBD
FFDD
FFF0
FFEE
001B
FFDF
FFE3
0024
FFD8
FFF9
0042
0005
FFED
0020
FFC3
FFCC
FFEE
FFE4
FFDF
0008
0020
FFF3
0025
FFE2
0001
000A
FFDD
FFD0
0021
0021
0003
0044
FFE3
001A
FFEA
FFFD
FFC3
FFC6
FFEF
FFE3
FFD2
FFC0
0010
000C
FFF8
0048
0016
FFCB
FFB8
FFE5
0045
0017
002C
0002
0039
FFD5
0004
FFCF
001A
FFDB
FFFF
001F
0046
FFC1
FFD5
FFE8
000E
0006
0013
001C
FFF7
FFBC
002D
0039
003A
0024
FFEF
002B
FFEB
0043
002E
FFEB
FFD9
0001
0030
FFC8
002F
FFB9
0036
FFE7
0026
0031
000E
0036
FFE4
FFFE
0031
FFDC
FFD7
FFC8
0046
003F
FFC4
001E
0006
0018
001A
000C
FFE8
003B
000E
001B
003F
FFCF
FFD0
FFC7
0026
FFCD
003D
FFBA
FFF4
0025
001D
FFF5
FFC4
0039
0003
002C
003B
0029
FFCC
002A
000A
FFFE
FFD6
0047
FFE1
0001
FFBD
0023
FFF8
FFBA
0032
FFDE
FFDC
0031
0048
FFC7
001B
FFD7
FFFC
FFF0
FFFE
FFCB
0035
002B
0031
FFE5
FFD0
0000
0005
FFDB
FFF3
FFBD
FFFA
FFE2
FFCA
0016
002A
000F
FFF3
FFBC
FFC6
001A
FFF2
FFC7
003A
FFE7
FFB8
0007
0042
0032
0042
003C
002F
FFE2
FFD6
FFFD
FFB9
0006
0007
FFD7
0004
FFCD
FFE6
FFBD
FFEB
000F
FFC0
0037
001A
000F
0024
000B
0026
FFEB
0012
002B
FFC5
FFBF
0018
002A
FFF1
002D
FFFB
FFCD
0017
0048
FFEE
000F
001D
FFBF
FFDE
0048
FFE3
0029
FFC8
FFBF
000F
FFC4
003D
FFE9
FFBF
FFC3
001F
FFDF
FFBE
FFCE
FFDB
0040
0012
FFCE
0040
FFE0
FFAD
0046
FFCE
0019
0022
FFF2
0044
FFF6
000D
FFEE
FFB8
0020
002B
0031
FFBD
0005
0046
FFF4
FFBD
0012
0023
0046
FFF8
FFF8
FFBE
0012
0006
FFD6
FFC0
0009
000C
0018
FFBE
FFEA
FFBA
0038
FFEA
FFB9
0007
0004
FFC6
FFF2
0010
FFDC
FFEC
FFCD
FFBC
002B
FFEB
0031
FFF7
003B
FFE0
0036
0029
0025
0030
002E
002D
FFEE
002B
FFBE
0000
0038
000E
FFFD
FFB8
003D
0008
0024
FFFC
FFCC
FFDA
FFD9
000D
002C
FFDE
0016
FFE9
FFD4
0030
FFF9
0031
002A
FFDB
FFFC
001E
FFF3
FFCB
FFDB
0020
FFDF
002A
0002
002C
0028
FFC0
FFF9
FFD6
0038
001A
FFBC
FFF3
FFBF
001E
FFF2
FFE7
FFBE
FFF8
0001
FFED
003C
001B
FFCC
002F
FFC4
FFFB
FFCD
003C
FFF4
0009
0021
0021
003D
0030
FFF2
001C
FFD6
0012
0024
0030
FFFE
FFEE
0020
0005
FFE9
003B
FFC8
0021
0041
003C
FFD9
000F
0035
0025
003D
FFF6
FFC4
FFBD
FFC8
FFD0
000F
FFD9
001D
001E
0006
FFC6
FFBC
003A
0009
FFE5
0008
0034
0001
0000
0001
FFCE
0046
001C
FFE9
0048
FFC7
0047
001A
0031
FFF4
0011
000D
0006
FFE4
FFEC
FFDB
FFB8
0017
0012
FFF1
0004
FFE0
000F
003F
0001
0000
0038
FFFB
0049
FFC2
FFE0
0046
FFCA
FFBC
FFCA
000F
0037
FFF9
FFEE
FFCE
FFF2
FFFF
FFEB
FFD2
FFE5
FFD2
FFE8
0024
0032
FFCD
FFE4
FFC7
0043
0038
FFCB
FFE9
FFBA
002F
0045
003A
0004
FFD0
FFE8
FFDC
001D
FFCA
FFD8
0009
002E
FFF0
0012
0036
FFC8
FFD8
FFF9
FFD7
003B
002D
FFD2
FFD3
FFD8
0007
0042
003B
0038
002B
FFBC
0038
FFED
FFC5
0006
003E
002F
FFE3
FFF2
0027
0047
002C
FFE4
FFBB
FFD4
FFD6
FFFA
0021
FFCA
FFE5
003E
002C
FFC8
FFF0
0037
0032
FFE4
0028
FFF6
0048
002B
FFBB
FFE4
0024
FFC0
001E
FFCD
FFFA
0016
0034
FFCB
FFE7
FFF3
0041
FFD0
0042
0045
FFD0
FFEC
FFD3
FFD7
0028
0023
FFE1
001F
001A
0002
FFBA
FFD4
0031
0024
FFC1
000B
FFD9
0020
000F
FFBE
000A
003C
FFE5
002E
FFDF
FFD1
FFDF
FFC5
FFF6
002E
0028
FFF1
0004
FFDF
FFC7
0042
0029
001C
FFDD
003D
0012
0026
0002
FFF2
FFD0
0032
FFE7
FFF4
FFDE
003A
FFBF
0037
0019
0025
000B
FFE1
FFE0
FFFF
FFCD
FFF5
FFE5
FFC0
FFF0
FFE6
0028
0027
003B
FFD3
FFE6
FFBC
0000
FFF9
0007
FFC4
FFDF
FFE7
003F
0032
FFE7
FFDB
FFBB
0007
001F
FFFF
0025
FFDC
FFC8
FFC2
FFF0
FFFF
FFD7
FFBB
0007
0002
0048
FFE3
FFBA
0047
FFD5
001D
FFF8
FFCB
FFFA
FFD8
000F
0043
FFBE
FFD8
FFDD
FFF1
0010
003B
FFF4
FFF7
0047
FFCE
FFD3
FFF5
FFD5
0028
001A
0029
FFF4
0005
0027
FFEF
001B
003A
0008
0021
FFDB
0016
001F
FFEA
0028
FFF0
000A
0037
FFE2
0026
FFC3
0010
000C
FFCB
FFDE
FFCE
FFEA
FFBB
001A
000E
FFC9
0019
001A
0015
0001
0046
002E
0027
0016
FFCE
000E
0000
003D
0017
FFFD
FFCE
FFBB
0013
0006
FFD6
0008
FFF6
0006
FFE1
0001
0018
FFC7
0028
FFCE
FFC7
FFBC
FFDC
002A
FFE9
0015
FFFD
FFC7
FFE1
002D
0021
FFE3
0004
FFE1
FFC9
0000
FFBE
002A
FFC9
FFF8
003B
0031
0005
002E
003C
0028
FFCE
0019
FFDF
0000
0021
FFFE
0005
0018
FFC4
001E
003A
FFFF
0043
FFEB
FFFC
FFBB
FFD8
FFD7
0026
FFE1
0033
FFE7
0029
FFD5
0018
000B
0019
FFFB
FFF2
FFE8
FFD4
FFDE
002C
FFB9
0027
0007
0001
0030
FFFF
FFB9
FFC5
002B
FFCE
FFC9
FFED
FFD5
0018
FFCA
FFDC
FFE4
0022
FFF6
FFD0
000C
FFCA
FFDE
FFD3
FFC9
FFF3
0037
003B
FFC1
001E
FFBA
0032
FFD5
001E
FFC8
0008
0000
FFDA
0046
FFEA
0024
0014
FFE8
0011
0041
FFEB
000E
FFEE
FFBC
FFC4
FFF5
FFCF
FFC5
000B
003E
0039
FFEE
0010
FFBA
FFC0
000A
FFDA
FFCD
0036
002E
0003
002E
0007
FFC0
0007
002A
FFEE
0012
001C
001C
0013
FFEF
FFD9
0005
FFC1
0020
FFF7
002D
0009
0009
003D
FFC7
0023
0044
FFFB
FFE4
001C
0047
FFF0
FFFB
003E
FFD0
0039
FFDC
002A
0002
FFC6
FFD3
FFF5
003D
FFF7
0002
FFF7
FFC3
003F
0022
0040
FFDB
003D
FFE0
0021
001E
FFBE
FFF2
FFFF
0035
FFE1
001E
FFFB
002B
FFFC
0025
003C
FFDB
0038
FFB9
FFCC
0027
FFCD
FFC9
FFDE
0024
0021
FFE4
0040
0021
FFE5
FFC6
002B
FFBA
FFC8
FFB9
FFDE
0031
FFFC
0020
FFC7
FFE9
FFE6
0016
0047
FFE7
FFE0
001B
0002
FFD4
0042
0040
0046
0009
FFBB
FFF7
0018
FFF9
001A
0011
0036
0002
FFDD
FFF1
002A
0012
0001
FFEB
0011
FFF3
000C
0000
FFF9
003E
FFCC
FFDF
FFEF
003A
FFD9
003E
FFC6
FFD0
FFF3
FFCE
0027
0016
FFE1
0045
FFD9
FFC3
000D
FFED
0038
FFD6
FFBB
0007
002D
0047
0023
0047
FFC9
0036
0040
FFB9
FFDF
FFFD
0001
FFF8
FFCD
0030
FFD9
FFCD
FFCD
0022
FFFE
FFCD
FFE3
0017
0021
002D
FFF1
FFDB
FFC8
FFBB
000C
FFC4
0019
FFD0
FFA5
0008
003C
002C
FFBB
FFFB
002F
FFC4
FFC6
0000
0007
FFFA
003A
0033
0022
0020
FFFE
003B
FFEC
FFC3
FFD2
FFCC
0021
0048
FFD5
FFD3
FFEB
0021
0039
FFD5
FFF5
FFEB
FFE2
FFC0
0032
0032
003F
FFFB
003C
002A
FFBC
FFFA
0006
0014
FFC2
FFC3
0035
FFD5
FFDA
0018
0023
FFF0
0033
FFFB
003C
FFC7
FFE2
0015
FFE9
0006
002A
0021
FFE8
FFF5
0027
0021
FFE9
FFE1
002E
FFC0
000D
FFC0
0047
FFC0
FFC6
0032
001D
FFEC
0007
FFC0
FFC1
0043
FFB8
001C
001D
FFF3
001B
0017
FFC3
001F
0000
FFDF
002D
0014
FFBB
000A
000F
000C
0043
FFDE
0030
FFFF
FFF3
0027
FFFE
0023
FFBD
FFEF
FFB9
003A
FFBA
FFDC
FFC9
FFBD
FFBE
0031
FFBF
000B
0009
FFFF
FFCD
0017
0007
FFBB
003D
003F
FFD3
0038
FFBA
FFCC
FFDE
0023
FFDE
0024
0032
FFD0
FFC5
0045
FFE6
0012
FFD5
FFC5
FFBA
FFE9
FFC1
FFBF
FFCA
0037
0003
002B
FFD8
FFE7
FFDF
FFFF
0019
003A
000C
FFD6
0000
003A
FFD7
FFEF
FFE8
0039
0043
0015
FFC5
FFC6
0028
FFE8
FFDE
0012
002A
FFE5
0012
FFD0
0001
0047
FFDA
0040
001F
0004
0040
0031
FFFF
FFD3
FFD0
FFC5
FFC5
FFF3
FFC9
FFCB
0035
002B
001B
FFEB
FFD6
FFE9
FFE1
0002
FFE4
FFBF
FFF8
0021
0005
FFCE
0003
0020
FFCE
FFF5
FFDC
FFFA
0029
FFEE
FFF4
FFD5
0007
002A
FFD1
FFF2
0030
0020
0031
FFD2
FFFD
0006
FFFD
FFE7
0017
FFFF
0048
001E
FFDC
FFE0
0027
0041
0037
002B
001E
FFD7
FFE2
0045
0032
0013
FFC4
FFF5
FFEB
FFB9
FFED
FFFE
FFE1
002F
FFDA
0035
FFF1
002C
0023
000C
FFF0
0041
FFD2
0036
0007
000E
FFF9
FFD7
FFE8
0046
002A
FFBB
FFFE
000B
0037
0018
FFC5
0027
FFBC
001A
FFCA
FFE6
FFE2
003E
001F
0022
FFBD
FFF1
000A
FFDB
FFBF
0001
0024
0054
003B
0020
FFEC
FFCD
0038
FFBE
FFF6
003A
FFDE
FFE9
FFD4
0029
001E
000A
FFCF
FFDF
0024
FFD2
003E
003C
0029
003D
0031
0006
FFC8
FFF8
FFD8
FFBE
FFCD
FFF0
0004
001D
0009
0015
003F
003F
0014
0019
FFDD
FFC1
0010
003E
FFC2
0032
0010
0036
001D
FFD0
FFE5
FFFB
0031
FFF6
0010
FFCA
003E
0008
0039
0018
FFEB
FFBB
FFEE
0014
FFBF
FFF7
001C
003F
FFE9
FFC5
FFE4
FFDB
0003
FFBF
FFE6
0041
FFFE
0038
0031
003D
003C
002E
FFC5
FFED
FFD5
001F
FFD2
FFD5
0014
FFD5
FFB8
FFFE
0003
000E
0009
0028
FFF5
003B
FFE8
FFC0
FFE2
FFB8
0002
FFF7
0033
0022
0012
0021
FFDC
FFF8
002E
FFF4
0008
0000
002E
FFEC
0024
0046
FFF7
003B
0025
0009
FFE3
FFBB
FFF0
FFFF
003C
0048
FFEE
FFE2
FFD7
FFE5
003A
FFF4
0019
FFD9
0016
0011
001F
FFBE
FFFC
0004
0010
FFF6
001C
FFD3
003C
FFB8
0005
001A
0035
0013
FFDF
0041
FFED
FFD4
003E
FFE3
0029
0024
002E
0027
0044
FFD4
0044
002E
0000
0015
0006
FFB8
FFED
0016
FFF9
FFDE
FFE8
0033
0005
FFDA
003A
FFEF
FFD8
FFDF
FFC8
FFFF
FFFA
FFC5
FFFA
0002
0033
FFE6
FFBD
0003
FFB9
FFFB
0031
004F
0026
FFC8
FFD4
FFE7
0024
002C
001A
000D
001C
002C
000F
001D
FFD2
0005
002D
FFE5
FFD0
FFF6
FFDA
002E
0015
FFD8
FFF8
FFBA
000A
FFEC
FFD7
0020
000A
0031
FFED
FFF2
FFE9
FFDD
0038
000F
003C
003B
FFC4
FFF8
FFD4
0034
001C
FFBF
FFD2
FFE8
0043
0002
001F
FFCD
FFD7
FFED
0007
FFF3
FFF3
FFF2
FFF3
000D
FFE2
003F
FFC4
FFBD
FFE4
0014
0026
FFF8
001C
0045
0043
FFE0
003C
FFD7
FFE1
0021
0027
FFCE
003C
0002
FFC8
FFBA
0032
FFF3
FFD5
FFC4
0005
FFBE
FFF3
0045
FFBF
FFC1
0012
0044
0012
0029
0045
FFBE
FFAC
0035
FFD7
FFC7
003D
FFC0
0019
002B
0010
FFF8
0042
FFC2
FFD2
0031
FFFF
FFDA
FFCB
002F
FFE1
FFD1
0030
FFE0
FFBA
0036
0030
0026
FFC0
FFC0
000B
FFC0
0038
FFEB
0013
FFF8
0029
FFCD
FFBF
0028
FFBE
FFFC
001F
FFC9
FFD6
FFE4
000E
003D
0024
FFEE
0011
0009
0044
000A
FFD2
0009
0039
0038
002D
FFD7
FFEA
0045
0046
FFF3
FFE7
FFE2
FFBF
FFB9
001E
FFE3
0040
0004
003A
FFC9
0018
FFCC
000A
000D
FFFD
000F
FFB8
FFBF
0039
0040
003B
FFE8
FFE1
0022
0037
000D
001F
001D
FFCD
FFBB
FFE1
0034
FFC4
0024
FFF4
FFC1
001A
FFFA
FFB9
FFE0
002A
0040
001A
FFFA
0007
FFEB
001D
0001
FFD2
FFD4
FFC6
0022
003E
FFEC
000A
0031
0016
FFD2
0048
FFE4
FFFE
002D
0026
001E
FFEF
FFE1
0036
FFC8
FFBC
FFD6
0040
0011
001F
0023
001C
0032
002E
FFC1
FFFD
FFDE
0042
0032
0021
FFE5
0013
0035
FFCA
FFBB
001D
FFEB
FFF8
FFD3
0046
0028
FFE4
0012
0001
000A
FFDE
0040
0039
FFD5
FFD4
0007
002B
0037
FFE9
002B
FFBE
0017
FFC9
FFEB
FFFA
0004
0029
FFC4
FFDC
0009
0025
FFF3
FFE4
0046
0025
0048
FFEB
0028
FFCD
FFF7
0046
0046
FFCB
FFC0
FFB9
000C
0044
FFFC
0042
0011
FFF1
FFF2
0039
0023
0023
FFF9
000B
FFE6
000C
0018
0032
FFCF
000F
003D
003F
002C
FFFB
0011
0048
FFE2
0010
001E
0026
FFBF
FFC6
FFCD
FFF0
003E
FFF5
FFF9
0030
FFFA
003F
0022
FFDB
0024
FFE3
FFDC
FFF7
FFE6
FFC7
FFC8
FFCE
FFE6
0035
FFEA
FFF2
FFD9
0043
FFC1
0042
003A
FFFC
FFF0
FFE1
0038
FFB9
002B
0020
FFF0
FFE2
FFD1
0027
001F
FFBC
FFD8
0013
FFBF
FFBD
FFE5
001C
FFE2
0005
0042
FFC1
FFFF
FFE6
FFD2
000E
0001
002F
FFE7
FFC6
FFE2
FFEC
003D
0037
0001
FFBA
FFF5
000C
FFB9
0018
0042
FFFA
FFE5
0035
FFBD
FFD5
FFBC
0030
002F
FFCF
003F
FFDB
FFE9
FFD8
000A
003E
0028
0028
0013
FFCC
FFD7
0021
003C
0010
FFEC
000E
FFBA
000B
002C
FFCF
003C
FFBC
FFBD
0036
0041
FFBC
FFD7
FFC8
FFE9
FFD3
FFCD
002D
FFBE
0007
0002
001C
FFFB
FFE4
0046
0017
FFDE
FFE9
002F
002F
0043
0001
0021
FFF8
002B
0025
FFE6
002F
FFF9
000A
FFBC
003A
0048
0015
FFD0
FFBC
FFC7
0036
FFDA
002C
002A
FFCB
FFD1
0047
FFEA
0001
FFD6
FFF6
FFDD
001C
0027
003E
0042
FFF2
0017
FFF5
FFBF
0036
0005
FFE5
0021
FFD6
FFC3
FFEE
0018
FFBF
FFD5
FFC7
0037
002E
FFFD
0034
003C
FFE6
FFFC
FFD3
FFC7
FFE9
FFBB
003A
FFD9
0022
000D
FFFE
FFD5
FFC8
FFB8
0013
FFD5
FFF5
FFBD
0048
FFFC
0006
002D
FFEA
0041
000D
FFB8
000B
FFFC
FFE0
FFFF
FFE6
003B
000C
0046
FFF9
FFBA
0016
001F
FFEF
FFFB
0047
FFD1
0023
FFC6
FFE1
FFCF
000F
FFE0
FFDF
0029
0028
0034
0023
FFE4
002A
0032
FFB9
0026
FFD4
FFE4
0008
001B
0033
0020
0045
0032
0039
FFC3
FFBB
001D
0040
0022
002B
0023
002B
FFC8
0041
FFE7
0012
FFFE
FFB8
FFE7
0002
0031
0008
0049
FFF6
FFF0
0048
FFC0
0041
FFDB
FFEC
0009
FFC1
002C
0046
001A
FFEA
0032
FFBE
0022
0031
FFDE
002B
0001
FFFA
FFDD
FFD2
FFD6
0016
003A
FFCA
FFBF
FFEA
003E
0037
FFE9
FFBE
0018
0025
FFF3
0015
FFE3
0045
FFDD
FFFA
001A
0004
FFC7
0041
FFDF
FFE2
001F
FFC8
FFD5
FFE5
FFE4
FFC0
FFFD
0046
0023
FFED
FFBF
FFCB
FFC5
FFD9
FFD9
0003
FFE4
0044
003A
001C
001D
000F
0044
0048
002E
FFE8
FFFC
001A
FFBC
000F
FFF1
FFD0
FFFA
FFE2
0006
FFEE
0038
FFC8
0025
0044
FFB8
002E
FFEA
FFE4
0035
FFD6
FFD8
0009
FFD1
0023
0026
0048
0008
FFD8
FFC2
FFF8
0019
0028
0040
FFE5
FFEE
0026
FFDC
0016
001E
FFC1
FFCE
FFE1
003B
FFBB
FFC4
FFFD
FFDB
FFE7
001F
FFC8
FFFE
0000
FFEF
0023
FFEA
001F
0042
FFFD
FFFE
FFBD
FFF2
FFBA
FFFB
0005
FFC0
FFE7
002D
FFF2
0023
0041
0032
0020
0009
0039
0005
002E
FFC9
FFED
FFCD
FFC2
0020
0011
FFDB
0029
0013
0020
FFFD
FFCB
FFC5
0033
0014
0043
FFF5
FFDB
0005
0025
FFD7
FFFA
FFEC
FFE6
FFD5
FFD5
0002
FFD4
0009
0040
FFD2
FFC4
0025
0020
FFF8
003E
FFC3
0024
0020
FFEA
0009
003C
FFB8
0038
0053
FFC3
FFF5
FFCC
FFF3
FFBE
FFFF
0005
FFFC
001C
003E
FFDB
0046
FFE7
0005
0006
FFF6
002E
0019
000A
FFDA
FFC8
001E
FFBF
FFFE
002E
0037
FFE0
FFE3
0041
FFC7
FFC4
FFC4
0015
0008
002B
FFC8
FFE9
FFCE
0028
0046
0017
FFF4
001B
FFE8
002B
0040
FFD7
0018
FFF5
FFC5
0010
0030
001F
0046
0027
0026
000D
FFD0
002F
002A
0048
0036
FFD0
FFC9
FFE5
FFFB
FFE4
0009
0012
FFEE
FFE7
000F
003D
FFDF
0026
FFC4
001B
0046
001E
0015
0048
0037
0007
003A
FFE0
0014
FFCD
FFFB
0038
FFC3
001E
003A
002D
FFC0
FFD9
0029
FFED
000C
FFE1
002B
000C
0036
0021
FFFD
003E
0037
0013
FFC2
FFC6
FFD3
0002
003C
0025
0018
002B
0000
FFDB
FFEE
FFDB
0011
FFC2
FFE1
0034
0039
FFCF
003F
0039
FFD0
0042
FFDA
FFDE
FFCF
FFD2
FFFF
0044
000A
FFF5
0028
FFDA
002C
0017
FFC8
0026
FFDC
FFE3
FFEA
FFCD
0041
0006
002B
FFE9
003D
0048
FFCE
FFF3
FFF8
FFE4
FFC6
003E
FFE1
0001
FFFA
0009
001C
FFDF
FFD7
FFFD
0031
000F
0038
FFBA
001B
FFEA
0008
0044
001D
0009
0030
FFD1
003A
FFC8
FFBC
FFDB
001A
FFE0
FFD0
FFCB
FFFD
000F
002F
0010
0046
0046
0037
0006
FFD2
FFEE
FFED
001D
0041
FFE5
002B
FFDF
FFF5
FFD0
FFD2
002A
0014
FFBA
0014
002C
FFE0
FFC7
0001
0030
0025
0034
0003
0046
0004
FFF4
0041
0037
0028
FFBA
0034
FFF5
0000
000B
0023
0009
002C
0009
FFD8
0005
0043
FFF3
000F
003B
FFE5
FFF8
FFDC
FFCA
FFD1
FFCF
FFE1
0021
FFC2
FFC1
FFE2
FFDF
FFFF
003F
0037
002A
003C
0036
0014
FFCE
0043
FFF3
FFDF
0011
0022
000F
0001
FFF1
FFBF
FFCE
FFE7
002C
0005
0004
FFE7
0001
FFE1
FFD0
001A
FFD8
001D
0040
0011
FFDB
002A
FFF0
000D
003F
0029
FFDD
0043
FFC1
FFC9
FFBA
FFD9
FFC1
0025
0036
002C
0037
FFE6
FFBD
FFC9
FFE8
FFC7
003F
0008
0024
0015
FFE5
FFFE
FFF0
FFF0
003D
FFBF
001E
0017
FFC7
0046
0048
FFDA
FFFC
0041
FFD3
FFC2
0046
FFFD
FFD3
000C
FFB8
0017
FFDA
0000
FFD9
FFF6
0030
0040
FFFC
FFEF
0005
FFF4
FFE7
FFEF
FFCF
000D
0010
FFE2
FFEB
FFCE
FFF0
003D
FFFF
0040
FFEA
0020
FFD5
0007
000E
0011
FFDD
FFCD
FFC4
001F
001B
FFDD
FFC4
002E
0009
000B
000F
FFF3
0032
003B
FFBA
000E
FFE7
FFFB
FFD7
FFF3
0000
FFF3
FFC6
0018
FFBF
FFFF
0024
0016
FFB8
FFEB
FFD2
FFBF
FFE5
0007
0045
0033
FFF8
FFFD
000F
0032
FFE1
FFD5
FFE2
001F
0043
0003
000B
FFCC
001A
0029
FFE4
0029
0033
FFC8
0012
FFD8
001A
0030
003A
FFF0
0023
0011
001C
0033
FFDD
FFFC
FFD8
0026
0036
FFDF
FFBC
0034
0015
001E
FFFD
0008
FFF9
FFD4
FFCA
FFDF
FFC1
FFC6
0020
FFD6
0031
002F
FFC8
FFFD
FFFC
FFFA
FFD7
0003
FFF1
002B
FFC2
0021
0018
0005
FFD7
FFD1
0037
0043
FFCF
001F
FFFB
FFBF
FFDC
FFDF
FFBF
FFF8
002E
0040
FFBC
0007
FFFA
FFD1
FFFF
FFF7
FFD2
002E
FFD8
FFD5
FFEC
001D
FFD8
0008
FFE5
FFD0
FFF4
FFD3
FFE6
0004
FFC3
FFF2
0021
0005
0000
003E
0031
FFF2
0000
0028
FFF3
FFCF
0021
FFB8
0003
0044
0029
0029
FFCE
FFC3
0006
0048
0014
FFC7
FFFD
0046
FFDD
0036
FFE3
0020
0024
FFEE
002E
0000
0006
FFC8
0026
FFD3
0017
FFD7
0046
003B
FFCA
FFDC
0037
002A
0039
FFC7
FFCE
0034
000D
0022
FFFA
0033
0046
FFD4
FFDC
FFC4
FFBE
0046
002D
003C
0027
FFCF
FFE8
FFC6
000B
FFE4
0013
FFC6
FFF8
0031
0009
0039
FFCD
FFE2
FFFB
0021
FFC9
001E
FFF8
FFCB
FFD4
0000
FFCD
0008
0040
001F
001A
FFCB
FFDD
FFE0
0024
FFD2
FFD2
001C
0023
002F
FFC6
002C
0002
0016
0042
0030
0014
000A
FFFC
0009
FFBF
FFCB
001B
FFEC
FFE3
FFC1
0000
001B
FFF8
FFD3
FFCD
FFD4
0014
0017
001C
0005
FFF8
FFDF
0036
0017
FFCB
0010
FFDC
0005
003B
0007
001F
0004
FFC7
0029
0010
0035
FFF4
FFF7
FFDB
003C
001D
0045
FFFF
001A
0012
0037
0001
0043
FFDC
0006
002D
FFEF
FFC5
FFD0
0034
002A
FFF5
0015
001C
FFEF
001F
0000
0029
001E
FFFF
FFF3
0027
0010
FFC8
0032
FFFA
0017
FFE0
FFF3
FFBB
0010
FFD0
FFCD
FFE5
000D
FFC1
FFD5
0033
0027
FFC6
0018
FFC7
001F
0012
000A
0008
FFEE
0014
FFFB
FFD7
FFBB
0038
0047
0026
0022
FFEA
0005
000B
FFE8
0040
FFCF
FFE6
FFF0
0010
FFFC
0007
FFCC
FFF8
FFBD
FFFD
FFCB
0032
0011
FFE2
0040
000C
0025
FFDB
FFC1
FFEA
FFFC
001E
FFE9
FFE6
FFE2
FFE0
FFEA
0031
FFC1
FFD3
FFEC
FFFB
0006
0017
FFD1
FFD1
FFDD
FFD0
FFF3
FFEB
FFF7
002E
FFC9
000E
FFE6
0001
FFFF
FFE0
FFC6
002F
000E
001B
FFB8
000C
FFD1
FFD7
0039
FFE6
002D
0007
000E
0013
FFD6
FFFA
FFD9
0002
FFF6
0035
FFF6
0041
FFBC
FFBC
FFC1
0016
FFD5
001A
0021
0006
001A
001A
FFDE
FFBE
0012
FFBE
FFBE
FFC9
0013
FFD1
0048
003B
FFE5
FFCC
FFCB
FFD8
0000
FFBF
0046
0048
0025
0000
0006
FFB9
0047
000F
FFE7
FFCE
0037
FFF2
001B
FFDA
FFF4
0040
FFC4
000E
0004
FFC1
FFDA
FFF6
FFC1
002B
001D
FFE2
003E
FFF3
001B
FFE9
FFEC
0017
003F
001A
FFD8
FFE3
0004
0004
FFFE
0009
FFFD
FFD8
FFBD
FFDE
001C
FFBF
FFE9
FFF9
0044
0024
0008
000E
FFEB
FFED
FFC5
0032
FFD0
0043
002A
FFFC
0040
003D
0042
FFF6
0018
FFD2
0021
0011
0017
FFF9
002C
FFC5
FFC1
001D
FFDB
FFE1
0046
0007
FFE7
0043
000F
FFB8
FFD8
FFFD
FFFF
002D
FFB9
FFCD
0020
0036
FFE6
FFFD
0022
FFBC
000E
FFFF
FFBF
FFC8
0038
FFD1
FFBF
FFF0
0035
0032
0037
FFC7
FFDD
FFF4
0041
FFFB
FFE0
FFF6
001E
FFF5
FFF8
0028
0047
000E
0007
FFD4
003D
FFE2
003A
FFBC
000F
0020
003D
FFC3
0045
0021
FFF3
000C
FFF5
FFF8
FFBB
0046
0027
0042
001C
FFC6
002B
0004
0040
FFC1
FFD5
001F
FFDC
0031
FFCF
002F
FFFC
FFF2
FFDA
0047
FFD5
FFB9
FFFA
FFBF
FFE2
FFDE
0043
FFEB
FFE4
003A
FFFC
0014
0016
FFC4
002E
FFF5
001A
FFDF
0039
003F
0050
000B
FFBA
0024
0044
0014
FFD2
FFBB
FFEE
002D
003C
FFF2
0018
FFF9
FFBB
FFEF
0026
002C
0020
FFF3
FFBD
0042
FFEB
0027
0019
0003
FFCB
FFDA
FFB8
0000
001B
003C
0044
0048
FFE5
0042
FFF7
0036
0044
FFF7
001F
002B
0007
FFFC
FFD4
FFF9
0018
FFBA
000F
0001
0048
FFCE
0021
FFBC
FFD4
FFF7
001D
002B
0021
002C
0006
FFC5
FFDB
0035
003B
0007
FFC9
FFFC
0024
FFBC
0039
FFEA
0025
FFB9
FFD0
0016
FFFC
FFBD
FFC3
0048
FFC7
0023
FFC9
FFDD
0040
0017
0003
0033
FFD0
000B
0019
FFD5
0035
0002
FFD0
002E
003F
FFB3
001F
FFD9
002A
FFEA
FFF9
FFC1
0027
0034
FFBA
FFDD
FFF9
FFE6
FFDE
FFEF
FFCF
FFCA
FFB8
0045
FFFE
FFE1
0027
0026
FFE9
0047
0042
0019
FFDD
FFDF
FFF0
0008
0009
FFC8
0031
002E
0018
0045
FFDF
FFE0
FFE5
0041
0032
FFC0
001A
FFD7
0043
0005
FFCA
FFFA
0041
FFD5
003C
0014
0045
FFBB
001C
0013
FFFF
FFFA
0028
000B
FFE0
0047
002D
0048
001C
000E
0040
0035
FFC6
FFDE
0033
003E
0021
FFF8
0007
FFC5
0038
FFB8
FFD4
003A
FFF0
0020
FFDC
0018
FFC4
FFF5
001D
0039
0017
002D
000C
0033
002E
0048
FFD0
0007
0000
0022
002E
FFF6
0028
FFDB
0048
0033
FFF6
FFF0
0047
0033
0048
FFF9
FFE6
FFFF
FFCB
001F
0024
FFCE
FFCE
FFE9
FFF8
FFF8
0023
002A
FFFD
FFF9
FFF3
000A
0041
FFED
FFD0
FFD4
002A
FFC6
FFEF
FFEF
FFC4
0048
FFC5
001F
0036
0030
FFDD
002D
003E
FFCF
0035
FFBD
0010
002D
FFB9
003C
0038
002F
0013
FFD3
003E
FFE6
0006
0011
0024
003A
FFCC
FFBA
FFD3
FFE9
0033
003E
0033
FFEE
FFDB
0033
0016
FFE6
FFE8
FFE3
002C
0046
FFF3
FFEE
FFBF
FFDD
FFB9
FFF0
0005
FFE8
FFEB
FFC6
FFFF
FFF6
FFD3
FFDE
FFE9
FFF6
0013
FFBA
FFC7
FFBD
FFD5
FFDB
FFD8
002D
0036
FFCF
FFF6
FFC3
FFC2
FFFA
FFBE
FFBF
FFCA
FFEF
FFBE
FFD5
FFFC
002F
FFD3
0044
002A
0037
FFFE
003D
FFF2
FFDF
FFCF
0045
FFD4
FFD3
FFDA
002D
FFE9
0038
FFDC
FFD7
003C
FFB9
0036
002B
000D
FFE8
FFC1
FFDB
FFCE
0005
FFEA
0046
FFEF
FFD9
FFF4
001C
0032
FFF6
FFBA
FFFE
FFCC
0034
FFF5
FFBF
FFBE
FFE4
FFF2
FFBB
0044
0040
FFCF
FFDF
0009
FFD6
0011
001E
FFF5
FFF7
FFC2
0039
FFB9
FFDF
FFE0
0032
0005
FFF8
0047
0029
0014
FFD1
001D
0027
0038
0037
0043
0013
0002
0009
0046
FFCD
0011
0047
000A
FFDB
FFF6
FFF2
0004
FFCE
0002
FFCB
0047
003D
0016
0003
FFC0
0027
FFDA
FFDD
FFFE
0009
FFE5
FFBA
FFDC
003D
001F
FFBB
FFC1
0026
0039
FFF1
FFD0
0021
FFC5
FFC0
FFD9
FFFA
0048
FFCD
0028
FFDF
0015
FFC6
002E
FFD6
0043
0023
0021
FFF6
FFE1
002B
FFE1
FFE5
FFD6
0007
FFDB
002D
003E
0046
0041
FFD8
0008
FFCC
0006
000E
FFC3
0034
FFDE
0023
FFE9
0019
0030
0016
0013
0043
0047
0039
003F
FFCA
FFF1
000C
FFEE
FFE5
0023
001A
FFD4
FFFA
0018
0000
0010
003E
0033
FFCB
0000
003D
0011
FFF3
FFF4
0043
FFBE
FFD1
0005
0041
0025
FFE1
FFEC
0014
003B
0035
0011
FFF0
FFCC
FFBA
0013
FFF3
002E
000E
0007
0017
0013
003E
FFF2
003E
0022
0013
FFF8
FFDD
0007
FFD6
FFEA
FFF2
FFE1
0002
000D
FFFF
0013
FFCE
0030
FFD5
0007
FFE1
0022
002D
FFF2
0018
002D
FFD8
FFE0
0015
0013
FFC1
FFC0
FFE7
000D
FFCD
FFC0
FFF4
002C
001B
FFD8
0018
FFE7
FFC5
0025
0005
002F
000F
FFF0
FFFF
0040
0048
FFE2
FFC9
0017
FFEB
FFC8
001F
0014
0011
0025
FFE1
FFE3
FFCD
0032
001B
FFFB
FFD3
FFEA
0008
FFEA
000E
0037
FFC9
003F
FFE9
0009
FFDB
000A
FFD2
0041
FFF0
0018
FFF3
FFC4
FFEF
002B
0007
0044
0027
003D
FFE8
FFD9
FFF8
FFE4
FFC0
FFE2
001B
FFED
002E
0046
FFBB
003C
0038
FFCA
FFB8
0012
FFFC
FFDE
0008
000D
0004
FFBA
0031
002F
FFB9
0043
002F
FFF9
0048
001D
FFFD
FFE3
FFDC
002C
FFD3
FFD8
0021
002F
000D
FFC2
FFF7
0020
FFBB
0037
0009
003B
0010
0012
0010
FFF0
0034
FFD3
FFE3
0039
000B
FFBA
FFC8
0016
FFD9
FFBD
FFE1
FFDE
003C
000E
FFEA
0021
0044
003B
FFCC
0035
0025
FFBA
FFD6
FFBF
0038
0013
0036
0009
0035
003F
002D
002F
FFF2
003C
0045
001A
FFD4
0043
0002
000D
FFEE
FFDA
003F
FFFA
0029
0025
000F
FFF5
FFC9
0035
FFF3
FFE7
0003
FFE3
FFEE
FFDD
0020
FFFC
FFEA
FFDE
0018
0036
FFFF
000C
FFC1
0041
0035
FFBC
FFDA
FFC2
FFE5
001F
0047
FFD8
000C
FFCE
FFD8
001C
FFBD
FFF2
FFD0
0025
FFE7
0041
0038
0033
002A
0041
0010
0028
002C
0024
FFD1
0013
FFF8
FFD1
0010
003E
FFC8
FFC2
FFDC
FFD0
0003
001F
0023
0027
0012
FFC5
0004
FFE9
000B
FFD9
0010
0028
FFF9
0048
0003
003A
0038
0025
0026
0029
0005
FFC2
0047
0023
FFCA
FFCC
0014
0019
000F
FFED
0004
FFCB
0022
FFC5
FFF9
FFD8
0001
0011
FFD3
FFEF
0024
FFCC
FFC8
FFEB
FFF1
001A
FFC3
FFF9
FFC4
FFF3
0005
FFE0
0025
FFFC
FFE1
0025
0042
0016
000B
0033
FFCD
FFBB
003A
FFD1
FFCF
003C
0033
003A
0005
001D
0016
0024
FFF6
0028
FFDC
FFBC
FFCA
0032
FFC6
FFBD
FFC8
FFE0
0007
FFF1
0004
FFDD
0030
FFEF
FFBF
0016
002A
0029
002D
0003
FFBB
FFBF
0037
0040
0047
0046
0009
003B
0003
FFE6
FFEF
0036
FFF1
0015
FFE7
0046
000B
FFC5
FFBC
0016
FFEE
FFCB
FFFE
FFE6
0048
FFC9
FFEC
FFE1
001C
003B
001C
0012
003A
FFE6
0015
FFBD
FFD9
000C
0013
0000
FFE9
003C
FFDB
0013
FFB8
0027
0008
003B
0034
0045
0012
0020
000F
0040
FFD9
FFFB
FFE8
001E
0034
FFE9
FFD1
0033
FFC5
FFEB
FFD3
0003
0043
FFF5
001E
FFE1
001F
FFE7
FFF2
0046
0021
0039
FFD8
003D
FFC8
FFF5
FFED
0034
FFD4
003C
FFB9
FFFD
FFCE
FFEE
0022
FFD5
FFBA
000D
0036
FFEE
FFF3
FFF3
001A
FFCB
FFBC
FFF0
0018
FFC4
FFC4
FFE1
003C
FFDF
002D
000E
0046
0025
000F
0042
0047
FFD3
002B
FFFC
FFC1
0044
001D
FFC2
001B
0039
FFEA
0033
0016
FFBC
FFC1
0035
FFD4
002F
002F
0032
001F
FFBD
FFC9
FFB9
001E
0044
0004
0046
0038
0007
0033
FFD1
FFD7
0029
FFCF
FFE8
FFD5
FFC0
0008
0001
002A
FFCC
000B
0020
FFF8
0003
FFBC
FFE0
0028
FFE4
0039
FFDD
0008
0027
0013
FFD1
0023
FFEC
FFC8
0016
002D
0028
FFD4
FFF7
FFE4
FFF2
0015
0031
FFF5
FFF4
0014
FFCA
FFF8
FFC4
FFDF
0004
0045
0010
FFF6
003F
FFD0
0006
FFFF
0004
FFFD
FFE7
002A
FFD7
000C
0025
FFC3
0009
000A
0035
0045
FFBC
000D
FFC7
FFFB
FFE2
0022
0043
FFC2
FFE5
0008
FFE3
0024
0038
0028
0021
0045
FFEA
FFF8
FFE2
0048
0022
FFE1
FFE2
FFE1
FFF9
0004
FFF7
0000
002E
FFD4
0004
000A
FFBF
0014
0036
0004
FFCE
0027
0035
FFBF
FFF0
0019
0047
0006
FFC1
0018
FFC6
0033
002D
0017
0003
001A
FFDA
FFE5
FFD5
000A
FFF7
FFD7
000A
0011
FFCB
0037
FFF2
FFF9
0002
001A
0039
FFC0
FFBF
FFBF
0003
FFF1
0029
0000
000C
FFE8
FFCB
FFD0
FFE3
0022
003F
0026
0016
001A
000E
0037
FFFB
FFE2
002B
003A
FFCC
001C
FFE5
FFFD
FFF2
FFD0
FFEA
FFD4
0032
0041
003B
001D
FFFE
FFFE
0004
FFD7
0048
FFE3
FFCB
0029
FFFD
0019
FFEA
FFBF
0023
0024
FFFC
FFE5
FFE7
FFF9
FFCF
FFD2
FFBF
0026
FFDC
001D
FFC5
FFBA
FFBC
000F
FFCB
0010
FFD5
0009
FFEA
FFF8
0005
FFBA
001D
000E
FFC7
FFDE
FFE7
FFD9
0030
FFCC
001C
0044
FFF8
0004
FFCB
FFDA
FFB8
0028
FFC5
0014
0006
0032
0026
0045
FFDC
FFDE
FFF1
FFDA
FFC9
0021
FFEB
FFBD
FFE3
FFE0
FFEA
0014
FFCA
FFCB
FFCC
0016
FFC7
FFF4
FFF9
FFC4
FFED
FFCA
FFC5
FFBB
FFCF
FFE6
FFDE
FFC0
FFE4
FFCA
0030
0000
FFEC
0007
000B
FFFA
FFED
FFD3
0007
FFBA
FFC1
FFF8
FFEE
001C
FFFB
0024
000E
FFF8
0003
FFDC
0016
002A
FFC2
FFD4
FFBB
0013
0048
0025
001B
000F
FFF6
0008
0047
003A
FFDC
FFE6
0028
FFF1
FFBD
000B
FFCC
FFF6
FFE8
FFF2
FFCF
002E
0023
003B
FFF9
000B
FFFD
0038
FFC5
002A
0038
003F
0043
0010
003B
0009
FFF2
FFE3
0036
FFD7
0027
001C
002A
FFCC
0012
0041
0003
FFFD
FFC8
0046
FFC8
003A
FFBE
FFEE
002B
FFCF
0039
FFCC
FFF6
000C
0002
FFFD
FFC5
001A
FFBF
0046
000D
FFE2
FFE9
FFD8
FFF5
0031
0023
FFCA
FFCD
FFE0
0013
0014
FFE7
0005
FFE0
0023
FFEA
FFD8
0018
FFE9
FFC5
001B
FFF8
0032
0001
0009
FFD0
FFFD
002D
FFE4
FFFB
FFB9
002D
000E
FFFF
0013
0036
0004
FFC0
0028
FFED
FFE9
FFC7
FFD9
FFC4
FFF9
0023
FFFE
0048
0031
FFFE
0027
FFE5
FFF0
FFD7
0014
FFBC
FFC3
FFD5
FFD8
0001
0012
0019
FFC1
FFF8
000B
001C
FFC5
000C
0041
FFFD
0000
FFCD
001A
0026
FFED
FFE3
002B
FFE2
FFF6
0004
FFD5
FFCD
FFF7
FFF2
0007
0003
003A
001E
FFC2
001F
0034
0019
0006
FFC7
FFF7
FFE0
FFF0
0027
0040
FFC6
FFCF
0021
FFDC
0008
0024
003F
0011
0033
003B
001B
FFC7
0005
FFC2
0012
0004
0007
0017
FFCA
FFFC
FFDA
0015
001A
0037
0031
FFFC
0012
003D
FFDB
FFFE
FFBF
001B
FFF2
0046
0024
002F
FFC9
0028
FFD3
0001
0006
FFFA
002D
000C
003D
0034
0003
FFEF
0040
0032
0024
0028
FFDC
0005
001C
000E
FFCB
002F
003B
003D
FFC8
FFF7
FFCD
FFDB
0000
FFD0
FFFF
0012
FFE8
FFFA
FFEA
FFBF
002A
002A
FFF3
FFFA
000A
0016
FFC2
FFD9
000B
FFDA
0043
0009
0021
FFBC
0039
0021
0013
0035
000E
FFDD
FFF3
001C
002E
0041
FFE3
FFBB
0001
0021
FFDD
FFCF
FFC6
FFEF
FFFB
FFE6
FFC4
FFFB
FFD9
FFBF
0042
FFE9
FFDD
002E
FFEB
0041
0031
0036
FFC7
FFF2
0034
001C
FFD2
FFE2
FFD8
0038
FFD6
FFC0
FFBE
0031
FFC6
FFEB
0039
0013
0033
000D
001A
FFCA
0006
0028
0024
FFDE
FFC2
FFCD
0045
FFC4
0029
000A
0035
FFFB
FFDD
FFD9
0035
0011
FFCE
FFF1
FFCB
0040
FFD8
FFEF
FFB9
FFCA
FFC3
FFF6
000C
FFFC
FFDE
0034
0015
003C
FFF4
FFF5
001D
FFCC
0039
FFF6
001C
000B
0040
0043
0046
001D
0002
002B
FFE2
FFF9
FFF1
0039
0021
FFD2
0008
0025
0026
FFCF
FFE8
FFBA
FFF0
0033
FFC9
0027
FFE8
0006
0044
FFD2
FFDD
0016
002E
0025
FFC2
FFFC
0016
FFEC
001F
FFD6
FFF2
0003
FFF6
0059
FFCB
FFF2
FFD1
FFE9
FFC8
FFCE
0017
FFC5
FFEB
FFEA
FFCA
FFC2
FFBE
FFDA
FFD3
FFDB
0048
0046
001D
FFBE
0020
0021
FFF4
0037
0042
FFBB
0015
FFEE
0030
003C
0044
FFD5
0007
FFF2
0036
0013
0015
002F
002B
0043
001B
0047
FFEF
003E
0043
0013
001E
000E
FFE2
FFB9
FFDC
FFCB
0032
FFD7
FFCB
001A
0038
FFF8
FFFE
0034
FFFD
FFE1
FFCD
000B
FFD2
FFB8
FFC6
0015
FFFC
FFFB
FFDD
0036
001F
FFD3
003E
0025
0032
0024
000F
FFCC
0024
FFF1
FFB9
FFD5
FFBF
0007
FFC6
0005
FFC5
FFD7
FFBE
FFD7
FFDE
FFDA
0048
000D
FFD1
FFFD
000E
FFC4
0016
FFFC
003C
FFCC
FFDD
0003
FFC5
FFFD
0004
0014
FFDF
FFE1
001D
0004
FFC1
0036
FFE6
FFC8
0001
003C
FFFD
0023
FFF1
FFED
FFFC
FFBF
FFF1
FFC7
002C
FFBB
003F
FFD4
0006
003A
003A
FFEB
FFD9
FFE4
FFDB
FFC5
FFE7
0003
FFDE
FFBC
FFE0
002C
0016
FFB9
FFEA
FFC3
0038
0009
000B
0042
FFB8
FFF3
FFCF
FFD5
0017
0028
0004
FFC4
FFF8
0017
FFFB
001F
FFE6
0033
FFE6
0023
FFF9
FFBE
001E
0026
0010
0043
0006
0030
0033
0033
0027
0009
002F
003B
0024
002A
0024
FFD0
FFC4
0006
FFF6
003A
FFED
FFB1
FFE9
000F
001E
FFF5
0016
FFCE
FFE0
FFEC
0001
FFCC
FFEF
FFFC
FFF8
0020
0024
FFF4
FFD4
002C
FFED
0006
FFF9
FFE7
FFCF
FFBD
FFF8
FFBD
0002
FFE7
0036
FFCF
0003
0007
FFD8
003B
FFEA
0018
FFBD
0045
FFFD
FFC1
0012
0034
0015
003F
FFE7
0027
FFF1
0003
0000
FFDC
FFD8
0036
FFF1
0047
FFBB
FFDC
FFE4
FFC9
FFCF
FFD4
0040
FFC9
0002
FFDD
FFBB
FFC6
003A
FFFC
0009
002B
FFC2
0007
0031
0016
FFF8
003F
001C
FFBB
0041
FFDA
0044
FFCA
0005
FFF2
FFC2
0026
FFF5
001E
0035
003F
FFBC
0026
FFCD
001C
002E
0034
0026
FFDB
0019
0025
0016
0040
FFC9
FFDE
0024
003C
0026
0002
FFD7
0040
0002
FFED
FFD3
0007
FFEB
FFFC
FFCD
0026
0024
FFE9
FFD9
003F
FFF3
FFCF
003E
FFF7
0007
000C
0014
FFD2
FFBD
0009
0047
001D
FFD2
FFFA
000A
0023
0010
0044
0043
0013
FFBB
FFC9
FFDA
0031
FFEE
FFF5
FFC3
0009
FFEA
FFCA
0015
0046
000F
0003
FFE0
0034
FFBF
FFC2
0036
0032
FFBE
FFBD
0006
0030
FFBF
0025
FFE0
0043
FFB9
FFCC
FFCA
0042
FFF5
0002
FFC6
0025
FFFD
0029
FFDF
002E
FFFB
0002
001C
FFFA
FFF6
FFF6
FFD6
0038
FFD2
0028
FFC5
0032
0002
000A
003F
0027
0009
FFD9
002D
0023
FFFE
FFBC
FFF7
0027
FFEB
FFDF
0012
003C
0024
0029
0033
0040
0012
FFC7
FFD3
0036
FFF4
FFBF
FFED
FFF3
0018
0001
FFB8
0045
FFD4
FFD2
002E
003A
FFC2
0045
001F
000C
0042
0014
FFEE
FFFA
0038
FFEA
FFED
0015
FFE2
0015
0002
000B
000A
0034
001F
0028
FFD6
0027
FFF4
FFD6
FFE4
FFD6
FFDD
0038
FFDD
FFC5
000B
0033
FFF7
FFB8
FFDB
FFF6
FFD3
003C
FFBD
001C
FFF5
FFFB
001E
001D
0032
0045
0012
002B
FFE7
0033
FFC4
FFBD
FFFB
FFB8
0023
0040
0025
FFBC
FFCC
FFEA
0013
0015
FFC9
001F
FFD4
0006
001A
FFB8
000D
FFBB
002C
003D
FFF8
0043
0024
003B
0043
0016
FFED
0034
FFD4
0011
002A
003A
0045
FFC0
000C
0005
0034
0002
0028
FFDB
0010
0020
002E
0005
0047
0018
0030
0018
0040
003E
0000
FFC5
FFE0
003D
FFC6
0015
FFFF
FFEE
0047
FFB9
FFF1
0001
FFF4
0008
0032
FFBA
003D
0028
0021
FFC9
FFD0
002F
FFE3
0019
0008
FFBA
FFBA
000B
FFEC
0031
FFBB
FFE8
FFEB
000D
FFC9
001D
FFCB
001F
FFCA
FFE9
0017
0011
0029
000C
FFE0
FFE4
0029
0002
FFD7
FFB9
0003
0040
FFC5
0007
000B
FFE4
0033
FFD9
FFF2
FFED
FFBC
0047
FFDE
002E
FFE0
FFE9
000B
FFE5
FFC3
FFFE
001C
FFC8
FFCE
FFBF
FFCF
0011
FFF5
003A
002E
FFC8
FFCB
FFD9
FFE0
FFB8
FFC2
FFE2
0025
000C
0028
0036
FFBF
FFD9
FFDE
000F
0040
002E
FFD6
0000
003C
001B
FFD5
0027
FFD2
002C
002B
0014
001D
FFBA
FFF6
0017
0014
FFF8
0043
003D
FFDB
0037
0021
FFDF
000E
FFFD
FFB8
FFF8
FFFF
FFBD
FFD6
0025
003E
0014
0007
0000
FFFB
FFFB
FFF7
0006
0030
FFD8
000E
003A
FFF3
FFD6
0023
FFF1
FFEE
FFD0
0041
FFFE
0033
0043
FFF3
FFF9
002D
FFDE
0022
FFF9
FFF3
0003
0017
FFC0
FFE3
FFF9
FFF3
FFC3
0012
0020
0011
FFCD
0046
FFD2
0041
0019
0007
FFD7
0039
0040
FFDA
FFCD
0045
0033
0024
FFD7
0006
0019
001A
FFC4
FFF7
FFB8
FFE1
0040
FFCE
FFDF
003C
FFE0
0036
002A
FFE0
FFBE
FFEC
FFD4
0040
FFEA
0048
FFEC
0002
FFF3
FFC8
FFFE
FFD9
0034
FFC2
001C
0036
FFDA
0024
FFD4
FFDC
FFC9
FFF5
0029
FFD0
FFD8
FFBB
0046
0047
FFDD
FFF6
0025
FFE0
0034
0026
FFD9
FFC5
0046
0029
FFD5
0044
FFE5
FFD8
FFF7
003F
FFC3
FFB9
0015
002F
0044
FFF2
FFE0
0020
0028
0028
000B
0004
003C
003D
002A
0010
0047
0037
002F
0039
0048
FFBD
0001
003B
FFBB
001C
FFF1
FFD1
FFC0
0001
FFD1
003D
FFFF
0037
FFE9
FFF9
0044
FFCC
FFBB
FFBA
FFD9
000F
0025
0041
0008
0040
FFE7
0040
FFC5
FFFB
003E
0025
FFE0
FFC9
0038
FFF2
0023
FFD7
FFC0
FFB8
FFFD
FFBF
FFDE
0046
FFFE
002C
001B
003B
0001
0003
FFDC
FFEA
FFE0
FFBE
0029
FFF0
FFB9
003D
FFE8
FFBA
FFFF
0042
000E
FFC5
FFCB
FFCF
002F
FFEE
0003
FFE2
0006
FFE7
0037
0025
0040
FFDF
003C
0000
0039
0023
0007
003B
FFE0
001E
003E
0028
0014
FFD2
000D
0047
0048
0006
0031
FFF1
FFD3
FFD7
FFD0
FFED
FFDE
FFFA
FFDF
003D
0019
003C
FFEF
0004
0006
FFCD
FFBA
0029
0047
001E
FFE5
FFE8
FFF0
001F
FFD6
0003
FFE2
FFBE
0011
FFF6
FFCE
FFEC
0047
FFD6
0010
000B
000A
000A
FFD3
FFE2
002D
002B
001F
FFD7
0022
0006
FFFE
0005
FFE3
FFEC
FFF2
0011
FFFF
FFCB
FFD6
FFD1
0047
FFD9
FFC0
002E
FFDA
FFDC
0039
0025
FFC6
0046
FFBA
0030
FFBE
0019
FFF9
0008
FFED
FFD1
FFED
0038
FFF7
0036
000C
FFFD
FFD8
FFBE
0019
0016
002E
0016
FFE6
FFCF
FFF1
001F
0026
0046
002B
FFEB
0026
FFC6
FFF4
FFCB
0048
FFED
0021
FFE0
FFDC
FFBD
000C
002C
0023
FFDC
FFCB
FFDC
FFEF
FFEC
002E
FFF0
0024
0042
001A
FFC7
000A
FFBA
FFDE
0026
FFE2
0042
FFED
FFEC
FFB9
FFCC
003E
FFBA
0031
0007
FFDE
FFC6
0014
0038
FFDB
FFFF
0037
FFC5
FFB8
FFE7
FFF0
0032
0040
FFCD
FFBA
FFE1
FFCC
FFCF
0014
FFED
0030
FFC0
0017
FFF0
FFD3
0005
001E
FFF4
0011
FFF7
001B
FFBB
FFF5
FFD1
0013
0013
001F
FFE6
0047
FFC8
FFC1
FFE3
0013
FFE4
FFE4
0007
0041
0045
FFBB
FFF4
0015
0032
FFD0
001A
001F
002F
FFF6
FFFE
0024
0007
0043
FFC3
FFE6
FFBD
0013
FFBD
000D
0001
FFD5
0039
FFE9
003B
FFCD
FFF8
0014
FFCE
FFBC
FFD7
FFF0
000E
0001
0037
0044
FFBB
FFEE
FFFA
0021
0005
0023
FFF4
FFF0
001E
FFE0
FFF4
FFFB
000B
FFF5
001F
0040
FFEE
FFD1
001F
003A
0031
FFBB
0009
FFFC
FFC5
FFDB
FFFE
0035
FFC0
FFC7
0037
0000
FFF2
0011
FFF1
0028
0006
0028
003C
0038
000C
001E
001B
FFC9
0044
0017
FFEC
0044
FFEF
0038
FFC2
FFED
FFD1
FFF0
FFC5
0002
0045
FFE8
000F
FFCE
FFED
FFD0
0046
0021
FFF9
FFD7
0044
0023
001F
FFBF
0012
002B
FFD3
FFD4
0015
0008
0046
0041
0027
FFF2
FFFE
0012
FFD8
FFD8
FFFA
FFFD
FFE2
0004
FFD2
0026
0030
FFF5
002C
0042
FFCE
FFEB
FFE2
FFBB
0038
FFCF
0018
FFE9
0018
FFB9
FFC0
FFDF
0028
0009
FFEA
000B
FFDC
0043
0001
0030
002A
FFED
0038
003B
0035
FFFA
FFEE
0029
FFEF
0009
000C
FFF6
FFFE
0039
FFDD
002D
FFC4
000A
FFC0
0011
FFD2
FFBB
FFBD
FFC3
FFD0
FFFC
0020
0028
001F
000D
0004
FFEA
003B
0045
FFCC
0038
FFE6
000E
0015
0035
FFDE
002A
001F
FFE8
0006
FFFA
FFF8
FFDA
FFBB
FFE1
FFDB
0004
FFCB
0048
FFB8
002B
000E
FFDE
FFD1
002A
0007
0029
0003
FFE8
FFBE
000A
000B
FFE2
0005
0000
000E
0044
FFF1
0036
FFBE
002C
FFFF
0004
0017
002E
001D
FFF3
0040
FFC7
0048
FFF1
FFEF
FFD6
FFEA
FFDD
0026
003E
FFD9
0022
002C
0020
FFDD
FFC5
FFF5
0041
FFBE
FFF1
0036
FFF9
0037
FFEC
0021
0034
0000
001E
FFE3
FFF6
FFBE
FFF1
FFBC
FFC0
FFDB
FFCE
FFC6
0048
0019
FFE6
001D
0012
FFF4
FFC7
0045
FFBC
FFC6
FFC8
FFE2
0026
0030
0042
002F
FFC4
FFD6
000D
FFD8
0024
000A
FFE4
0027
FFDA
FFD0
FFE7
003A
FFBB
003B
0036
FFF7
004D
FFBD
0025
FFDC
002B
FFDF
0006
FFF0
FFBF
FFF7
0011
0018
FFD3
FFD4
FFF7
001D
0046
FFEC
000A
FFC6
0020
FFE5
000F
001E
0025
0007
0006
0026
FFF0
0020
0040
FFC6
0014
FFE3
FFFA
FFEF
FFC0
0008
FFE7
FFFF
FFD8
001E
FFFE
FFF3
FFC4
003D
FFD9
FFBE
0048
003B
FFC3
FFF4
0017
0025
0027
FFD0
0043
0015
000E
0043
0020
FFBB
FFEE
0008
FFBF
FFBF
0024
FFE3
FFF2
FFEF
003B
FFCD
FFE1
FFF9
0014
FFEE
FFF1
FFFA
FFFE
002B
FFC0
FFED
0041
0047
FFF7
001A
FFC7
0007
FFE0
FFCF
0040
003D
FFDA
0046
FFCE
001A
FFCA
FFDA
0037
0012
FFE6
0038
0040
002B
0002
0047
FFDE
FFDA
FFFE
FFD1
FFE6
0024
FFFE
0008
FFF6
FFF8
0020
001B
0032
0034
0032
001B
0000
0023
FFF6
FFD3
0022
FFF3
FFE7
0027
FFC0
0015
0011
FFE8
0034
FFEC
FFCA
0003
FFFA
FFC9
0002
FFFF
003F
FFF8
FFF5
FFDC
FFEC
FFEA
000B
0012
001C
FFCF
FFE5
0044
001D
FFE2
FFE5
FFF2
0000
002F
0010
002B
0006
0031
003F
0006
0038
0015
FFEA
000F
0005
FFE6
003F
002F
FFC4
FFF2
002E
FFD3
000A
FFC9
FFEB
0024
FFEF
FFE4
FFE4
FFE3
0044
0025
0005
FFD5
0005
0017
FFC5
FFB9
FFD1
FFFE
FFF8
FFE3
FFE5
001F
0031
FFCF
FFBA
FFF3
FFCB
FFEC
0041
FFC2
0025
FFF2
0021
000E
FFE5
FFE4
FFEB
0042
0040
FFC1
002F
FFD6
FFE3
0024
000E
001C
FFD9
001A
FFF9
FFE8
FFC9
FFF2
FFC6
FFFB
FFC7
FFC5
FFF8
FFD7
FFD2
FFCF
FFF1
FFC4
FFD3
FFCC
0041
FFDA
FFF6
0044
003B
FFDB
FFEE
FFF7
0036
0011
FFF8
FFF5
0024
0038
0032
FFC6
002D
FFF8
002F
002F
FFEC
FFF6
FFD7
FFD4
0012
FFE4
001E
FFBD
FFE6
FFED
0038
002B
0048
0025
FFFA
0024
0042
FFE8
0031
0033
FFE2
002E
0024
0020
0041
002B
FFCD
003F
FFC5
000D
002A
0033
0028
FFBE
0007
FFC8
003E
FFC1
0044
FFBE
FFD6
FFE5
003D
003E
002D
FFD6
0005
FFBC
FFE4
FFFA
FFD3
FFF9
FFB9
0032
002B
001E
FFCE
003F
002F
FFBF
FFFB
FFEE
FFCE
002F
FFDE
001B
FFE4
FFF1
002D
FFD7
FFBF
FFDB
FFC7
002B
001E
003A
0024
FFE0
FFF9
FFC6
001A
FFF5
0019
FFD9
FFD0
FFD7
FFE9
FFCF
001B
0013
0047
FFE3
0023
FFE1
FFE7
0026
FFC2
000D
FFB8
0013
0040
0035
0027
FFF6
0003
FFFE
FFDB
0019
0034
FFCF
FFFF
FFC1
000C
FFEC
FFEC
0010
FFC5
0001
002F
FFBF
FFF5
FFC3
FFC1
FFED
FFFF
0010
FFA6
FFDC
FFD9
003F
FFCC
0033
FFF2
0006
0016
FFC8
003B
0040
000F
0021
FFDE
0001
0042
003F
0010
0044
0003
FFEF
FFDC
FFF4
FFF1
FFDE
0047
FFFF
FFBF
FFCE
001B
FFDF
0046
0048
001B
FFD5
000A
FFF0
FFF1
FFF9
0015
0029
FFD7
FFCD
000C
0043
0032
0024
0044
0021
FFFF
0040
FFDB
FFCC
FFCC
FFFD
003C
0022
0037
0007
0018
FFED
FFE7
FFF1
0038
FFD9
0031
0030
FFDE
001A
003F
0038
0006
FFBC
FFC4
FFEF
001E
0001
0016
FFF1
0033
FFF6
FFDB
0028
002D
0036
0039
001C
FFFB
0042
0009
FFB8
FFE7
FFBD
FFEA
0035
0012
002C
