FFFF
FFA7
001C
FFAA
005D
FFD1
FFDC
FFE8
FFE0
FFAB
FFD4
0018
004E
0026
FFC2
001E
0050
FFFA
0027
FFCA
FFB2
FFE0
0012
FFE4
FFCD
FFB0
FFDE
0058
FFED
FFAA
0010
002C
0058
FFBD
FFD4
002E
0048
FFD0
FFE4
FFBC
002E
FFEC
FFB6
FFDC
FFD6
FFDF
003C
005F
FFED
FFE5
FFE8
FFE8
FFEB
FFEF
FFCE
0016
FFC6
0017
005C
FFB2
FFF0
0019
0034
0020
FFCA
0018
0026
004D
FFD5
FFEA
0010
FFDE
003C
0032
0050
004A
FFFC
FFDF
FFC9
FFC0
0008
FFE6
004D
001D
FFA9
0056
FFC7
FFA0
0005
0023
0027
000E
FFC4
0039
FFB8
004D
FFB7
0014
FFEF
FFCD
FFC8
FFB5
0053
004B
001E
0046
FFB1
0014
FFCF
FFBC
0016
FFF0
004A
FFE0
FFD8
001F
003F
FFE1
FFB1
FFE9
0048
005F
0058
003B
004A
FFDA
0041
0018
FFEC
FFB1
FFB1
FFC3
FFB2
FFEC
0004
005C
FFC8
0056
000A
0040
0006
0017
0004
FFE2
0047
000B
0033
0000
FFBB
002D
FFE6
0031
0056
FFDC
0036
0012
0017
FFC8
0045
0021
005C
0035
FFC0
FFA9
FFF8
FFF0
FFEC
FFDC
002B
FFCE
FFE9
FFFE
FFD9
FFA3
FFAA
FFBD
0005
FFFD
000D
005A
FFD0
003B
003F
FFE4
0039
000F
FFD1
0005
FFFC
0022
FFF8
FFE1
FFFC
0029
005A
0046
FFA2
0039
FFC1
FFC4
0018
0018
FFD8
003E
FFEF
005A
FFBC
FFF1
0004
0023
002A
FFB0
FFEB
0047
FFE1
FFF5
0046
FFAD
FFE4
FFC3
FFF5
FFD2
0036
FFC3
FFF0
004E
0053
0028
FFD0
FFC0
FFD0
004F
FFC1
FFA1
FFC2
004F
0023
FFF8
000D
FFA0
FFBF
FFD3
FFD3
FFFA
FFEF
0049
0051
0028
002F
004C
0052
0026
FFE1
004A
0025
FFDF
0028
0032
0056
0031
FFA3
FFC4
004A
003F
001C
0029
0057
FFCF
003F
0016
0058
0053
0004
FFC1
0008
0039
004F
000D
FFD4
FFC7
FFFA
FFBA
FFC8
0051
0033
FFCE
FFCE
FFFC
003E
FFAD
003D
0034
FFD5
FFD1
0038
FFBD
FFC9
FFD3
FFAE
0048
002E
003D
FFAA
002D
0045
FFBB
0023
003D
FFD9
FFAA
FFD8
FFF0
0022
004C
0041
000A
FFF5
FFD3
0031
004D
FFD2
FFC5
003B
FFFE
FFA7
005D
FFFA
FFB5
003A
FFAE
0015
002F
0016
FFB7
0059
0059
0046
FFE4
0052
FFDE
FFD2
0057
0020
0013
FFAF
FFE9
0008
003E
FFE1
0043
002D
0051
FFF0
0053
FFDA
FFF6
FFC3
FFD1
004F
FFCA
002A
FFCB
0017
0048
0049
0006
005C
005A
FFD9
FFD2
0054
FFE0
0021
FFCC
002A
FFE8
FFFD
0049
FFF6
000E
FFEC
001E
0031
0060
FFE4
FFB3
003F
0030
0024
0046
FFDE
000C
FFC0
FFBB
0009
001C
FFA5
001E
0052
FFE7
FFC6
0038
0021
FFBA
0026
FFFA
000D
FFCA
0030
FFF3
000C
002A
0031
FFF1
FFF4
FFB6
FFE1
FFAE
FFC8
0053
FFB6
0002
FFEE
FFFA
002B
002C
FFD0
0049
0044
001C
003D
FFB3
005E
0000
0027
0024
0052
0014
0047
FFBF
0031
FFCD
0028
FFDD
0041
003E
0005
FFB4
FFFA
0024
FFB5
FFB5
FFA4
0051
FFAF
FFD6
005A
0021
0005
FFC6
0042
FFDB
FFB2
FFA1
0060
0059
0036
FFCD
FFB1
004A
FFE9
FFB7
000A
FFAF
0016
0035
001F
FFFA
0025
004D
FFDE
FFB0
0003
FFC3
FFAC
