0019
0003
001B
001E
FFF0
0014
FFC9
0000
FFF3
0016
001A
000F
0007
0026
FF9D
0033
000E
FFEE
FFF4
FFFA
0026
FFD3
FFE5
0022
FFFE
0027
0030
FFDE
000F
0015
0003
FFEF
000D
001F
0034
0016
FFE5
000C
0009
0010
FFD6
FFEB
FFC9
FFD0
FFE9
FFF1
FFFD
FFBE
0020
FFE2
FFF6
FFEF
0011
0025
000A
0009
0006
FFFF
000A
FFE6
FFCA
0014
0006
0007
FFF5
FFF6
FFFD
0014
FFEE
FFEC
FFEA
FFA2
0000
FFCF
FFB8
FFDC
000F
FFDE
FFF5
0014
FFEC
0025
001B
FFB4
FFF0
000D
FFBE
FFC7
FFC5
0008
0018
FFF5
FFF2
0011
FFA6
0040
001C
0005
000D
0009
000B
0005
0010
0008
FFE5
FFFF
0022
FFD8
0023
001A
0007
0071
0012
0000
0006
003E
FFC1
FFD8
001B
FFCA
FFF2
0014
FFD5
FFEA
FFB9
FFEF
FFFA
0016
FFF4
FFCE
FFE4
FFF3
0011
0005
001E
FFE7
FFC8
0002
FFF5
0025
0036
FFF8
FFC2
FFFA
0033
FFCB
0014
FFEF
0006
FFF9
0025
000E
000A
0009
FFD5
FFFD
FFD6
0041
0018
FFCD
002D
FFE2
FFDD
FFF9
0010
FFF4
000A
0017
0048
FFD1
0018
0045
FFFF
FFFD
0008
0001
FFE7
FFF6
FFD7
0000
0030
FFE9
0001
0032
002C
FFF6
FFC5
001A
0017
000B
0023
0038
FFCB
FFE1
FFF4
0019
FFFD
000D
0009
FFCB
0003
FFDD
0003
000D
FFF1
000B
002E
FFBC
0060
FFF8
0080
000A
FFC2
000F
0015
0022
001C
FFF3
0019
0038
FFE2
0031
FFFD
0014
FFE8
0016
FFC5
0017
FFC7
FFE6
FFCE
0008
0002
FFE9
FFDA
002C
FFDB
FFC2
0003
002B
FFFE
FFE1
000F
0022
FFED
0010
FFEB
0001
FFF0
0012
0007
FFE2
FFF3
002E
FFBD
0013
0007
0007
001B
FFD4
FFFF
0011
0005
000C
FFF5
FFD4
FFF6
002F
FFD5
0018
0019
001C
000B
0002
000B
FFEB
FFD9
001B
0010
0024
0011
0022
FFFC
0043
FFF6
FFF6
0018
FFCA
0027
0002
FFEA
FFF0
000C
FFF8
FFE4
0014
0032
0004
0021
FFFB
FFE2
0015
FFCA
FFCF
0027
000A
0009
FFEC
FFFB
001E
001C
001F
000E
001E
FFC1
FFED
FFC7
0002
002B
FFF2
FFE7
000C
0008
0036
0031
001B
FFF2
0015
FFC4
0001
0024
0029
FFF6
0017
0042
FFED
FFD8
0010
FFE8
FFD6
FFFF
0000
FFFC
FFF1
FFE3
0021
FFF8
FFD2
002C
FFF1
0008
0003
FFCE
001D
FFDF
FFCA
FFCA
FFEF
FFFB
0005
FFE8
0012
003C
002A
FFE0
FFF5
FFFA
0011
0017
0003
0016
FFEC
FFDE
FFE6
0001
FFE9
FFCD
0006
FFEF
FFF9
003E
FFEA
000A
FFFB
001A
0022
FFEC
001A
FFEE
FFD0
0008
FFD4
FFF4
FFD1
FFFC
FFC0
FFFD
000D
0028
FFFC
FFE9
FFF0
FFF7
FFD3
FFF7
FFF3
FFF1
0008
000E
0000
FFDA
001C
FFCE
0006
0016
FFF4
FFF4
FFF7
000C
000C
0004
FFD2
FFE0
0008
000C
001D
0004
0004
0016
FFEB
005B
0012
FFEC
000D
FFFD
0027
FFF5
FFF3
0012
0013
FFF0
FFDB
FFC7
0013
001E
0020
FFFE
0020
0029
FFE4
0028
FFED
0017
0023
FFF0
0010
0000
0012
FFDA
FFF9
FFDA
0020
0024
FFE1
FFD9
FFEA
FFF7
FFF3
FFF4
002C
0028
0028
000B
0004
0017
FFF1
0029
002A
000B
0005
000C
FFD5
0037
000F
001E
