0000
0052
0027
FFDB
FFD6
FFA3
0042
0034
0051
FFDF
FFC0
FFCA
006E
002F
005B
FFAE
0021
FFD5
FF92
0045
005E
006F
FF96
0057
0013
005B
FFC9
FFD8
FF96
000D
0069
FFD7
0051
FFD4
000A
FFAC
0043
0070
FFD5
0038
FFC6
FFD6
0059
FFD3
0054
FFBC
FFDA
FFF2
FFBF
FFB6
FFA1
FFD5
FFCA
0006
FFAF
FFCF
FFED
000B
FFE4
0022
FFDF
0067
003D
0017
FF93
0009
0068
FFA3
FFCD
0040
FF99
002A
FFCE
0048
FFA9
001B
FFC7
0031
004A
FF9A
0048
006A
003F
FFDF
0016
002D
001C
0020
0015
FFB2
FFCA
FFDC
FFA4
0029
FF9D
004D
000E
FFD7
0033
FFE9
FFA1
000F
001D
0012
FFD5
003F
FFB0
FFEB
FFAF
FFC8
001B
0022
FF97
FFD4
0010
FFE6
0064
0061
FFF1
FFE2
0000
FFED
001B
FF9C
0022
FFA7
0012
000F
0070
FFD2
FFF1
FFB2
FFAF
0019
0038
003D
0056
FFAE
FF9F
FFD6
FFE4
0009
0028
FFD5
FF9F
FF97
001C
0021
0070
FFAF
FFC6
0011
FFE9
002A
FFEB
004B
005E
FFA9
004F
004C
0029
002A
FFA2
FFFA
0011
0069
002B
0067
FFE2
006F
0042
006D
0067
0066
FFF9
FFEA
0050
FF9D
FFC5
FFCE
FFD7
0026
0066
FFA1
0056
FF96
FFA9
FFF8
FFF3
FFD2
FFDB
FFDD
FFD3
FFEE
0022
0008
0051
006D
FFA9
0070
0053
FFE8
0062
004A
0070
FFFC
0015
FFD0
FFDA
0063
005B
0046
0035
0033
0063
FFE9
FFA2
FFD6
0010
0044
FFE5
FFEF
0039
FFFD
003E
FFE0
FFCC
FFD5
FFA4
0033
004D
005E
002B
0011
FFE7
FFFD
FFDB
001A
FFD5
005E
000A
FFC1
FFCB
0064
FFF9
0022
0029
FFC4
FFE1
FFED
000E
0025
FFB5
FFB7
FF94
002F
FFF8
003A
0018
FFF7
001F
0064
002C
FFC9
FFE0
FFA2
0000
FFBD
0007
FFF6
001E
FFCB
FFC7
0052
0005
0009
0063
0005
000D
FFEC
003E
FF9C
FF91
0024
0009
FFAB
0018
FFD6
FFF6
FFA3
004F
000A
004D
0025
0033
0029
002F
0050
003F
FFEA
0039
FF93
FFCF
0030
FFB6
005A
FFB3
004F
FFA8
FFCF
006A
FFB3
FFE7
FF92
FFE5
FFB3
0032
0062
FFC1
FFCC
