memory_initialization_radix=16;
memory_initialization_vector=
08D3DC2F1202037218F7251AC5FB361A,
086205D82914F11801ED1F3348593AD3,
1D0F25159B650A7F71F5546A340B51A1,
1BCEC051EACF03341222B9013034EB9D,
28C8DB152DEC0DE2B22A07B2E79127CA,
0729F6FF2A7412F9E1A01A8D0CD5B6AD,
3A0E4FE0C93AA4F258126E6BB582274C,
C8ADB27840F63813071EC4AD71901866,
5E12FB07EB3EB45271E20F1C20563493,
49C747142C38EB68205E28B5438D16CC,
058E0B5CE3DB4638232BC54C2E4A7F1E,
29DB2959735F5CD9FAF7F2F92A4AC466,
FAEDE4CAF4D544E8C937B1C910DFB6D5,
5AE306E4F474B43E0DEC58A01EBBFE98,
155F27ABA457FC567CFD728CDD9A18EB,
5312CC61EFC858D9BA3D2381328E1C85,
783C4DCF2DE300E36D3E56056000FFAC,
7F0957DF05F3F1121EA6FEB26FC9F30E,
FFCD962344DB582DD822C4AA679068C0,
CD16FD516C3CD41EDFB2B5A16DF80AF6,
08E50519491349B6B750F76FBB5CD9DA,
35D10F505E260289D5D13FB97EEEF2C1,
2DE15AF656CA1BB662F128A02F021201,
4FD66AE927B4FFC13E135008D4ECF798,
144F5503111AF336512A38ACF8540ACF,
02E82DAB9061AE06613F5B27CBA5F710,
E5081202FDB251CEAB2AC8F92ECFF232,
E2FD04297FE665EB96FAAC8C7F1F5B11,
58E3EB4107033F055010402DF9685FA9,
F59CDF25221C4F18E5C40BA031344434,
22FB2FB5D0FCB32058F059A6156A71C4,
583D68D84808E7AD18AADE366FF935C3,
8D6FD3CAB244BC160C7FE6DC8690F859,
EE6050AF35312517182E1D2EA160F3D4,
AFF63D36FB1D2554E412D03DC93CBE01,
FEC732271CF62EBFC4C9E24042C8FEEC,
4DF1480FA825D52E25294BC50459711E,
4346DED8EF3FFE454B2A1086D2AA6255,
6EEB01D36EDFE5FD23E0131409B83FD9,
0C231EF3C22A21D9EB34B649F62ED3BE,
82043115247C00DB9D22E1AC8B8A8A49,
49C504605B3B3421EC091BD23CF3FBBB,
DF5B22959339AA6C13FEE492CDA634AB,
EF64F7230B55CE2598E5E0E1C3A1A6C0,
3ACB3BFD15FE2497CB14DA53211DE081,
CF41D2B53C5CF82AD635FCA6C81AFB58,
C9069A441114266C3439AC793D6A6188,
975AC79AFC06C9E8F852D21A9120B23E,
4CFA05F5D1B6241D4748537B38E62D1F,
C65BD7FAF22C06FDAC22B231A9D1BE84,
21425ABC5CDCE5ECDBBD5762DA34619A,
09AE30FD45C451C10EFF4ADD2D9E11A6,
2A217FC6C5699E2B62157F11EEB92F24,
A6012FE82B7FC7D5BDE41650FA8F9C08,
1362EDB02554A6B6A02CACABC948AEE1,
08492506EB6D0508CDFAC05BF78AAECD,
45D464BAE40C21BE2F1B590147484BDA,
293755DAA071E42C6CF74D6E0C0BBC97,
378EAF465F346D68D9A8FFDC78192758,
AA81C613C8DE3BEBF372111CDA041C5B,
0EF40B41621235E8A6B19ECD6B211D68,
CF65D6972A54D2D9B1E2D5B1A0B0CEA4,
1DE152FA244ECA14319B386B31FC0304,
BEBEAB5C5DA533D6C35CFA7DE8822E4A,
4CC228121634EA4213DFF4D2270263ED,
65F1F8DAD152F2D1EF9B2691018A4350,
E94A3B2B327F1DE8E417B39C122DB434,
0E3C660534DDB8D560F5384E642B5240,
CAB9E9F303093B7F2132D86AEC364DE7,
8629FE370539F216D761882CF80A9FDE,
3F96D86FDF1BFB31F505D331DAC960D4,
46DB3715ECFC3295409861B26BA02839,
4227529DCD2FF307485D50FD1E6555D4,
05DEF26B48126EAA93AAF5DF5C0E4A82,
AD2EE7B8A368D0D81DFBF4719A82F0CE,
A851EAE5E56EC4DB160F18EBACA80E07,
10858A286BA15BF6E3F89BDF79B1FBF4,
1AEA291CAA52E4180076EF9FB0D52ACF,
F8D5D6E80DB4E02E697F237D0D385A2C,
C3850B53F4B55747CFF2009EDF2069DC,
4A5A43DF5F61BBC348A11FDF36331353,
1D4234F148B1E7F4332D6494158121C9,
D49D483F329C1721124F5096099D56E2,
0691B449F742E57A3913F2AA2388475D,
CF47D5E9FFEEF251B23B00C30E08BB53,
04E71DF87AC3250A25C81B2773254B5A,
A5DFE54B4DA152108115D2BBFBA0366D,
03F0F119FE5EF52D72341E24E804DDFF,
DB19004232174CE7F8301F1FC586F89C,
F3F7877F3A057F3ED6B6C3B324D429E3,
6A4062AD6AD5CB1A54CF4EA451D95764,
1810FC2E0BDE679BB24A018FBDA7E72F,
12F254EA1E2DF4DA5916774AE6E10706,
71011C153314ED0114303FDC59D4691B,
FA4EE6E5113EC7ECACAF99A6D3FBDF5A,
A9BDB61F2B05D915221EEEEBCA44EC9A,
00000000000000000000000000000000,
D0A3D1CD090A2651CE38E65264C327B3,
C3614D55BD6EE6E86D13D16A3635963D,
D0BACD377DF2410D0770D653290A20F9,
DEEA23F266BC2635F454E25F28D3D2D2,
0117D181DAD216FAC3061486F435B906,
6CAF148208533DBB6F9F130CADA1A15F,
078DB8342D25F0E4ECF33B6A3030F0B1,
2CA0285647E20C7FD6345712E1CD2C92,
E3133E0FFF48A327FE2119263426D76D,
8E89DDA22D193FF9FF6047782FEBCA1C,
200002F46BD8445BB67C2EEC28F0B368,
5EBA6468944460351708A6D88F1E2E38,
E8DF6528C434F7D551B40BEEF1CE1167,
35349B6641F307110929BD6F57C7FAE3,
49294CBC703621DED903EE5F17FB52C5,
5CE0C907A73AF2E7298810FBC238DCAF,
B431B8DE00E9E54301F12208D36C1AAD,
CDB9E3982805E0505706E66D11294544,
8C81BB0D3CE85E47FB2F13EFEBD6D981,
625094AFB7294DDE15869130D41CFB16,
C71BDF12F3152F5BC71101E10B2218B4,
F9D4ACF99E1009F13DA201B1A149E7AB,
145CD0EFC2F51023DA364CE8EC2260FF,
64D18CE2A51D9632DEDC2AD5D22ED317,
A65D2DA14813BB251F03DDC4FB4E7ACF,
191ACEAF3B3FCDB8082DE7300E1C292F,
B6D795F78AD2D6FA0BA15081E128FF12,
0A1CDA1FFAF17F6E4231F1F6BE21B1AD,
46EBD1AA27D42546FA4316F23CE9C3AD,
0E52C08D43D91B0EE04F4E3425E5421F,
99C351B678E71EF0D62C274736C23506,
ECA8C11D81540F111D8D9DDFD3EFE0F9,
55D09B7C23D2E1F01D44F416DDC11E9E,
5B8C4B67200FFACFDC1E3F05FBF74CA2,
B3B0CAB95124F9FC1054E6094AE26EEB,
0A4BA4B0ED4B09373282ADDFEC08E3CB,
D2222C5C5CBC022EC756353963DFE0B1,
3C143701313018BFD0163C757F01250F,
DE5B870ACF34C51C020A37ECBDE9EF47,
BF982F72D70EFBB0F42C5A3125B3618F,
D81B38A939073BD550C937CCF6D15A99,
0E8F03A63BF4704612DD1A2D4D228E2A,
FA2E15001311FA1E190B485479D46D43,
358D9FC50D1CF3C6E4E703EC04170159,
2770007402C51405E51737F3D05C9EC8,
1D0CB3BED50EDFF060D7CEF8009BAD6D,
92B3843F5CC25FF2BD3B3C593E97D3AC,
26131C9EF61414A1322F480FF813AEBE,
DD45B702FF15F61906C12001DB6325B3,
E4BCB1FE18C504B02AFF3AECD6F8F263,
7F1FB90DA225921C05CE46AAD12D3803,
BC82F4F509BC2A19B1D510D71A75AABD,
56B3861BF755D2CC121A38701E323E53,
F1FB86E0095E009B5DB9C131CDC0ACF8,
BD2E318FE533EBB33FA2D648ADFA8A35,
EDC136E8E82FE827421144F6C720466A,
395B43C0DE01B04FE18E27CF9F7FF0C8,
B696B54B3443C9B1E668F7746C0E7F5E,
D42E074F66D53127E0F5390732ECC612,
290E2D2C44C2FE149606EAD0F8DA8FC4,
FCB52B2BE2F75C6304CCFDF7D8BFCECF,
E3575DF02E4C039CF9E739092133BBA1,
2CB2FF2ED55EEB3A7FC78134BA108FED,
395AF593D2F05E5EB6EC52BBB3F53A04,
55A98BDF39C0095AE30121D0DD393E06,
644367AFD2691C257BF0B61AEEDAA1D0,
520738E31B420CBA0FDAEAE4FD0AE18A,
DB9B95E4E55194F70F2BCB23F34E3826,
46F382AD68E82434DF244D5145D30157,
D8BDCE840206F41838D513FEC8035B89,
EF93F9ED5C084C5FD40260477CA252B2,
E6BFB694A024A35C60E5A3C21C37B2E7,
FE8FC754200FBAEE0E56480D49286312,
603B57A6EAFBF7EF0E81E599DAE438E8,
43D5C4082DF2E2B9F5303AF8EB314985,
EAF6FB9B3EE6DAC742DD2EE25CB0501D,
BE992502F0F16A50E0142122F8F48240,
D447EF8A71EC21F8FE5509F0532B36A4,
419D814D53ED0A18DE6EFA474C3E74B2,
BBC5AF3733A7255DDF360DEC1DBB8BE3,
0F0D920BE77FC62F45FFD25C06D50BED,
0A842949E5F2E1CAA91EE8D7E14B799D,
1E8A1E5BCCB9C427C82B3CF80A5944CC,
C63B9A6B4E307DE50572C67941E8901F,
CB0DEFA543FF3E1231E72811FF0AF409,
FA478EFC8C02B22BF3904FFBBA7DEE4A,
2C62CCF305C9E91B1A1329CCEC45A098,
CEB8D71E363806D9B96BF3245308D168,
E12A429CD3C4121EDA2A5DAE0A44D9F9,
C3B1528A28D17219260D3E03D6E62FCF,
B73586F9D551FE481A05DFCAD940C2EA,
6942C83AD7170EEB1CFC3DB0D41820BB,
EDFFADD837CBC62EE8F6EDC35323BF12,
53B48D83A9E6DC041286ECA4F748AECE,
07C7F5EDA061EC0879DEAE60BCB01FB0,
1E9F55BD3E1908D8D76A1D4E72CFB68B,
00000000000000000000000000000000,
A9CAD9ADBD735FFB08210B20FF174B2A,
B6B4834C853AB8C75508EEB703591F17,
A252375141221A0F761BDC2A0CDC5E63,
ED40F33CF31476FCF56D1399081053A5,
2B0C9C715AB8E1FC97085F40BFE2D3FA,
3B2535429A0FC5C7043A4BEE2240E750,
92816EDE035AAE584430082C42404B58,
F8E4492B422351CE9C54E8D3439110C4,
066CE19E1957FEDB56CDC7CBD737076F,
B7906D8AE52E360B7260D60518F54D11,
B7A49A39306958ECFE71370F35C16B12,
0A0F2D30B92A04EABEED4CC7696427EB,
36CE0F49C7F2DD38C9CA1659F5E190C9,
C05C3BA9E4303DCB660D14F554365536,
89C6F9790B6417F969F39645EC735258,
473FF6088228B2FBAFE74BF61DF1E1FA,
0AF88800F9D9EB11BDB1C94812420ECE,
C533EAB2F60626D36A0F3608F951260D,
C96154958708149C3224649B29AC4FCA,
FA4DD7010326CEA631074B0F1C16F7AE,
1E0682B02CC3391FA1F04C0CA7E390C6,
06AC5804819AE1F501F66FF74BFDC3F6,
EBC5CBF7C158D401E3D6CDF2C90A0621,
11CCDEE0D30D0809B3C9FC5F4325F2C0,
E7EECC94B4F8D11F33E1DA46E03E1E51,
CEB02EC642F8B14E1BCDD15FE85D4061,
5232C38E86B62549B2E87F08CFB0E1CC,
09D0828C81ED25E5C46A73C873EAF59A,
FBA681F43F3929062D3312080F1C4125,
10E67081D1D731EFE3FF5F1AE3D0C781,
AFF6B8250D33DD137225BA2BE3406D08,
31EF12CC4F9DC8033DFC39C17B6E1E28,
3C5F477CEC9B1E1E40492C5893FBAE1F,
3931C2CFF2329E2BF1121677C7572AE8,
039EA55C0CCA3FE92A17E70B1C164A54,
49E32CBD4EC7F7FFEFB03B195D16AF0B,
F4E6FDFAA81CFD373D161E3CCB436552,
90B6F0DAB97DD33211F59115CC3E7E63,
F8F7835B0C9F10C621EB5C1746575027,
3329736E0BF51961601CDE6B162BCBF2,
5D4295909A9EA24317242612D9B8AAE4,
CCFAA5E5A4533DB22D352DACFDD6150A,
E0B14AED0A0E231263EFAA1CFE290A35,
468E001CC8BCE403DFDE0200B49FAAD3,
14C3C8D2EE041E03CFC6482EE9EEB9BF,
361A1BA883CEA43E425DD32626172D14,
156D4E59C82249B74B4EDCCB31B04830,
6D6EE1CB571B312F0A03F932DAA9C100,
4C3BCD1EFDF5D238C6BDF8642C061808,
19470C95AB0114042C2AE8E4AB9E1DDA,
68A66FB5B4E722508F81450D2AF00114,
4037D50405EEB7361CC8D537CA00C1C7,
EAFAD4139C72AF7F7FF3B96EF7432B70,
1D91B617868481365D384E090DF0F031,
22098242879D940305F8671506FAA8DF,
1E97750CC8FB2E1A3F141F42ECDE2D39,
518CBF6BB8ADA344D6F9017FCF51B0BC,
EADB4DAB5057B7764B3BDD27BE715440,
EB27C9F48427729D0B4CFDAEE6AE15D7,
1ECCE13ED8FD1E29E82940F506B7EDA6,
5604E01A391939D0AF3B2FC5F9C20482,
5E06CEDBE0A08E016CFA1C54DEBEFB15,
2422C49B5E01D52842B628CE737F4C53,
1A6C0DA8FF0E03AD8512F9120E89E9E8,
F99EB3B432F2F5ED04E4F3E5374856F7,
BFB0C1D9F7C199CF2D2C40AD7F73062A,
44BC936DA1180947E8381F3820B70120,
10A374C6AC210939F99CFED8477047FB,
D88B87BA30F960D1661CC8D6BD0D683E,
6ECDC6BEFDCCD343C4F1670DC9A39FF7,
C3B354B9DB540EBD4336C9C0BFBC74C9,
E5895BB1BB0EFDF73BA5EAEE231BF6F6,
D1E84EE6D519342159DFC5231BFE7F58,
6E1D4DEEE51FD328D9EA65051807B785,
103C6B8689D9293C2316DD46DBCEE848,
0528E85B54ACF04CF820EF689C06DCFB,
CCCCF3A1A33610C1144E47874010D9BF,
B7D602D3E15D395406F5F45C18D22576,
F31A8861B4D65051FA21CB39EB153322,
1CB6671A25B148AFEC103802D7911CE9,
E1886053E73192DCDE2B49D56051465A,
5247369F2013025503EF057CE824D718,
0B34FC102ED1374B16CF0F5E0512EDE0,
AEA95AE7E0014DA24062318A4AE964EC,
F1F7B08E3E842127FD2F282CBED7D503,
00238B5F38B50513CDBBF5EA2344CBAD,
5EF0870A87B6EDF789B5293DD48A98C4,
0C13F8283F59221A59220045E14C3610,
2FB0039D8E02282ADDFAF32E9F29ECD9,
10B76A89BBA8598BA523750564D3BDD4,
D1C899D80B40E40DD1A7000C3E5FF80C,
7F696F6FFF221C1499DA4618F23DB4C7,
DE5AF0798DCE08F31E28E40EC258260F,
0B1CC17BA9F224D797F224FAEE5FF216,
F7DE84D00581860818E6341A3FE7CA45,
C82FB926490A19F96178F4E70DEB1810,
00000000000000000000000000000000,
FA30E4BD531733DFF5E2D7ED376429CD,
0E3F53E0F95738F232234EB1C5E09CF5,
9A2ACED04DFFBF08BBF9D233AE9E2EA8,
0DD411965A5554D881080BD5EAF562F9,
6ADA4F40B712CC34F8F142081B8165EC,
EB4CD918BA20902EF0C311B158439AF0,
A240CB1AD21DB4D22367FECEAD94A3B2,
00230A0E2F1E025363EC380420BE7160,
EB520BEA44CD66E0A258CC0EB90E0548,
0256F4BD37069392FD57C7BF4BDC40C0,
0BDFE9FC081DB8F6F7323AE0DB5B3514,
3EA97FF08E624E6561071C1A102183B6,
2E35DF4B35EB9A12F8DBEC1C93BD36E5,
CF24FAD20709EAEBD60D4A0814D7C852,
D03EE90430E547AC5E161AB41AC4E0D3,
72CE0117B4D51025AEE252642F8644BD,
21D8163CB2D401DA916C21D354105304,
244D4EF91D1A23F3832D42BE3E83E62D,
F73B5FAF592F136B3E0A0B639A975409,
402860D1A34E4F5D72DC6BBE668895F0,
62E4EB2611F203679BC94290AEB670D5,
F5F26126F44A973796207F2AE355C2FB,
23AB362FD2F0FEAB0D7FEFE3CF1B26A6,
11F5253BB4F1D5BAF3136E3D0E611D34,
3DC0E037CDD32F9CB2380299ADF7F91B,
D109B1FDD20FC7CFCB0C2401E14BB509,
7F0F3F2DE7D9816DF7165401D0B305F8,
14D777FE3C7F3C731FEF20FD3318DFE0,
484BFCFFC50E5ACA7C1D43B9B0DC33D1,
2CEDF7AB1CF9953BBEC034D5588975DF,
CD6AB8F33EE4D1812E78F82AF8494E51,
59B3282FEF452658D6FB1EFA0CA8EE27,
E96FEB0B58BDE73930B8ABE32AC21645,
24D8F94A16C64317EAEA010EB4F930CB,
1636F9244C0A405359F7A4ACAE95B2BE,
FF9D3D36861A1300D11CF3F0C902A41B,
0D36EC291CBFA8D5CD250BA53CA52703,
CC0EB80241EF54AAA86513D381920A20,
20CC34E0A73BCE22BC264CA1C6001B42,
E06BB0285FEA9EF0EC96BB41212306E3,
BB70D76D22F88E2386E28EF8918904C2,
0FD12AEE3B0F965C62F92E911D8152C8,
1413134C79C5DF1CB9E9BF0E5E91EF3F,
C82FDF026102F52CC004C4C2030746F6,
2098F8FF97DB1F5B95D2298933595CF5,
CE4DFE0E1C1BDBE11FE1EAC572C7C8CE,
AE61151F7FDA12F6B0DCAEB6E083E4DD,
BF12CE2C60DAC51BCCB3901C94DB2FE4,
14AEE62BF0F447002278F4222ED1ED11,
0058B52546ED4C4B11EFC035AA25E6D3,
5C95255C9CF60C475F07508F01E34239,
592BEF5B1AB6970DA0E42C5C19225293,
FD6BD2610F0802C5BE1DD6C188F7AAC5,
CB54060037368A3E65E1ADF7669EA7EA,
B350F858233891595EC419484AA920FC,
DC30E6E0DBF5582C8AF7BA16CD5123B2,
36E64A36ADDA0D06CEFF6A8FF14F37CD,
F278030A2E0D38EFAB35C2EF2789EAB5,
03CC3BC2E8198FD9FCD7035E89D9601E,
2CF4291250EA30388CF0D5E687125494,
57FF58BCCF309174DBD9F1E4BC1056B9,
C425BDFFDC165AFABFD20B81C2BC2AC9,
55090E03910F410342E26BDD7920F5E5,
FFDB5ED93CF9927D32CAF0581E305FC6,
43F043D4BC2C1EA3526817045AA80CD4,
2EC7FDF6AE559ADFC83852CA0F1C814C,
A5601FE02539643D2CBBD053682BFDD7,
EE123615D51DBFF0EE5C3A4C3B1C3272,
EB3AEEBB02219805C039D8BB354A3EE8,
1123B36C0AC609503BEE17B9EDEB3906,
EA5B1CE634ED3C338EDA3E31E3CBEE2C,
FA9E67FAC8366FBA01393834604BD101,
BF32DAD41FF9688A0829C38E3AFF0972,
2BAB3FF59D46254C5A2A6CB4C785CE0C,
D2F7E56D0EBBCDF348E9C11CC58F1003,
F64AAC626DDD180CE7C48E5689433C3D,
6DFD1E812E1F443DF61856FB83DCEA14,
F37F14F4510FCDEAEDF3C402DC05DF0E,
3D10F8381DDAA2DA43FEF96A5CC46421,
F9DF451F292C8CDC6FED124A15FA79F5,
FD2F5BAB97458B1EA7DC55542D41981B,
DCA5DD510F02FA1AE35E40AC4FC9571F,
411CE5351DB2862B726004D2F7DA4FE1,
B93E1D90465741FBB3C6D9EEBF96DD9B,
D16CE86457E4EB1D48ADCB4CE8D241F4,
699B4AE2A205CD05154A38FA2B0F2AE7,
69BCDE4F48CFB20A24B0344CF9165E21,
3D140EEA3CD392F2B01F10C04D8D52F7,
23F404F3FDAD2C128D142CDE494FEC04,
4AEB5CE8536A5C546AEE2718B62CFF2F,
6FA4F3BCB12AB2FE826820B5601DF571,
0EB24A59F2F855FB7AD8479AF8B10E1A,
FEEA020114E5E7E39B67384C462962DB,
69A9045397181448CB461720CED2E8CC,
E611FE110F143B7390EC1CD12BABAF35,
0522CEDB49FA263790D5FB54E6B45C81,
00000000000000000000000000000000,
88E738197427356657E3E20BC470A146,
DC36F92AA3ADC5C6A7AFB26730D349C8,
028566594EC0CE5B8B17453E0EDCC91C,
395DDD1FF5B05BE59AC3ABC0231E0147,
B55A291E3850E29BC7553B9CF6161439,
F0E50DE2C72F05FE99E554F31B1924BE,
A5FE0BE3A8A4D50FE213A9CD359D359A,
27FB1956FD36EBB43CF2EDECF28BF102,
33D218061AACC5DD3910C70ADF31E3EA,
C5A8185567A6BF17B023BDD6B00290EE,
39983F70EBAD1B46A10C93C6FE169735,
13FF9841DC33D4E31AC9CA6BFF8DED09,
CB5700D6F1774DD58123851A02D44AC8,
F62EDD4847AF04E95A115A4E50B7F60E,
BAF4DD1EFDAA8357650D4AB6C223CDB5,
BFF81DF730313554FE223E9CDD2C1017,
F5CC35D04115FC22EB613150DC95C10F,
3629D90CD0AFDF4797EE945B67532AC9,
D818530AF20954BE15E91AA9E5361F64,
AE319AFDF50933B9B5DA5CB14695320E,
842AFEEA353674A6AAF6C5DEC35230E0,
8BDED60EAA0711EAD5FD0AC1F05CD72F,
0D654514F512E2AB861802EDA677D71C,
F6D4DF1D080ABD619D764FD0ED9F19B8,
4ABF6E25F51B2911486D48DEAF6C9AEF,
A1F2D9F4E0E3DABACA0B1D133832F3BF,
26623612CF7E741EDF1322F832B1422A,
01D82206D3036FA299A58E131EB7EF7B,
9CF11D47FD24F8D311539452A981D736,
81CFEC3E7BF36134951E8AAFFF3ECA5C,
0305F26AFD9DF6ED67195DD9B5C7DBE0,
5937CAE0815BFD528BDCFD1A50384794,
1AFC1CA5BC4C3C8E271156FE0B8604D5,
3BE743A81250E793D60BC361FFD2399E,
9605360CEEBACF8CCAE155BA03C30750,
FB07A803A2F31EFD43DB13154E962907,
332901DEF6B318FA6956D48FF507B30A,
C2AF1653DA97A215A72E1F18B3B80136,
1DBFED475642F9E30142549A12E2CDEE,
05C5BBBF2F611DBECD9BF3DF3FA03834,
26EDAB909D52F7ADDACDB5C8F84373CD,
10834ADBD4062254FB0243C1E01EB730,
C3AC2446E3DC00946211D0BF4D2FE419,
55B20FBD4362420DF3FAAD8B3BC652F5,
A038160A3D6851B4BF51B444FE0DCCBC,
BD95ABC5B9D1DA11E6DBDE366CFF39F2,
A68F6A263AFCDD4CCDF9E0E2E148275E,
9D92F1C6DA2A549F5C000688272119F4,
D260F800083DB1D90C7FB66BB64DECE7,
E3B7D9F2F8252EA5BD03EE8A432E263F,
90AF02F2050FFF21652A2DB632101A88,
8FE63F2A4D0C045F9B4990DAA48401F0,
5CD03138D707A28556250C422CF9FFFB,
34C6E4C203FF1E0F15B4002D37366A14,
B16892921703E60F27F7F0D34F9852BA,
02C4B615D50F5388ACF1A08B0C4442F0,
E56342E25269331C20448D04F062C7BE,
1EC40BD4FCBEDA13041B265ED24F0103,
3BCE1BEE47EB3A1666C8182EF2D9B93C,
B6C333515E03FA123BF329A4E8C1C407,
FCCCC2C9611D719D3604BC09EBDB147C,
1AEDC7C0902CE5D13CB7A8F002104E27,
5ECBE104BA0CB7BB3DC9DDFF76930BE8,
8A24131D66667F618F31451FC2A0D216,
F2B1F302111A2F1CE94ABCC1C838BE09,
E1A5F356C4C8D8CC28D52D917FD4E7C3,
DEB115E60022004CF6D49E86F78E601C,
FACA3D7F4CFFEBDDCA2A81D747A82EC1,
99FF453840A417A62DD39A2ED3DFC5EC,
0E96CF0CCD3D1985F0DB132847045F00,
35A56D4A3D9514DBAED637BCD491C555,
C74BC823A91CAD4F89058B3D606A13B2,
1A251030DA9197B65155373FFDCFB9A1,
16F6EBC92037601DA31E9DC7FB170F2D,
C5F2EBF50F5B40DB57BFBD31ECB7E918,
A94343AFFFEA311D671CB71222183FFF,
27173CF45CE300B33C14B0631C44E233,
C7A93628D9BEBD86431C33EED5F33129,
460C7F4B4EDE08D5893BCD8AA472AD0D,
034869595A3155B03F175CAAAC74C466,
0530B452D9D6C411B8AE348130334017,
C59059D74BF8D40E037C9F0C8F89F620,
EE93653DF53A48480055B2DFC199DAE4,
EAD846762DCB2781DAA4EE94D48EFA51,
5E8134C0F20A32D694C1AC6C02045E4B,
A6C3D33D394D299F8C65C154E88A15AA,
D9671621FF7F79CE4C499F48F1C61B16,
42DF484D20BB0BC052171999F29F1A33,
23F629EE7226399EAE623CE48D6DD511,
0B202334033C65CCF4C1F141EF17487F,
4C4B1446D934EF225617C582F904DF9D,
F2BD33C83A4F64EE36458BB4F5E312B1,
E205315CF0F0DE3CCF7613FCD20981CF,
D9C4D11C372CE6F68B420D33EBA5D3ED,
134197D1F45A1F185D93A5AF6B282AFF,
86926B4E1A93295D4132E7BEF13BB764,
00000000000000000000000000000000,
F50009B4D5C812DC481F449D01E2F109,
2C48FBB415F7F419B60BF8C36271639E,
018B2490DCABB0AEF1EEE0ABA190CA4C,
11A29D674DFD9BC24229513FCAC61D27,
C55F2EFAC2D2E2F82A6BE57CB6D5CBB1,
788C034F233BD101EDC818C7A03D3F97,
4E89698B4438C8FDC49C013C450DFCF7,
E78D9CCE873A85E6F8400F66811D06DC,
3E152CEA9C22000ADAE2C29BBFFAFAC4,
F6FF16EE08DA02A0B2BE1CCC3487BA4A,
B7A9D391BAE0D4C9D00A4BDC8F81BEB1,
7FDAE99B0E7F371216CC459FBB6B79D7,
FF910AAD35C5577034DFF0DCC2311BAD,
273535A80C291F22BA0AB40EB2D42ED7,
DBA92B1E8227D611858DD3DC020E15CD,
FBC34537E2F1F2EE686F2F1AA961DBD0,
FCFE33B3983BF3B95519CC1126EAF2A5,
6BBC4A54E0ED4D0B91CC03F8BB285C90,
18CBC915E60EF01AE4DB38C52004FFDB,
2692C522AF48733B0BD04CA9266A7FA9,
C63610E5D1D110D27F69E0FD49F4BDFA,
0DF55FC5C71C56E3FB16FB254E7932A1,
D75F7F902F1AEDD63B1A19CA05ECE055,
C3C56683284661D81735F6C12458140E,
D702553997F216A3E04CF1F924F4A793,
0681122CF81CD7DDE20BE55AB3653655,
E09136C9B62744D76673214A8D6DCBCA,
34E6CBBC815B35501C177F7749F43D1E,
021131B92FE0E6973AFBD7B2DCA3C5AC,
B1B5E6D0DBB0DAD5784165CCDAC11525,
25D15E12F1A9E8CB98AADC439404D037,
164DFEA01906225CF6C1D523AC6366F0,
E5A7E1A61FE80C4595B5DC289B5341E5,
E03458F2E7D9D24416C3E65036281CA3,
3DDC9F5292DB8E280ECA05EC3830445B,
3B50143E847A7A07220708BAAE181F29,
0506101293C081A5E801F1BFF4D4AD50,
15A7DDD047E5C1C5D4C52473D39ED442,
D72AE51A414C02A157EA095811ED2474,
D813F740C3A2C71EA717E8C8B1324781,
2427E341D7A1CB7FFC17F7EB86F91BFE,
CBD0CE431CC7CDE157194AF9F5F50D61,
E1BDE4C404D8943CEBE00981AAED1B26,
FD90AFF49B39CB5E46C42306DE65F661,
06973E12C4FC4E2239511F81C342B743,
27DAACF65B1EB90D8EA3DF9FD6363282,
270AF79A94F5B506471B4C4EB19CDBEF,
DDA6EEA384CC2442AAEF09CF5D354961,
D52A4A1A9557F5C24315B81BE22FBBEC,
1C188D228E0E3D7D1DC7DF82523620FA,
C385590E944A22FA0665BB0C0D05F697,
13AF4E5CC5CC10B03A272A8105E224DA,
338C42C26BC7B4FEB0F0CC820DF31BAE,
F924E091FF1A0C28D1E8C437015E75C9,
5C1A8DCB85E7E97221E8C97D11095E29,
043AF7D03D3ADE01B1DFCE93D04D4BEC,
EFFE33B5EC386BDF6515F93710F8C6D0,
3E203BFC64DEC5DFACE305FD3E40E868,
BE87E9B1BDDB05D543E630EDB889DDBE,
DB09132FE018DFEF1C4939DA1FEF975A,
CAB812CF2CD1E433706F6F34CFF3FEFC,
1843E5645A152F7592AFC8EC85512AC1,
64404B50F36462DFC9F80A4625556803,
EDF3EF46643F39E0367345F187CBA149,
019D6598F5E65CCD2E2938E638C3FEF7,
5E5D4057AF5F1AF49EF8F4D19D715241,
53408CFFD02F146DD2E61A6C9B64FEB3,
1AB1638106083E0FB7F7ADD91B522705,
E681CC8D3CD69F102DF01292FDAFD39B,
404485D1E9D61869264817270B745364,
CD93B3A8CCCD93CD1CFFF9335C9FB4AE,
F98955214D7E3B101CF0C361BD1613EF,
023A6928C03F81B603C8ECB9F2FB01B5,
26F04C5C434907EB2B6C48BBD228EEF7,
1238CBA229F81416DED21F91C92A4106,
D542EAA02D9BB234B0F6F4BCD4454E41,
D4F1A145121D09CF5FD43839D8D721D6,
1688B22D3A19E128F60620F8ACF81324,
DBFF3E30C5A709964D4BE2964CE39A39,
99F2C9DAD9E9B3DD370D028E3B9EEFD4,
71DCF9BF63F83B4893EDDE10856A4AA6,
BD587A5E022C2AF95458F2B45FD90818,
E1002985853531B374F90102BBD8DBA3,
495BDA0A86171BE0C7C123FA52FB0605,
D18FBCD85FE8A17FACB72DC446F648A9,
23575B45251C3FD53418EAD447FA2228,
CDD20D1205FA25C3667F539A221ABCEB,
0AE428CD6913CCB23FD2E646F8D9CA53,
CE11E84DAED6C6C5005E08ACB2BE914C,
E711F6C889D70414471952741C1D43C0,
3289573D5142F0C0C11ECFA66BFF16EB,
28C54BC29B4B38F83E621DB2561BD13D,
ABB26F9592479FC34BF11AD6A09AD4A1,
BA375614BA6644CE4468DAD8EE5CEC28,
27E6F7EDC5010B0EB51DCABADC403B5C,
1421ABEBE8951FE620B90E4CF7F8D848,
00000000000000000000000000000000,
0000000000000000000000E0E6EC082A,
0000000000000000000000A80C2D1905,
000000000000000000000016E9061126,
0000000000000000000000B7CD191339,
0000000000000000000000EB200F0AE5,
0000000000000000000000A251A5162C,
0000000000000000000000F821020099,
00000000000000000000008136CAD106,
0000000000000000000000EB1921B1EB,
000000000000000000000011C0384D00,
00000000000000000000004823EABE1D,
000000000000000000000002B0183B19,
0000000000000000000000E8B2522F0F,
0000000000000000000000F83690063D,
0000000000000000000000F9B87F4F81,
0000000000000000000000AD0FEE1F5C,
0000000000000000000000FB15200308,
0000000000000000000000EF050735B6,
0000000000000000000000D92089620F,
0000000000000000000000F83F0AA6E4,
0000000000000000000000232F24B938,
0000000000000000000000FD213235AA,
0000000000000000000000B42E2DA7C7,
0000000000000000000000409E0FD424,
0000000000000000000000ADD92D24FB,
000000000000000000000014AF4DCC55,
00000000000000000000002A01D7D74A,
0000000000000000000000E444508BBD,
0000000000000000000000ECEBFBE21A,
0000000000000000000000F1D923F523,
00000000000000000000001512D72805,
00000000000000000000002D1B13E1DD,
0000000000000000000000104EA6A10E,
0000000000000000000000A84E32C13B,
0000000000000000000000E520A3E559,
0000000000000000000000F4AEF9F86E,
00000000000000000000000E22AF0DCB,
000000000000000000000035A80F340F,
000000000000000000000028EF3F810C,
00000000000000000000000E36DB9B12,
00000000000000000000001D2CA1FBD4,
0000000000000000000000D8F742F6D6,
00000000000000000000005CEFDB1EE3,
0000000000000000000000FE1FE11C04,
0000000000000000000000DDE206F1D8,
0000000000000000000000FCEBFCF7DE,
0000000000000000000000F51707EDFB,
00000000000000000000004ADCB65A91,
0000000000000000000000BE9444CE4D,
0000000000000000000000E70C3125CB,
00000000000000000000001E00DFE0EF,
000000000000000000000015D04615F0,
0000000000000000000000E8E4DBF01D,
0000000000000000000000C4D1034341,
00000000000000000000009629E4181E,
000000000000000000000026EF1B0D0C,
000000000000000000000036C81412F7,
0000000000000000000000191EFBF1EB,
0000000000000000000000FF9C11D459,
0000000000000000000000331F4CC1BD,
0000000000000000000000381A9529BC,
0000000000000000000000D7B3182B29,
000000000000000000000049350AAAFC,
0000000000000000000000E5D006540A,
00000000000000000000002AA14BBA20,
000000000000000000000045BEBDBEDB,
0000000000000000000000E4E6FFF3FB,
00000000000000000000004CA037FE1D,
0000000000000000000000000809EADF,
000000000000000000000028DF0F09DF,
0000000000000000000000BB1FE72EDC,
0000000000000000000000E8F60DEBE4,
0000000000000000000000F7040BD1F2,
000000000000000000000030D14731B9,
000000000000000000000047DBBF7085,
0000000000000000000000C9F41F0AC1,
0000000000000000000000B8132EFF17,
0000000000000000000000D6272E0DC4,
0000000000000000000000F706140BE8,
0000000000000000000000E51009DB23,
000000000000000000000005E405F2CA,
000000000000000000000054CCEFB133,
00000000000000000000004AE0C20424,
0000000000000000000000160E2828D6,
000000000000000000000014DC1CD7E5,
000000000000000000000012B03C0C18,
00000000000000000000002006145AA5,
0000000000000000000000EADF3550AD,
000000000000000000000048E607C0C6,
0000000000000000000000477F25B7D7,
000000000000000000000006CACF3749,
00000000000000000000000A10F32BEA,
000000000000000000000013F62415EB,
0000000000000000000000B422A13D27,
0000000000000000000000112C28DDF4,
000000000000000000000036ECF3BF4E,
00000000000000000000000000000000;
