001B
0099
FFC5
FFBD
FFF6
FFCB
FFA9
FFFA
FFD1
0082
0025
0006
FFDC
0096
FF88
FFA2
0084
FF97
0078
FF6B
0065
0076
0043
0063
0047
0083
FFC1
FF90
FFA6
000E
FFCB
FFF2
FF6C
0046
0025
FFD2
0024
FFDE
0036
001E
001A
0045
001C
0044
0095
0011
0037
0092
FF9B
004E
000A
FFCD
003F
FF9B
0056
004E
0097
0045
0070
FFDC
FFBA
0091
FFCC
0011
