FFE5
FFB4
FFA4
002D
FFB1
FFAA
0012
FFF5
FFD4
0038
0058
000A
0042
004B
000D
002A
0049
0045
FFD9
FFEB
FFDB
FFE4
FFAA
0041
0028
004E
FFB6
0001
FFC3
005C
FFCF
FFF8
FFAC
FFE0
FFC7
FFBD
FFF4
0037
FFBC
000B
0012
0027
0058
001C
FFF5
FFD1
FFA3
FFC4
0019
FFE1
005B
004F
0048
003D
FFF1
FFB0
0043
FFD6
FFCE
FFBB
FFDF
FFF9
FFB2
0017
FFBF
FFB6
FFA4
0047
002A
FFB0
FFF8
000A
FFA5
FFB7
FFFD
0060
0060
0010
FFD3
FFEF
FFBB
0047
0033
000C
FFFB
001E
0004
FFF3
0052
0060
FFB2
0002
0033
FFC6
FFC8
FFEC
FFBF
003B
FFC3
FFC1
0046
FFE4
0019
FFE5
002C
FFE4
0027
0024
FFF3
FFCF
FFA9
FFA4
FFF1
FFC7
000C
0050
0022
0028
FFE7
003D
FFF8
FFFB
FFF4
FFE1
FFD7
005B
FFE0
0047
FFBA
0035
002E
0040
0032
000E
FFA0
FFBF
FFF7
FFA2
FFD3
005A
004C
FFB6
FFCB
FFCB
002D
0020
0030
FFA2
FFAE
0022
005F
0026
005B
FFFA
FFB9
003A
0001
FFE5
FFA5
0019
005F
FFFB
FFD4
0060
0006
FFFA
0013
0050
0019
004B
0028
FFFC
0049
FFDA
FFD1
0021
FFA4
FFA1
FFAF
FFEE
0000
0017
0022
FFDC
003F
0021
0049
FFD6
FFFC
004C
FFD2
0020
FFE0
0012
FFB4
FFB9
0027
FFE2
FFAB
001C
FFBF
FFFF
FFFB
0033
005E
FFD9
FFC0
0028
0035
005A
002A
0048
FFFE
0002
FFEA
FFCB
0043
000D
FFED
FFD7
001D
000D
FFEC
0036
FFB9
0006
FFEF
FFA7
FFC0
0001
0017
0002
0014
FFD6
FFFB
0055
004C
FFE8
FFFE
FFE3
FFEC
FFA0
FFE0
0048
0051
0054
000B
FFE4
FFF2
FFFD
0046
0024
0010
0038
FFB8
0035
000D
FFC2
FFBE
FFF7
0032
FFCF
FFC3
000F
FFCD
FFAC
005E
003B
FFD0
0018
0001
003D
0055
FFA2
FFC8
FFFC
FFA0
FFE4
0043
001E
FFB3
0014
0057
FFD9
FFF8
FFBE
FFC7
0016
FFFB
002C
0056
0031
0058
FFD8
0019
FFB4
000D
0007
FFA7
FFDD
FFE6
003C
001F
FFD5
FFBA
0050
FFE3
FFCF
FFCF
0030
FFEF
001B
FFA4
0031
FFA8
FFFF
FFF9
FFC4
FFAC
0030
0041
FFCD
001D
FFD9
0001
FFE5
0039
002C
FFD9
FFCA
FFB9
FFB1
FFF8
FFC5
0053
FFA7
FFFC
FFD5
FFB7
0045
FFF5
004D
001D
0007
0032
0047
0045
FFD4
FFE7
0045
0055
001D
0022
FFE2
FFB3
FFBB
001B
FFC9
0023
FFD2
0038
0027
0046
FFDB
FFF5
0048
0038
FFA0
FFD1
0001
FFB1
FFBB
0036
FFBA
FFE6
0000
002C
004F
FFDB
0028
0052
FFF2
0050
0060
FFBD
FFC9
0054
0003
0027
0012
0047
0047
FFF4
0015
0001
FFBB
000A
0043
0004
004D
FFDC
FFD1
FFE4
FFB4
0042
FFD6
FFF1
FFF3
0038
0009
0022
001A
0031
FFE4
0006
FFD8
0039
FFB0
FFFF
0037
FFA7
FFA5
0055
FFA7
0053
FFF7
FFBE
FFF3
001F
FFB6
001F
0043
0033
0022
FFBC
FFE8
004B
FFCB
FFAC
001A
FFB2
0001
0009
002B
003C
003C
FFD1
FFCD
0041
0034
000C
000F
003E
FFDF
FFF8
FFCF
FFCA
FFE8
FFEE
FFCD
0000
0001
FFED
0002
0059
FFB3
FFA8
0008
FFCD
FFD6
0023
0048
FFBA
FFE6
FFB6
0049
FFBF
0018
0053
0035
FFBA
FFA4
0043
0058
0022
FFC4
005B
FFEC
0046
0023
FFE1
005A
FFD4
002D
005E
005C
FFCC
FFA0
FFEF
0049
FFA3
FFF8
0044
0000
FFD9
0047
0016
0010
0030
002E
002C
FFE8
0003
004E
FFE2
000F
0002
FFA1
FFA8
005B
FFB5
FFA4
FFF6
FFD5
FFF9
FFB4
FFBA
002A
FFC1
002F
FFDD
FFE1
002E
0050
001C
0039
FFB9
004A
0030
FFA5
0052
0053
FFBF
FFDB
003D
FFC1
0017
001E
003F
FFD2
0017
FFD6
FFB2
FFDA
002A
FFE6
FFC0
FFF8
002B
FFDA
FFDD
0007
FFB9
FFCF
FFAB
0050
0060
FFE8
FFBD
FFA6
005B
FFF9
FFE0
0043
FFEA
0034
0015
001D
0057
003A
FFB0
FFE7
000C
0001
003A
0009
FFDE
FFFD
FFF3
FFAB
0020
0045
FFFE
0057
0020
0012
0046
0015
FFBA
FFB7
0003
0008
FFF4
FFF2
002B
FFBA
FFD4
FFAA
001F
0047
004B
FFED
FFCA
003D
FFC8
FFB1
FFD8
0036
FFFC
FFD3
FFAF
FFBE
0020
FFAB
FFD8
FFC7
FFDE
0039
FFFC
001B
0039
0014
005B
FFB3
FFC4
FFC9
FFB3
0058
0042
FFDB
FFDB
0013
FFFF
FFD9
FFDB
FFF4
0022
FFFE
FFDB
001E
FFAD
FFFD
0059
004C
FFBC
FFA5
FFA4
FFDE
002C
FFCC
FFD4
FFBA
0034
FFCE
0022
FFF2
0045
FFB0
004C
FFBD
005D
FFB3
0019
0011
0017
0057
FFBF
0039
005B
FFA0
FFB9
000B
0052
002B
FFE9
0045
FFA1
0026
001E
FFE3
003D
FFF3
0049
005C
FFF3
FFA4
0031
FFE3
0060
FFAC
005B
FFC3
0031
000C
FFC5
0045
FFEF
0009
FFA8
0019
FFFD
002E
FFAA
0055
000D
0037
0028
0011
0007
0039
FFB2
FFE3
000C
FFF0
FFBB
001E
0017
0019
FFA8
0056
0017
003A
004A
004A
FFD6
004B
000A
0030
002E
FFCF
FFD4
0058
0012
FFB3
FFFB
0010
002C
FFDC
FFE1
0045
FFEB
0050
FFB4
FFCE
FFE0
FFA3
002C
002E
FFF7
0013
000D
FFEA
FFC5
FFAD
0039
FFD2
0055
0009
FFAC
FFE0
002F
FFE1
0039
005E
003E
FFD1
0040
0035
0057
0016
0036
000D
005B
001C
001F
FFCB
FFE4
001F
FFF4
FFF4
FFB0
FFB9
003A
FFF5
FFA1
0027
FFE2
FFA8
FFAC
FFB3
FFD7
FFBA
FFED
FFBD
0059
FFF4
FFCC
FFC1
0000
005A
FFB8
0021
FFB6
002B
005D
FFF7
003C
0000
0039
FFFF
FFDB
FFB1
FFC8
0029
FFFB
0016
0032
FFD6
0019
005B
FFD6
003A
0002
FFCE
FFB6
FFB7
003D
0032
001D
005E
0055
FFF1
FFB3
FFCA
FFB6
FFEA
0052
0028
000A
FFA9
001F
FFD0
0045
0007
FFE1
FFF3
FFB2
FFD1
FFF4
FFAC
FFD6
0045
FFAA
FFAF
0058
0002
FFE4
FFB5
FFBD
FFDC
FFD6
FFBE
0001
FFB3
0025
FFE8
003A
004D
0036
0020
FFDF
005C
005B
003B
0012
FFDC
0038
0024
FFD1
FFBF
0037
FFD9
000A
FFFF
003C
FFF3
003D
002E
FFBB
0047
FFCF
002F
FFCF
FFBB
0045
0052
FFD7
FFFD
FFEB
0029
004A
FFB6
003A
FFE4
000B
003C
005F
0051
004A
FFB8
FFC7
0047
005E
FFAC
0037
004C
FFE5
001C
0057
0012
004A
0053
FFAE
FFB5
FFC5
FFA5
FFA6
FFDC
FFB7
0030
001A
002D
FFFC
FFAE
002E
FFA2
0017
0009
001A
0025
FFF4
0000
FFA5
FFBA
0041
FFDC
004F
FFED
002B
FFC3
0058
FFF0
0000
FFCA
FFEF
0018
0039
0021
0029
0044
0009
FFBF
FFF1
001B
0002
FFD1
0049
0051
0018
003A
FFA0
0003
FFAC
FFD2
0021
0016
0027
0059
FFC7
FFB1
FFDE
0019
0041
FFCF
0018
FFE7
FFFC
FFAE
0013
FFC8
004A
0015
0016
FFD5
FFA2
FFF9
FFE3
FFAF
FFF5
0030
004E
005C
FFAD
0053
0014
FFA7
0026
003F
0030
0020
FFBE
0008
FFB5
FFAE
0021
FFFF
001C
FFD8
FFFB
FFF2
FFF2
FFF4
0009
004F
FFB1
FFB3
FFA6
0012
000D
004F
FFCC
0033
004C
005C
FFA6
001E
0011
FFCF
0002
FFC6
0003
FFFE
004D
000A
000B
004B
0058
FFE9
0018
0034
FFD6
0016
FFEA
004C
0048
002B
0022
000A
FFF4
004A
0005
0032
0038
FFC6
FFAE
0002
FFA6
005F
0043
FFF4
FFED
FFB5
003B
0016
001C
001B
0031
FFE7
0023
FFFB
0002
FFF1
FFE9
FFBD
FFA6
FFC3
FFEE
0025
FFBA
000B
003D
005C
001A
FFA0
FFD4
0019
FFD8
004A
005D
FFBD
FFCD
005C
001E
0042
0010
FFAD
FFF6
004D
FFBA
005A
005E
000C
FFD3
0020
0027
0051
FFF8
001C
000A
0053
0021
0039
004C
FFE5
002D
0053
0023
0028
0040
003C
FFCA
0012
FFC5
0041
0056
0047
002F
FFE4
002D
FFC9
FFD8
0022
FFFA
0018
FFA7
001D
FFD7
FFAE
0009
FFC4
000D
FFF7
0012
0048
0040
0006
0058
FFC4
FFB0
0026
003A
FFFA
002A
0024
FFE3
0044
0038
0044
FFFB
FFE2
005A
FFE9
FFA4
FFBE
004C
0003
FFA2
FFC0
005F
0057
002D
FFE5
FFE3
0037
005B
FFDB
001C
0032
FFE8
0006
FFF4
FFE9
0007
0003
FFCE
002B
FFD5
0023
0034
0044
FFA9
0032
FFB0
FFDC
003E
003D
FFFD
FFE8
FFA6
FFC4
0033
001E
0004
0051
FFB2
0005
FFEE
0041
0057
0030
FFA2
FFC3
FFAD
003B
FFD1
FFF8
0037
0014
FFFB
FFB6
0056
0032
FFC1
FFCB
0031
FFEC
0048
FFFE
FFE7
005F
003B
FFF4
0019
FFF0
005A
FFCE
0038
0043
0017
FFA1
FFD0
003D
002C
001F
004A
004E
0047
0017
0020
0045
001F
FFDA
FFC2
0036
0032
FFF3
FFB2
FFE9
004F
0041
0053
FFFF
FFCA
FFD6
FFC7
0026
FFDA
FFDD
0015
001A
0036
FFBC
0045
FFBD
0002
FFAF
0056
0011
0020
FFCA
FFE1
000F
0017
004F
001A
FFAB
FFD2
002E
FFE5
FFF9
000F
004E
FFAF
003A
FFB4
005A
FFC4
0053
003A
FFBF
004C
0037
FFCC
0059
0007
FFA7
000D
FFCC
001A
FFDE
FFD2
0041
0051
FFA3
FFF5
FFBF
0020
0049
FFD4
FFB6
0014
0026
FFDA
0024
FFDE
FFBE
FFC8
0013
0056
FFE1
FFA4
FFBF
FFC6
0033
FFE2
001C
0015
002C
FFB6
FFDD
FFBD
001F
0007
FFF0
FFB3
0008
0049
0054
003A
0007
003B
FFA5
001F
0014
FFF7
0011
0004
FFD6
FFFF
002B
001A
0012
FFA3
FFE3
003C
FFCC
0001
0056
004F
001D
0059
0024
FFA6
0009
002F
0035
000E
FFF2
002D
0049
FFF8
FFBB
FFD8
002C
0049
FFF4
FFEA
FFE9
001A
001A
FFBF
FFC9
001E
FFE8
FFCC
0044
FFF1
0053
FFFA
003F
0043
004F
000C
0054
FFEC
FFAB
FFD4
005B
0014
0009
004C
0048
FFAD
FFFC
FFD6
FFC3
FFAB
005E
0038
FFB5
000E
FFBF
0018
0025
FFCB
0038
FFAF
FFC5
0004
0015
002E
0050
FFD3
FFF6
FFB5
0037
0007
003F
FFF6
FFE2
FFFC
FFBF
FFE9
FFAB
002E
004E
FFC8
FFFE
FFC7
FFD4
FFE6
FFBE
002B
0003
0037
004C
FFAF
FFCE
0023
FFD7
FFB3
FFA8
0013
FFDB
FFD2
FFBD
0017
0046
FFFC
0022
0027
FFD6
FFAC
FFC7
FFDA
FFA8
0015
004D
FFEB
FFA9
0051
FFD9
0023
FFE4
0003
003D
FFD2
FFF2
0042
FFC3
002D
0057
0057
FFF6
FFD4
FFE6
0012
0021
0054
005C
005D
FFFA
FFDD
FFAD
005F
FFE2
003A
0013
FFE0
FFA1
0002
FFF4
005E
FFDA
FFDD
FFB7
FFE1
004D
002C
0047
FFEE
FFEE
FFF8
0048
FFE9
003A
0019
FFDA
FFED
0044
FFE1
FFF2
0012
FFF2
0043
0033
0026
FFC8
FFBC
FFDB
FFA7
FFC6
FFC8
FFF8
000D
FFCA
002C
0058
005E
FFFE
FFAA
001F
FFB3
002D
0018
000A
FFE7
FFAB
FFE4
FFE8
000A
0050
0055
FFD4
002B
0059
001E
003F
0038
FFCA
005F
0030
FFE6
FFC3
FFD3
0010
0005
0021
FFC4
0013
FFAC
0010
FFCF
0060
0060
FFDC
002D
FFD2
0059
0045
004B
002A
0052
FFD1
FFC4
FFC8
FFC3
0025
FFAC
001F
FFD4
FFEF
FFBC
005D
FFC9
FFF0
FFFA
FFAC
0038
FFFF
FFB4
000F
FFEF
FFEB
FFD9
005C
FFEB
003A
003D
FFB6
003D
FFD4
0002
FFFC
0027
FFC8
000A
FFDE
000F
FFC1
FFE7
003B
FFD8
FFF8
0032
004E
FFBB
0003
0016
0018
005E
FFB3
003C
FFEC
004B
003B
FFC6
0049
0004
FFC9
0056
FFB6
0000
0050
0059
000C
0059
0029
0012
0019
FFF7
FFB4
FFA1
0001
FFE1
FFBC
FFE2
001A
FFCA
FFE3
FFD8
0032
FFEF
005C
0047
001D
0017
0043
005E
0056
0000
0006
0015
0054
FFED
FFC7
003F
FFF7
FFFA
0005
0018
004C
FFA5
FFFC
0029
FFDA
FFC6
FFE9
004B
0031
0011
FFAF
0051
001B
FFCE
FFEC
003D
0060
0049
FFC6
0002
FFA4
001C
0039
0027
FFBC
FFC7
0016
0054
0042
FFE4
002C
0027
0054
FFD9
0056
FFBF
FFD6
FFC5
FFBF
FFDE
003D
FFC1
000B
FFA2
FFAB
FFE4
FFED
FFE0
FFC8
000D
0024
0009
FFFE
0049
FFDF
FFA0
001B
0028
FFFD
FFAE
FFB1
0057
0052
FFC8
0045
FFD1
001B
FFF9
FFB5
0050
0022
0007
FFA5
FFBD
FFA6
005D
001F
002D
005E
FFE4
0029
FFE5
FFB8
0001
004E
FFC4
0001
0049
0040
0035
0039
001A
0038
FFEA
004F
0002
FFB3
0012
000E
002F
0041
FFA2
0022
0022
FFAD
FFE0
FFD5
FFA7
FFFC
004B
FFF2
FFCD
005A
0030
002E
FFEC
0036
FFF2
FFFC
0007
FFC0
FFC7
002D
FFBB
FFE3
001C
0044
003E
004E
005F
004C
FFDA
001F
FFA8
0039
FFB6
FFC0
0044
FFD5
FFA2
0019
FFA6
FFFD
FFB6
FFD5
000E
FFD3
0035
002F
FFB6
FFB4
0056
FFB3
FFA4
FFCD
FFE6
FFC5
FFF3
FFC7
0038
0019
FFDD
FFA8
FFA9
FFF3
004D
0006
0039
FFB3
0022
001E
FFDE
FFBF
FFE6
000C
0007
FFFD
005C
0043
000E
FFEA
FFAF
FFB5
FFFE
0011
FFC5
0006
0059
0035
002D
0003
FFC8
FFC3
002A
FFC1
FFD2
0027
FFB4
FFAA
FFE6
0021
FFEF
FFDC
FFD3
0016
0054
0003
001C
003A
0048
003C
0033
FFB9
FFC3
FFC7
FFEF
FFEC
0038
005A
FFDD
FFA2
FFDB
0014
FFCE
FFE7
001C
003E
FFD9
004A
FFD8
0005
003C
FFA0
FFD1
0004
005D
002B
0023
0008
0043
FFEA
FFBD
FFE1
0013
FFFF
003E
003D
FFA1
FFDE
0057
FFE0
0006
FFE2
001E
FFB2
0012
FFFC
FFD6
FFD0
0001
0007
0000
FFF2
0050
0009
FFB2
FFE1
004A
FFDD
FFD9
0058
FFC7
FFE2
0049
001D
000F
0005
FFA3
0046
0060
000E
FFD5
0002
005D
0048
FFF7
002F
0039
FFE6
FFEA
004E
FFA1
005E
FFA9
FFE6
000D
FFA4
0013
0001
FFB7
004B
FFC0
0028
001E
FFB5
000A
FFEF
FFC1
0046
FFF0
0028
FFF0
0023
0011
FFFD
FFFF
FFBB
0005
003C
0046
FFDF
FFE4
005B
0015
0048
FFCF
FFDE
FFE0
FFD3
FFC4
FFEE
002E
FFCD
0036
004A
FFD0
FFB7
