E5E9D1F6E7CC46F5
F56D192F3F4436DF
905209FFD57F40C2
CBD4D9E33EC8F635
BF0053D9E1D00F04
E2D65E81B9AEA3DC
E81DFA0EEBA23210
DFC1B955DC96D1DD
ECF9EFACC34DEEEC
E0D24ECB164FBAA9
192113EEBF0A025F
43C7AC50D02736FB
033708DAC5CA47F5
EE18F77F2C03671A
1BFF1BE9935AD9DB
6E2514467F0BC88F
384D9E0CD2300716
DA0EF0369CD62D22
9FC1388A1A103A08
1900B00BE9C53281
0EF781BD4CE5FF26
E931033CC6202C11
7FBF3652450A4DDE
410730DC5BF081F1
271A0FC0DCF58ECF
2D7F38D7C1F2AFE6
3B51969659DD1281
DE0D498E412596BD
C19D20050067AE3E
11DC891235DD1428
0CFC9E66E0AF3F12
E246EB131ACA3BF7
D92EF717E269F1CC
ABE91C020C5B8B46
6DB99B09F74FE5D6
6636B842CFFBF6C0
4FEE0E7FBAD31B53
6815D36081243748
45F0F0E406395703
7FEE8172F2055FC0
3A4AF721F7D0D915
031AF8B1FD22431D
D6CBC248001FDCDC
2FF3CF3E33D228FC
17B1CD031189F9CB
F6D200222ACD7B28
4920D4E7EA5EED2F
3ADF5542FE2B0801
D919E31921267F8C
DE81F40E320ED4DE
A45E30E4DD133B26
ED0206C5BE2F05C3
45188137F303E181
CE462194E08E24DE
210AEA453C3D4CF4
B8EC35410BB0172C
23F424CB05EA0BBB
4D1446099A77EFE9
250E0B049CE51D62
5414E1DDD210CD11
3DBD0D71DB17EECD
1CD94CF518811602
ACD91CBE581D0BAA
ECE50EE3C7E04AEF
1BC8DCDEF8E5EA10
10FBF0F718F8337A
C6579BE47F5CAA53
E507FEFAAD09378B
02C90302EB0AF80B
D30ED42B1DFCA903
34EB2338D10F4DB0
E6040EB7D58207B9
187FEC3F3505BCB8
FA2738E0E7F8F216
BF191808F482E158
1A210BDE1F2DBFEC
DAC5C3E44E252D3A
149D072D357F3F44
CDD6C27F002E6DF0
110621BB120DC277
9DE9A4F331E62A49
EFE62503295E040D
B41A02CAE6B6CDB4
98F0ED3F25017F3D
811CF464FABD54FE
9686B2DF2843F9F2
EC45E198E300B581
FC853019EE2E0951
2B7E1D750812E135
192A27F22C3DD3C1
0CD51ED045F5E3C5
AA0A8135F4ADF404
DB1210DFA0810532
EBE5F1E139BA2ADF
A548D2E2E1F90DE4
A3D0A602E57EEBD5
D712F31F51CFFADC
0021B4EE62EEE652
08DE0405C20518F1
0F104101000BAC9E
0AB47FD0C97FEAB3
30992EDB352DD1D0
203D9414431B2F29
8113311DC794C42A
FA0E4D23B720210F
A31E023E2CC244E0
D5F833324AEBB2CC
07F838D8F5457FCD
1F251823CCEE2A7F
1A7F34C0F41D5ACB
A6C6A03ADBF624F7
F9EA1FA918393245
F91DF61D23F608C0
EB300E4A31C1462B
1218431535F82508
99B5B3DAF7AAE33C
B3F035EB93FD2233
651EED35CB4E3CB9
2127CE2924180FE5
FFCA413A2F1FDDE3
A4F323DE35D05FF0
10B14D532EC51508
0CF61988CA412912
F9CE24FFD41309DD
232513EEE8DAC7CF
3704F981B2F52940
53F4E723A4E3311C
3D4DDEE67FE7AA13
D4420F2AE3BBDA0B
DD2B30DBB37BB005
5AAE2581E3FCF9F1
9EE5D36E17D6DFDC
D6D212BFF6C50ABA
EDB081C281FAECDF
51D3990EB872FADC
E30BC4FCB86BC0E4
D9BDA30203817F13
48F213AEF6E752D6
5D553EF82377364E
AE11D65CDA47F015
D90CAE55C774F54C
C71745ACE9DAE553
E9D2E9DBEC9EBA36
E6053FDED3EF3B51
FBE8C402490F08F4
3E00DAD40DFAC072
EF81D3DDF1F6E181
B7BBB42930491D1D
94B4991BD8F01849
162B1CE156E80A17
0303E1ADBD3DF5C4
3A0D271F0BF529E9
911D0CCF84D42005
8E2ABFE4E7ACC3FE
91F332F1561D0724
ECEE1AD234F4E415
2AF0091834EEA725
E608E5E6CF09EEF3
50A9F2CF2CCAF387
814633D3EC41B0EC
D27312A2CAC847B8
B7283603B7638732
090F66E508053E5D
50C9B6FDD9B24F40
CF04B0A77077E8BA
0DBBC55D2F67DA0B
CBDDD493053C3411
5A402017D747BED6
F902137FFF9B1021
73BE3030D70A59E9
46337F66F12ABA01
1897D0F8A2B07508
5E0DD890BC3F19E8
F94C4DD5D2E61A4D
F83759F1A9695005
69A8BECE01DB5B0D
D25B7C15813F63DD
0BCA290C3EE5F719
B7F40C073E17682A
2681E6C0E95CF620
FA475333EF0873E8
E8A4DB95E392C2CA
14502BF7B80D81EF
4232E2F616E56A3A
F4345AC710BF6F4E
CFAB015B0A68AAEA
18C3BB152DC33F35
F9C4E454BD7F28DB
81FA29CA32D119A4
723B01F0B6D7FD14
2F1590D5236DE750
C6D5293CB20F3D7F
4DE0F613FDE03F6B
7F4525571848467F
C3CA59F5C2B12F0E
4226EABA5CE3FCEE
3A06CAF3E7D95AEB
0A7C24BBE7811FC4
2835AF074CCAC1B1
1ED8DBB3DDF8F8E6
79ECD32143A3F5BA
22F6EA9905E4FD10
13054014B9D737EF
42BB8119BF9853C3
F4CD31EF81029FFC
838A1313D0F90338
0F1451305AC3CB02
A8C8911ED10B3CE8
00F04D0518BC813F
C3DC214F8D1E42D9
FA18F5C826BFFC9C
53BEE29A5B87C235
49021F1B31C0D3B0
5221C2BFF0E08BA6
2932C07FDC354016
1503062EF4F0594B
4C7FEBF0102AB74A
A3242116F146C3EA
06B7C39C4285EAE1
BD1FCA140BFD1E53
ED9902BFDF90FBB6
FCCF387CBF24CED7
D7F1DB4F4B258536
24CACCAD07FFE3F2
63CAEDC2EC91DF07
2F0BA2F6D9C6C622
F6CDD7FBFE2BE70F
7242B1563C78AF53
4F0F86682913B620
0712F4C1B37FEF11
B60681A72CD6D0F6
9BC8FE5D1B26F3FE
50F7E141DA1F6A1D
69DB53A312B1DA91
1B0A0B507FE6232A
110E58812AD495F7
E1E8B143091B207F
47FB0DF7FCDD810D
6D30B7142D4A04DE
6ADF53A3BAA21F77
C7FDFFC2E9E5B500
451CED700948ECC6
10FB25BDF74B12D4
1C2AD2BAB2FA4FCC
7F1A49BE3B363827
74C6A8F7F701E151
323BA33BC408F568
498160F431B5FAC4
AF5DFD01D3610A97
43F11E2C5AB3172C
FA063CDFC3583BFD
65ED0CEA825B1A31
0BF6262001513CAE
4C01BC2799E8F135
EB031B11CCC72FD8
01E40510E648D0D4
